{
  "version": "1.0",
  "truncation": null,
  "padding": null,
  "added_tokens": [],
  "normalizer": null,
  "pre_tokenizer": {
    "type": "Whitespace"
  },
  "post_processor": null,
  "decoder": null,
  "model": {
    "type": "BPE",
    "dropout": null,
    "unk_token": null,
    "continuing_subword_prefix": null,
    "end_of_word_suffix": null,
    "fuse_unk": false,
    "byte_fallback": false,
    "ignore_merges": false,
    "vocab": {
      "!": 0,
      "\"": 1,
      "$": 2,
      "%": 3,
      "&": 4,
      "'": 5,
      "(": 6,
      ")": 7,
      "*": 8,
      "+": 9,
      ",": 10,
      "-": 11,
      ".": 12,
      "/": 13,
      "0": 14,
      "1": 15,
      "2": 16,
      "3": 17,
      "4": 18,
      "5": 19,
      "6": 20,
      "7": 21,
      "8": 22,
      "9": 23,
      ":": 24,
      ";": 25,
      "<": 26,
      "=": 27,
      ">": 28,
      "?": 29,
      "A": 30,
      "D": 31,
      "E": 32,
      "I": 33,
      "L": 34,
      "M": 35,
      "N": 36,
      "R": 37,
      "T": 38,
      "U": 39,
      "a": 40,
      "b": 41,
      "c": 42,
      "d": 43,
      "e": 44,
      "f": 45,
      "g": 46,
      "h": 47,
      "i": 48,
      "j": 49,
      "k": 50,
      "l": 51,
      "m": 52,
      "n": 53,
      "o": 54,
      "p": 55,
      "q": 56,
      "r": 57,
      "s": 58,
      "t": 59,
      "u": 60,
      "v": 61,
      "w": 62,
      "x": 63,
      "y": 64,
      "z": 65,
      "«": 66,
      "·": 67,
      "»": 68,
      "а": 69,
      "б": 70,
      "в": 71,
      "г": 72,
      "д": 73,
      "е": 74,
      "ж": 75,
      "з": 76,
      "и": 77,
      "й": 78,
      "к": 79,
      "л": 80,
      "м": 81,
      "н": 82,
      "о": 83,
      "п": 84,
      "р": 85,
      "с": 86,
      "т": 87,
      "у": 88,
      "ф": 89,
      "х": 90,
      "ц": 91,
      "ч": 92,
      "ш": 93,
      "щ": 94,
      "ъ": 95,
      "ы": 96,
      "ь": 97,
      "э": 98,
      "ю": 99,
      "я": 100,
      "ё": 101,
      "–": 102,
      "—": 103,
      "’": 104,
      "…": 105,
      "№": 106,
      "ст": 107,
      "ен": 108,
      "ов": 109,
      "ра": 110,
      "ре": 111,
      "ро": 112,
      "но": 113,
      "ко": 114,
      "ан": 115,
      "по": 116,
      "го": 117,
      "ли": 118,
      "ер": 119,
      "на": 120,
      "ет": 121,
      "ны": 122,
      "ль": 123,
      "ит": 124,
      "ми": 125,
      "ени": 126,
      "во": 127,
      "ла": 128,
      "ни": 129,
      "то": 130,
      "об": 131,
      "ка": 132,
      "за": 133,
      "ри": 134,
      "ки": 135,
      "NU": 136,
      "NUM": 137,
      "ци": 138,
      "да": 139,
      "не": 140,
      "та": 141,
      "ся": 142,
      "ло": 143,
      "ва": 144,
      "ле": 145,
      "де": 146,
      "со": 147,
      "ру": 148,
      "про": 149,
      "сс": 150,
      "мо": 151,
      "до": 152,
      "пре": 153,
      "те": 154,
      "ти": 155,
      "ани": 156,
      "ви": 157,
      "ско": 158,
      "че": 159,
      "ма": 160,
      "вы": 161,
      "бо": 162,
      "ин": 163,
      "ме": 164,
      "ров": 165,
      "ста": 166,
      "сти": 167,
      "ве": 168,
      "се": 169,
      "ски": 170,
      "ди": 171,
      "ча": 172,
      "ных": 173,
      "при": 174,
      "ть": 175,
      "па": 176,
      "ры": 177,
      "ения": 178,
      "ите": 179,
      "ду": 180,
      "от": 181,
      "пе": 182,
      "ной": 183,
      "сто": 184,
      "ск": 185,
      "сси": 186,
      "ово": 187,
      "са": 188,
      "ного": 189,
      "ение": 190,
      "су": 191,
      "ции": 192,
      "ент": 193,
      "ля": 194,
      "щи": 195,
      "ств": 196,
      "ну": 197,
      "ги": 198,
      "ку": 199,
      "ова": 200,
      "росси": 201,
      "си": 202,
      "лу": 203,
      "ши": 204,
      "хо": 205,
      "пра": 206,
      "ком": 207,
      "из": 208,
      "га": 209,
      "ют": 210,
      "бе": 211,
      "ные": 212,
      "стра": 213,
      "сь": 214,
      "ор": 215,
      "пред": 216,
      "итель": 217,
      "зи": 218,
      "пу": 219,
      "под": 220,
      "чи": 221,
      "ря": 222,
      "му": 223,
      "раз": 224,
      "ты": 225,
      "сооб": 226,
      "ня": 227,
      "он": 228,
      "лен": 229,
      "ше": 230,
      "ще": 231,
      "кото": 232,
      "тер": 233,
      "вер": 234,
      "кон": 235,
      "мен": 236,
      "мы": 237,
      "став": 238,
      "ден": 239,
      "\".": 240,
      "жи": 241,
      "ков": 242,
      "ить": 243,
      "же": 244,
      "ется": 245,
      "ным": 246,
      "ар": 247,
      "це": 248,
      "стан": 249,
      "пи": 250,
      "ный": 251,
      "бу": 252,
      "ской": 253,
      "ства": 254,
      "прав": 255,
      "дол": 256,
      "гра": 257,
      "ша": 258,
      "сов": 259,
      "\",": 260,
      "жа": 261,
      "лов": 262,
      "мер": 263,
      "кт": 264,
      "лю": 265,
      "ска": 266,
      "ности": 267,
      "спо": 268,
      "ство": 269,
      "ского": 270,
      "ских": 271,
      "ания": 272,
      "ран": 273,
      "од": 274,
      "жен": 275,
      "гла": 276,
      "ща": 277,
      "нов": 278,
      "тель": 279,
      "пере": 280,
      "сть": 281,
      "мини": 282,
      "ном": 283,
      "дан": 284,
      "моск": 285,
      "бы": 286,
      "ке": 287,
      "фи": 288,
      "ба": 289,
      "ту": 290,
      "ем": 291,
      "воз": 292,
      "би": 293,
      "лет": 294,
      "которы": 295,
      "гу": 296,
      "россии": 297,
      "ствен": 298,
      "комп": 299,
      "сле": 300,
      "слу": 301,
      "ей": 302,
      "дов": 303,
      "сво": 304,
      "бли": 305,
      "чен": 306,
      "ении": 307,
      "россий": 308,
      "вре": 309,
      "сту": 310,
      "вши": 311,
      "пер": 312,
      "бан": 313,
      "дер": 314,
      "лей": 315,
      "ита": 316,
      "ании": 317,
      "ха": 318,
      "тов": 319,
      "яв": 320,
      "ению": 321,
      "год": 322,
      "ета": 323,
      "кан": 324,
      "ное": 325,
      "ция": 326,
      "пров": 327,
      "ново": 328,
      "соб": 329,
      "это": 330,
      "рабо": 331,
      "вто": 332,
      "род": 333,
      "так": 334,
      "яви": 335,
      "фе": 336,
      "тив": 337,
      "ления": 338,
      "фор": 339,
      "рит": 340,
      "ник": 341,
      "спе": 342,
      "мет": 343,
      "ход": 344,
      "яб": 345,
      "сообщи": 346,
      "вз": 347,
      "ую": 348,
      "стви": 349,
      "ге": 350,
      "ак": 351,
      "мя": 352,
      "ред": 353,
      "вя": 354,
      "ная": 355,
      "ский": 356,
      "цент": 357,
      "года": 358,
      "ание": 359,
      "она": 360,
      "лли": 361,
      "вла": 362,
      "кра": 363,
      "раль": 364,
      "сте": 365,
      "также": 366,
      "сч": 367,
      "сообща": 368,
      "аль": 369,
      "ев": 370,
      "ность": 371,
      "дей": 372,
      "гово": 373,
      "зы": 374,
      "сл": 375,
      "орг": 376,
      "представ": 377,
      "милли": 378,
      "сша": 379,
      "ября": 380,
      "ят": 381,
      "лись": 382,
      "зна": 383,
      "пол": 384,
      "свя": 385,
      "минист": 386,
      "зо": 387,
      "след": 388,
      "стоя": 389,
      "ек": 390,
      "заяви": 391,
      "руп": 392,
      "ана": 393,
      "чер": 394,
      "ющи": 395,
      "ром": 396,
      "прези": 397,
      "лся": 398,
      "ника": 399,
      "рез": 400,
      "кой": 401,
      "челов": 402,
      "годня": 403,
      "объ": 404,
      "сегодня": 405,
      "правитель": 406,
      "тре": 407,
      "рова": 408,
      "ную": 409,
      "сообщает": 410,
      "вой": 411,
      "жд": 412,
      "ца": 413,
      "ются": 414,
      "ген": 415,
      "слова": 416,
      "ские": 417,
      "время": 418,
      "тор": 419,
      "ться": 420,
      "ос": 421,
      "поли": 422,
      "суда": 423,
      "том": 424,
      "ление": 425,
      "реш": 426,
      "форма": 427,
      "словам": 428,
      "станов": 429,
      "взры": 430,
      "ными": 431,
      "феде": 432,
      "сер": 433,
      "стре": 434,
      "вод": 435,
      "каза": 436,
      "интер": 437,
      "тру": 438,
      "цию": 439,
      "рес": 440,
      "публи": 441,
      "ений": 442,
      "стро": 443,
      "заявил": 444,
      "зд": 445,
      "ут": 446,
      "полу": 447,
      "ней": 448,
      "лось": 449,
      "дут": 450,
      "вет": 451,
      "цион": 452,
      "нача": 453,
      "ых": 454,
      "риа": 455,
      "тиче": 456,
      "воен": 457,
      "ву": 458,
      "произ": 459,
      "пас": 460,
      "долла": 461,
      "дет": 462,
      "пла": 463,
      "теле": 464,
      "боль": 465,
      "-<": 466,
      "информа": 467,
      "новости": 468,
      "рен": 469,
      "лож": 470,
      "ступ": 471,
      "дент": 472,
      "кс": 473,
      "ников": 474,
      "част": 475,
      "цен": 476,
      "тыся": 477,
      "итар": 478,
      "одна": 479,
      "рии": 480,
      "дом": 481,
      "кор": 482,
      "ору": 483,
      "ская": 484,
      "рь": 485,
      "чет": 486,
      "пар": 487,
      "стран": 488,
      "ково": 489,
      "пы": 490,
      "мь": 491,
      "рф": 492,
      "ском": 493,
      "которые": 494,
      "мест": 495,
      "цев": 496,
      "аны": 497,
      "реги": 498,
      "коло": 499,
      "er": 500,
      "циаль": 501,
      "ью": 502,
      "or": 503,
      "дру": 504,
      "рак": 505,
      "госуда": 506,
      "иту": 507,
      "мож": 508,
      "ис": 509,
      "кры": 510,
      "цы": 511,
      "человек": 512,
      "государ": 513,
      "ед": 514,
      "лы": 515,
      "народ": 516,
      "сточ": 517,
      "служ": 518,
      "расс": 519,
      "сколь": 520,
      "долларов": 521,
      "льз": 522,
      "тасс": 523,
      "ходи": 524,
      "стов": 525,
      "меж": 526,
      "вед": 527,
      "сообщил": 528,
      "кре": 529,
      "хи": 530,
      "рай": 531,
      "однако": 532,
      "авто": 533,
      "руково": 534,
      "мери": 535,
      "труд": 536,
      "каз": 537,
      "ад": 538,
      "амери": 539,
      "долж": 540,
      "фин": 541,
      "ится": 542,
      "ники": 543,
      "руковод": 544,
      "само": 545,
      "аг": 546,
      "пресс": 547,
      "an": 548,
      "согла": 549,
      "того": 550,
      "пор": 551,
      "нару": 552,
      "ил": 553,
      "опе": 554,
      "будут": 555,
      "лась": 556,
      "испо": 557,
      "мент": 558,
      "дела": 559,
      "сторо": 560,
      "рори": 561,
      "приня": 562,
      "явля": 563,
      "федераль": 564,
      "органи": 565,
      "сент": 566,
      "газ": 567,
      "министра": 568,
      "нет": 569,
      "зыва": 570,
      ">%": 571,
      "вше": 572,
      "in": 573,
      "пов": 574,
      "чеч": 575,
      "вра": 576,
      "ству": 577,
      "между": 578,
      "президен": 579,
      "тысяч": 580,
      "неф": 581,
      "горо": 582,
      "ом": 583,
      "сред": 584,
      "террори": 585,
      "американ": 586,
      "опера": 587,
      "сотруд": 588,
      "бое": 589,
      "которо": 590,
      "ствия": 591,
      "все": 592,
      "обла": 593,
      "ответ": 594,
      "онов": 595,
      "тро": 596,
      "рас": 597,
      "обще": 598,
      "ций": 599,
      "коно": 600,
      "льта": 601,
      "обе": 602,
      "мв": 603,
      "анд": 604,
      "рито": 605,
      "послед": 606,
      "готов": 607,
      "москве": 608,
      "компании": 609,
      "международ": 610,
      "дви": 611,
      "клю": 612,
      "сентября": 613,
      "влади": 614,
      "гос": 615,
      "ителей": 616,
      "данным": 617,
      "москвы": 618,
      "держ": 619,
      "дель": 620,
      "террито": 621,
      "финан": 622,
      "ель": 623,
      "мн": 624,
      "около": 625,
      "возмож": 626,
      "счита": 627,
      "ох": 628,
      "шен": 629,
      "вели": 630,
      "цу": 631,
      "мир": 632,
      "вопро": 633,
      "груп": 634,
      "против": 635,
      "тех": 636,
      "ne": 637,
      "гов": 638,
      "шта": 639,
      "году": 640,
      "связи": 641,
      "агент": 642,
      "чение": 643,
      "смо": 644,
      "вший": 645,
      "ды": 646,
      "жда": 647,
      "кро": 648,
      "ульта": 649,
      "помо": 650,
      "основ": 651,
      "окт": 652,
      "право": 653,
      "дж": 654,
      "дел": 655,
      "сре": 656,
      "результа": 657,
      "бле": 658,
      "име": 659,
      "москов": 660,
      "ез": 661,
      "ких": 662,
      "ским": 663,
      "грани": 664,
      "гене": 665,
      "ур": 666,
      "сказа": 667,
      "ждан": 668,
      "пл": 669,
      "части": 670,
      "изве": 671,
      "свои": 672,
      "мину": 673,
      "един": 674,
      "премь": 675,
      "граждан": 676,
      "республи": 677,
      "други": 678,
      "стве": 679,
      "ним": 680,
      "даге": 681,
      "эн": 682,
      "них": 683,
      "суд": 684,
      "кла": 685,
      "вар": 686,
      "решение": 687,
      "взрыв": 688,
      "управ": 689,
      "пока": 690,
      "нее": 691,
      "тра": 692,
      "лага": 693,
      "обо": 694,
      "министр": 695,
      "суще": 696,
      "подчер": 697,
      "офи": 698,
      "ителя": 699,
      "извест": 700,
      "дагестан": 701,
      "спи": 702,
      "юще": 703,
      "наход": 704,
      ">-": 705,
      "кну": 706,
      "тран": 707,
      "точ": 708,
      "пробле": 709,
      "организа": 710,
      "али": 711,
      "безо": 712,
      "шин": 713,
      "евро": 714,
      "президента": 715,
      "щен": 716,
      "ав": 717,
      "миллионов": 718,
      "министер": 719,
      "глав": 720,
      "ональ": 721,
      "ссы": 722,
      "первы": 723,
      "банка": 724,
      "логи": 725,
      "безопас": 726,
      "але": 727,
      "иск": 728,
      "лом": 729,
      "ших": 730,
      "правительства": 731,
      "октября": 732,
      "кру": 733,
      "фер": 734,
      "лин": 735,
      "вших": 736,
      "ые": 737,
      "вал": 738,
      "тем": 739,
      "аний": 740,
      "щих": 741,
      "яс": 742,
      "отно": 743,
      "использ": 744,
      "ние": 745,
      "руб": 746,
      "отмет": 747,
      "уда": 748,
      "рек": 749,
      "необ": 750,
      "систе": 751,
      "оста": 752,
      "поги": 753,
      "состав": 754,
      "лены": 755,
      "грам": 756,
      "работа": 757,
      "доку": 758,
      "бер": 759,
      "брит": 760,
      "ному": 761,
      "проку": 762,
      "тия": 763,
      "который": 764,
      "re": 765,
      "сы": 766,
      "день": 767,
      "ой": 768,
      "жден": 769,
      "что": 770,
      "несколь": 771,
      "премьер": 772,
      "тин": 773,
      "ктов": 774,
      "свобо": 775,
      "миллиар": 776,
      "ряд": 777,
      "закон": 778,
      "датель": 779,
      "предо": 780,
      "ское": 781,
      "государствен": 782,
      "выбо": 783,
      "президент": 784,
      "зан": 785,
      "пута": 786,
      "подчеркну": 787,
      "жение": 788,
      "мили": 789,
      "ители": 790,
      "ляет": 791,
      "мисси": 792,
      "обра": 793,
      "пад": 794,
      "рах": 795,
      "ческих": 796,
      "сообщ": 797,
      "мента": 798,
      "мнению": 799,
      "te": 800,
      "жения": 801,
      "мени": 802,
      "сро": 803,
      "лич": 804,
      "предсе": 805,
      "чис": 806,
      "спор": 807,
      "чения": 808,
      "бира": 809,
      "безопасности": 810,
      "встре": 811,
      "нии": 812,
      "вать": 813,
      "чечни": 814,
      "необходи": 815,
      "юри": 816,
      "ави": 817,
      "емы": 818,
      "фон": 819,
      "области": 820,
      "ссыл": 821,
      "бло": 822,
      "ван": 823,
      "зем": 824,
      "сан": 825,
      "депута": 826,
      "сказал": 827,
      "тя": 828,
      "шения": 829,
      "ый": 830,
      "чь": 831,
      "сед": 832,
      "дирек": 833,
      "ске": 834,
      "случа": 835,
      "ман": 836,
      "сно": 837,
      "эк": 838,
      "of": 839,
      "кова": 840,
      "фа": 841,
      "эти": 842,
      "провер": 843,
      "энер": 844,
      "ti": 845,
      "нова": 846,
      "ситу": 847,
      "которых": 848,
      "территории": 849,
      "ситуа": 850,
      "дву": 851,
      "фак": 852,
      "ети": 853,
      "нем": 854,
      "лон": 855,
      "нут": 856,
      "ссылкой": 857,
      "круп": 858,
      "мэ": 859,
      "тора": 860,
      "бир": 861,
      ").": 862,
      "ледов": 863,
      "рован": 864,
      "ельци": 865,
      "жур": 866,
      "кос": 867,
      "наци": 868,
      "состоя": 869,
      "теля": 870,
      "мар": 871,
      "гро": 872,
      "нали": 873,
      "лении": 874,
      "мит": 875,
      "шение": 876,
      "город": 877,
      "скую": 878,
      "работ": 879,
      "втор": 880,
      "производ": 881,
      "охран": 882,
      "направ": 883,
      "обнару": 884,
      "преступ": 885,
      "подпи": 886,
      "утвер": 887,
      "города": 888,
      "официаль": 889,
      "алекс": 890,
      "ия": 891,
      "результате": 892,
      "подчеркнул": 893,
      "сты": 894,
      "страда": 895,
      "ус": 896,
      "рату": 897,
      "восточ": 898,
      "прош": 899,
      "ющих": 900,
      "вне": 901,
      "участи": 902,
      "тон": 903,
      "оби": 904,
      "вает": 905,
      "сса": 906,
      "боле": 907,
      "иться": 908,
      "ровать": 909,
      "является": 910,
      "настоя": 911,
      "ний": 912,
      "програм": 913,
      "овой": 914,
      "сил": 915,
      "кред": 916,
      "иты": 917,
      "нима": 918,
      "обви": 919,
      "цией": 920,
      "соз": 921,
      "треб": 922,
      "ниче": 923,
      "деле": 924,
      "овать": 925,
      "интернет": 926,
      "информации": 927,
      "new": 928,
      "on": 929,
      "гру": 930,
      "оон": 931,
      "ради": 932,
      "меся": 933,
      "ствую": 934,
      "контро": 935,
      "российских": 936,
      "прове": 937,
      "боеви": 938,
      "сб": 939,
      "рации": 940,
      "пострада": 941,
      "продол": 942,
      "телей": 943,
      "обеспе": 944,
      "рублей": 945,
      "ура": 946,
      "кам": 947,
      "откры": 948,
      "дене": 949,
      "оборо": 950,
      "александ": 951,
      "сен": 952,
      "эле": 953,
      "дея": 954,
      "соответ": 955,
      "зии": 956,
      "верг": 957,
      "переда": 958,
      "отметил": 959,
      "несколько": 960,
      "источ": 961,
      "месте": 962,
      "администра": 963,
      "ал": 964,
      "ган": 965,
      "пло": 966,
      "анию": 967,
      "страны": 968,
      "ностью": 969,
      "ферен": 970,
      "оне": 971,
      "экс": 972,
      "распо": 973,
      "мин": 974,
      "избира": 975,
      "щее": 976,
      "произо": 977,
      "службы": 978,
      "финансов": 979,
      "внут": 980,
      "зво": 981,
      "счет": 982,
      "частности": 983,
      "ic": 984,
      "сла": 985,
      "подо": 986,
      "насе": 987,
      "ках": 988,
      "чечен": 989,
      "столи": 990,
      "получи": 991,
      "самолет": 992,
      "нало": 993,
      "мой": 994,
      "россия": 995,
      "политиче": 996,
      "кроме": 997,
      "as": 998,
      "полага": 999,
      "наз": 1000,
      "жай": 1001,
      "ork": 1002,
      "владимир": 1003,
      "оче": 1004,
      "мира": 1005,
      "миче": 1006,
      "скому": 1007,
      "скими": 1008,
      "сообщили": 1009,
      "представитель": 1010,
      "ban": 1011,
      "три": 1012,
      "голо": 1013,
      "него": 1014,
      "бом": 1015,
      "держа": 1016,
      "бю": 1017,
      "лия": 1018,
      "ительно": 1019,
      "ством": 1020,
      "вшие": 1021,
      "продолжа": 1022,
      "установ": 1023,
      "республики": 1024,
      "аэ": 1025,
      "твер": 1026,
      "намер": 1027,
      "образ": 1028,
      "вается": 1029,
      "тери": 1030,
      "менно": 1031,
      "должен": 1032,
      "российской": 1033,
      "началь": 1034,
      "эконо": 1035,
      "заяв": 1036,
      "дида": 1037,
      "прия": 1038,
      "сут": 1039,
      "кандида": 1040,
      "помощ": 1041,
      "документ": 1042,
      "националь": 1043,
      ">-<": 1044,
      "al": 1045,
      "доб": 1046,
      "эта": 1047,
      "миров": 1048,
      "дома": 1049,
      "анием": 1050,
      "шей": 1051,
      "вторник": 1052,
      "элект": 1053,
      "ун": 1054,
      "рей": 1055,
      "кого": 1056,
      "тии": 1057,
      "секре": 1058,
      "действия": 1059,
      "челове": 1060,
      "ждения": 1061,
      "мвд": 1062,
      "bank": 1063,
      "co": 1064,
      "его": 1065,
      "тен": 1066,
      "полож": 1067,
      "лиш": 1068,
      "дело": 1069,
      "компания": 1070,
      "европе": 1071,
      "бра": 1072,
      "пят": 1073,
      "ян": 1074,
      "законо": 1075,
      "русс": 1076,
      "борь": 1077,
      "ступа": 1078,
      "регистра": 1079,
      "стороны": 1080,
      "моби": 1081,
      "чу": 1082,
      "недель": 1083,
      "фир": 1084,
      "агентство": 1085,
      "двух": 1086,
      "услов": 1087,
      "ьют": 1088,
      "ложен": 1089,
      "сум": 1090,
      "совет": 1091,
      "ступи": 1092,
      "правоохран": 1093,
      "правоохранитель": 1094,
      "ым": 1095,
      "доне": 1096,
      "власти": 1097,
      "полн": 1098,
      "вшего": 1099,
      "исклю": 1100,
      "пен": 1101,
      "ули": 1102,
      "анов": 1103,
      "зако": 1104,
      "стави": 1105,
      "компьют": 1106,
      "ближай": 1107,
      "внутрен": 1108,
      "компьютер": 1109,
      "york": 1110,
      "гре": 1111,
      "кита": 1112,
      "голов": 1113,
      "нил": 1114,
      "кар": 1115,
      "дав": 1116,
      "догово": 1117,
      "тий": 1118,
      "гут": 1119,
      "генераль": 1120,
      "прокурату": 1121,
      "деятель": 1122,
      "стру": 1123,
      "рая": 1124,
      "обя": 1125,
      "засед": 1126,
      "лено": 1127,
      "конферен": 1128,
      "совер": 1129,
      "мвф": 1130,
      "необходимо": 1131,
      "авиа": 1132,
      "ter": 1133,
      "стей": 1134,
      "бори": 1135,
      "веден": 1136,
      "ходе": 1137,
      "бежен": 1138,
      "расследов": 1139,
      "ведения": 1140,
      "гер": 1141,
      "рам": 1142,
      "тимо": 1143,
      "кур": 1144,
      "бур": 1145,
      "ино": 1146,
      "шли": 1147,
      "гор": 1148,
      "еты": 1149,
      "ито": 1150,
      "воору": 1151,
      "север": 1152,
      "глава": 1153,
      "ющие": 1154,
      "зе": 1155,
      "уни": 1156,
      "фран": 1157,
      "ены": 1158,
      "замест": 1159,
      "тически": 1160,
      "согласно": 1161,
      "госду": 1162,
      "управления": 1163,
      "британ": 1164,
      "аэро": 1165,
      "ma": 1166,
      "зов": 1167,
      "стри": 1168,
      "кие": 1169,
      "кило": 1170,
      "циали": 1171,
      "демо": 1172,
      "шел": 1173,
      "спон": 1174,
      "денег": 1175,
      "en": 1176,
      "освобо": 1177,
      "подготов": 1178,
      "которая": 1179,
      "специаль": 1180,
      "считает": 1181,
      "существ": 1182,
      "журнали": 1183,
      "ию": 1184,
      "пет": 1185,
      "това": 1186,
      "юж": 1187,
      "задерж": 1188,
      "дать": 1189,
      "лой": 1190,
      "прое": 1191,
      "проду": 1192,
      "высо": 1193,
      "принима": 1194,
      "сай": 1195,
      "луж": 1196,
      "шее": 1197,
      "четверг": 1198,
      "зани": 1199,
      "ья": 1200,
      "понедель": 1201,
      "лий": 1202,
      "назна": 1203,
      "вор": 1204,
      "мом": 1205,
      "ятся": 1206,
      "объедин": 1207,
      "радио": 1208,
      "бюдж": 1209,
      "es": 1210,
      "оказа": 1211,
      "тай": 1212,
      "преде": 1213,
      "чает": 1214,
      "пример": 1215,
      "мно": 1216,
      "участ": 1217,
      "респон": 1218,
      "рой": 1219,
      "лидер": 1220,
      "преду": 1221,
      "российского": 1222,
      "действи": 1223,
      "оружи": 1224,
      "иностран": 1225,
      "уч": 1226,
      "шо": 1227,
      "веро": 1228,
      "прави": 1229,
      "подтвер": 1230,
      "ющий": 1231,
      "вопрос": 1232,
      "среду": 1233,
      "плани": 1234,
      "предостав": 1235,
      "настоящее": 1236,
      "ожи": 1237,
      "комисси": 1238,
      "позво": 1239,
      "ете": 1240,
      "даль": 1241,
      "вести": 1242,
      "прибы": 1243,
      "ением": 1244,
      "лена": 1245,
      "людей": 1246,
      "специали": 1247,
      "других": 1248,
      "избиратель": 1249,
      "понедельник": 1250,
      "увели": 1251,
      "ье": 1252,
      "ницу": 1253,
      "течение": 1254,
      "инте": 1255,
      "комит": 1256,
      "ленных": 1257,
      "совета": 1258,
      "корреспон": 1259,
      "очеред": 1260,
      "электро": 1261,
      "ro": 1262,
      "раи": 1263,
      "ранее": 1264,
      "топ": 1265,
      "защ": 1266,
      "заклю": 1267,
      "проис": 1268,
      "стам": 1269,
      "мене": 1270,
      "времени": 1271,
      "),": 1272,
      "ира": 1273,
      "ям": 1274,
      "льно": 1275,
      "мас": 1276,
      "путин": 1277,
      "правительство": 1278,
      "взрыва": 1279,
      "среди": 1280,
      "генера": 1281,
      "квар": 1282,
      "уголов": 1283,
      "кара": 1284,
      "прово": 1285,
      "центра": 1286,
      "пыт": 1287,
      "вания": 1288,
      "фсб": 1289,
      "ститу": 1290,
      "вид": 1291,
      "отме": 1292,
      "бело": 1293,
      "банков": 1294,
      "счета": 1295,
      "черке": 1296,
      "района": 1297,
      "подоз": 1298,
      "опас": 1299,
      "миха": 1300,
      "казыва": 1301,
      "тера": 1302,
      "шие": 1303,
      "кту": 1304,
      "перегово": 1305,
      "хов": 1306,
      "сою": 1307,
      "пала": 1308,
      "тур": 1309,
      "метров": 1310,
      "представители": 1311,
      "серь": 1312,
      "своих": 1313,
      "авгу": 1314,
      "экспер": 1315,
      "человека": 1316,
      "вклю": 1317,
      "дня": 1318,
      "кси": 1319,
      "щения": 1320,
      "режи": 1321,
      "ноч": 1322,
      "посколь": 1323,
      "зации": 1324,
      "ким": 1325,
      "проце": 1326,
      "семь": 1327,
      "предполага": 1328,
      "подоб": 1329,
      "работы": 1330,
      "централь": 1331,
      "связ": 1332,
      "автомоби": 1333,
      "утвержда": 1334,
      "обороны": 1335,
      "серьез": 1336,
      "поскольку": 1337,
      "бро": 1338,
      "уси": 1339,
      "чить": 1340,
      "либо": 1341,
      "вали": 1342,
      "чество": 1343,
      "меди": 1344,
      "щие": 1345,
      "щий": 1346,
      "первый": 1347,
      "председатель": 1348,
      "нор": 1349,
      "ками": 1350,
      "вают": 1351,
      "вице": 1352,
      "чат": 1353,
      "паса": 1354,
      "самы": 1355,
      "бед": 1356,
      "щего": 1357,
      "следу": 1358,
      "районе": 1359,
      "боевиков": 1360,
      "ок": 1361,
      "особ": 1362,
      "тных": 1363,
      "фо": 1364,
      "япо": 1365,
      "анда": 1366,
      "над": 1367,
      "зави": 1368,
      "нес": 1369,
      "могут": 1370,
      "средств": 1371,
      "использов": 1372,
      "этих": 1373,
      "конференции": 1374,
      "аре": 1375,
      "осуществ": 1376,
      "пя": 1377,
      "шве": 1378,
      "ния": 1379,
      "запад": 1380,
      "прода": 1381,
      "дости": 1382,
      "место": 1383,
      "сей": 1384,
      "рын": 1385,
      "прак": 1386,
      "мыш": 1387,
      "этому": 1388,
      "известно": 1389,
      "случае": 1390,
      "европей": 1391,
      "дон": 1392,
      "матери": 1393,
      "индоне": 1394,
      "овали": 1395,
      "разме": 1396,
      "времен": 1397,
      "перво": 1398,
      "полити": 1399,
      "обществен": 1400,
      "занима": 1401,
      ">.": 1402,
      "нан": 1403,
      "укра": 1404,
      "нологи": 1405,
      "мина": 1406,
      "завер": 1407,
      "рует": 1408,
      "доро": 1409,
      "бор": 1410,
      "стать": 1411,
      "российские": 1412,
      "федерации": 1413,
      "парла": 1414,
      "пыта": 1415,
      "лишь": 1416,
      "регистрации": 1417,
      "корреспондент": 1418,
      "шении": 1419,
      "польз": 1420,
      "мии": 1421,
      "рубе": 1422,
      "матри": 1423,
      "вых": 1424,
      "министерства": 1425,
      "вит": 1426,
      "тить": 1427,
      "чин": 1428,
      "наб": 1429,
      "ныне": 1430,
      "пун": 1431,
      "интерфак": 1432,
      "повы": 1433,
      "смот": 1434,
      "погиб": 1435,
      "энерго": 1436,
      "крупней": 1437,
      "участие": 1438,
      "беженцев": 1439,
      "многи": 1440,
      "кри": 1441,
      "кта": 1442,
      "коли": 1443,
      "пози": 1444,
      "находи": 1445,
      "обы": 1446,
      "прекра": 1447,
      "масс": 1448,
      "бой": 1449,
      "призна": 1450,
      "шая": 1451,
      "провод": 1452,
      "строй": 1453,
      "которой": 1454,
      "ющей": 1455,
      "миллиардов": 1456,
      "александр": 1457,
      "внутренних": 1458,
      ">,": 1459,
      "ia": 1460,
      "бр": 1461,
      "жителей": 1462,
      "лле": 1463,
      "много": 1464,
      "окру": 1465,
      "рот": 1466,
      "постав": 1467,
      "нато": 1468,
      "сом": 1469,
      "проек": 1470,
      "выз": 1471,
      "выпу": 1472,
      "сии": 1473,
      "числе": 1474,
      "шего": 1475,
      "знач": 1476,
      "системы": 1477,
      "секрета": 1478,
      "пятницу": 1479,
      "проект": 1480,
      "хва": 1481,
      "напо": 1482,
      "закры": 1483,
      "лев": 1484,
      "лем": 1485,
      "чай": 1486,
      "часть": 1487,
      "меры": 1488,
      "деньги": 1489,
      "милиции": 1490,
      "вооружен": 1491,
      "be": 1492,
      "бин": 1493,
      "вью": 1494,
      "жиз": 1495,
      "сведения": 1496,
      "шую": 1497,
      "наи": 1498,
      "рий": 1499,
      "лез": 1500,
      "дил": 1501,
      "пара": 1502,
      "подраз": 1503,
      "центре": 1504,
      "действ": 1505,
      "государства": 1506,
      "испол": 1507,
      "мышлен": 1508,
      "ar": 1509,
      "ат": 1510,
      "бит": 1511,
      "йор": 1512,
      "опреде": 1513,
      "сит": 1514,
      "угро": 1515,
      "ербур": 1516,
      "вос": 1517,
      "созд": 1518,
      "приз": 1519,
      "причи": 1520,
      "отмы": 1521,
      "израи": 1522,
      "поддерж": 1523,
      "которого": 1524,
      "петербур": 1525,
      "менее": 1526,
      "зу": 1527,
      "ктор": 1528,
      "оп": 1529,
      "еров": 1530,
      "сят": 1531,
      "тиво": 1532,
      "стиче": 1533,
      "часов": 1534,
      "сам": 1535,
      "предприя": 1536,
      "органов": 1537,
      "оператив": 1538,
      "обвин": 1539,
      "пита": 1540,
      "ях": 1541,
      "нам": 1542,
      "называ": 1543,
      "обсу": 1544,
      "сол": 1545,
      "противо": 1546,
      "тели": 1547,
      "коммер": 1548,
      "бере": 1549,
      "люд": 1550,
      "войск": 1551,
      "информацион": 1552,
      "корпо": 1553,
      "должны": 1554,
      "газета": 1555,
      "обнаружен": 1556,
      "намерен": 1557,
      "примерно": 1558,
      "швей": 1559,
      "de": 1560,
      "бен": 1561,
      "ес": 1562,
      "жер": 1563,
      "фло": 1564,
      "потреб": 1565,
      "лит": 1566,
      "наза": 1567,
      "нев": 1568,
      "там": 1569,
      "дели": 1570,
      "деления": 1571,
      "выпла": 1572,
      "измен": 1573,
      "станции": 1574,
      "банк": 1575,
      "актив": 1576,
      "ждение": 1577,
      "интервью": 1578,
      "распро": 1579,
      "технологи": 1580,
      "председа": 1581,
      "зависи": 1582,
      "нью": 1583,
      "рав": 1584,
      "рами": 1585,
      "рева": 1586,
      "вол": 1587,
      "ката": 1588,
      "процент": 1589,
      "коман": 1590,
      "шед": 1591,
      "стана": 1592,
      "новый": 1593,
      "чены": 1594,
      "лением": 1595,
      "военных": 1596,
      "ракет": 1597,
      "нефти": 1598,
      "дагестане": 1599,
      "ельцина": 1600,
      "законодатель": 1601,
      "заместитель": 1602,
      "кварти": 1603,
      ">\"": 1604,
      "вместе": 1605,
      "гли": 1606,
      "гей": 1607,
      "имо": 1608,
      "кли": 1609,
      "тю": 1610,
      "хот": 1611,
      "чно": 1612,
      "шло": 1613,
      "ядер": 1614,
      "воск": 1615,
      "лай": 1616,
      "графи": 1617,
      "способ": 1618,
      "новой": 1619,
      "территори": 1620,
      "погибли": 1621,
      "вд": 1622,
      "лению": 1623,
      "кав": 1624,
      "запре": 1625,
      "кий": 1626,
      "преж": 1627,
      "силь": 1628,
      "пути": 1629,
      "развит": 1630,
      "щая": 1631,
      "вшим": 1632,
      "спец": 1633,
      "четы": 1634,
      "другие": 1635,
      "косово": 1636,
      "кредит": 1637,
      "com": 1638,
      "рубеж": 1639,
      "нынеш": 1640,
      "аб": 1641,
      "збир": 1642,
      "лан": 1643,
      "останов": 1644,
      "член": 1645,
      "поль": 1646,
      "постанов": 1647,
      "недо": 1648,
      "сок": 1649,
      "состо": 1650,
      "выра": 1651,
      "нового": 1652,
      "связан": 1653,
      "должно": 1654,
      "план": 1655,
      "находится": 1656,
      "транспор": 1657,
      "удалось": 1658,
      "мэра": 1659,
      "практически": 1660,
      "жерт": 1661,
      "воскрес": 1662,
      "ева": 1663,
      "лд": 1664,
      "пря": 1665,
      "сдела": 1666,
      "бывший": 1667,
      "треть": 1668,
      "вшей": 1669,
      "городе": 1670,
      "операции": 1671,
      "велико": 1672,
      "проблемы": 1673,
      "помощь": 1674,
      "августа": 1675,
      "еди": 1676,
      "им": 1677,
      "ваться": 1678,
      "лежа": 1679,
      "ссе": 1680,
      "можен": 1681,
      "стало": 1682,
      "суде": 1683,
      "щей": 1684,
      "главы": 1685,
      "ствие": 1686,
      "миллиона": 1687,
      "американских": 1688,
      "миллиарда": 1689,
      "уничто": 1690,
      "ожида": 1691,
      "великобрит": 1692,
      "вен": 1693,
      "ево": 1694,
      "ями": 1695,
      "енко": 1696,
      "нах": 1697,
      "наде": 1698,
      "промышлен": 1699,
      "стране": 1700,
      "разру": 1701,
      "верну": 1702,
      "жил": 1703,
      "ходит": 1704,
      "сообщила": 1705,
      "ствии": 1706,
      "парта": 1707,
      "ющего": 1708,
      "министерство": 1709,
      "составляет": 1710,
      "столицы": 1711,
      "условия": 1712,
      "китай": 1713,
      "лужков": 1714,
      "генерал": 1715,
      "корреспонденту": 1716,
      "бов": 1717,
      "бар": 1718,
      "потер": 1719,
      "лам": 1720,
      "ведом": 1721,
      "ряс": 1722,
      "ленные": 1723,
      "чено": 1724,
      "банд": 1725,
      "провед": 1726,
      "сотрудников": 1727,
      "организации": 1728,
      "круг": 1729,
      "образом": 1730,
      "борьбе": 1731,
      "госдумы": 1732,
      "..": 1733,
      "ий": 1734,
      "ню": 1735,
      "оте": 1736,
      "спаса": 1737,
      "тр": 1738,
      "цер": 1739,
      "енье": 1740,
      "мирот": 1741,
      "торов": 1742,
      "незакон": 1743,
      "таможен": 1744,
      "департа": 1745,
      "маль": 1746,
      "вече": 1747,
      "дии": 1748,
      "дума": 1749,
      "ссии": 1750,
      "бал": 1751,
      "собра": 1752,
      "взя": 1753,
      "следова": 1754,
      "сегодняш": 1755,
      "торгов": 1756,
      "руководство": 1757,
      "средства": 1758,
      "сотрудниче": 1759,
      "группа": 1760,
      "прокуро": 1761,
      "юрий": 1762,
      "деятельности": 1763,
      "миротвор": 1764,
      "da": 1765,
      "ss": 1766,
      "дово": 1767,
      "щении": 1768,
      "вое": 1769,
      "каче": 1770,
      "кин": 1771,
      "ческого": 1772,
      "хода": 1773,
      "комму": 1774,
      "предвар": 1775,
      "разработ": 1776,
      "своей": 1777,
      "чень": 1778,
      "объяви": 1779,
      "большин": 1780,
      "помощи": 1781,
      "число": 1782,
      "голосов": 1783,
      "so": 1784,
      "йти": 1785,
      "уров": 1786,
      "поряд": 1787,
      "стал": 1788,
      "мень": 1789,
      "ственных": 1790,
      "компле": 1791,
      "собы": 1792,
      "список": 1793,
      "транс": 1794,
      "ситуация": 1795,
      "населения": 1796,
      "четыре": 1797,
      "un": 1798,
      "бри": 1799,
      "вле": 1800,
      "исто": 1801,
      "именно": 1802,
      "сет": 1803,
      "спу": 1804,
      "уча": 1805,
      "указ": 1806,
      "шой": 1807,
      "стин": 1808,
      "пода": 1809,
      "лиц": 1810,
      "тах": 1811,
      "пасса": 1812,
      "совмест": 1813,
      "возник": 1814,
      "губер": 1815,
      "акции": 1816,
      "регистри": 1817,
      "сторон": 1818,
      "нефте": 1819,
      "которое": 1820,
      "движения": 1821,
      "возможно": 1822,
      "подписа": 1823,
      "более": 1824,
      "созда": 1825,
      "экономи": 1826,
      "правоохранительных": 1827,
      "иностранных": 1828,
      "воскресенье": 1829,
      "пассажи": 1830,
      "аф": 1831,
      "или": 1832,
      "ог": 1833,
      "опубли": 1834,
      "чс": 1835,
      "гон": 1836,
      "независи": 1837,
      "рования": 1838,
      "чая": 1839,
      "отказа": 1840,
      "предлож": 1841,
      "различ": 1842,
      "котором": 1843,
      "представителей": 1844,
      "представителя": 1845,
      "объяв": 1846,
      "требу": 1847,
      "войска": 1848,
      "цами": 1849,
      "террориз": 1850,
      "дагестана": 1851,
      "фонда": 1852,
      "экономиче": 1853,
      "продук": 1854,
      "топли": 1855,
      "пользова": 1856,
      "предваритель": 1857,
      "биз": 1858,
      "джи": 1859,
      "ема": 1860,
      "клин": 1861,
      "лер": 1862,
      "мов": 1863,
      "сить": 1864,
      "фун": 1865,
      "кое": 1866,
      "лег": 1867,
      "делу": 1868,
      "силы": 1869,
      "одного": 1870,
      "данные": 1871,
      "компаний": 1872,
      "никаких": 1873,
      "военно": 1874,
      "информацию": 1875,
      "домов": 1876,
      "ing": 1877,
      "сотрудники": 1878,
      "считают": 1879,
      "имеет": 1880,
      "материа": 1881,
      "индонези": 1882,
      "ll": 1883,
      "исс": 1884,
      "окон": 1885,
      "очень": 1886,
      "уби": 1887,
      "устрой": 1888,
      "чении": 1889,
      "чрез": 1890,
      "поку": 1891,
      "лик": 1892,
      "ток": 1893,
      "кая": 1894,
      "ризбир": 1895,
      "вая": 1896,
      "ваются": 1897,
      "дополн": 1898,
      "чем": 1899,
      "мед": 1900,
      "дили": 1901,
      "луч": 1902,
      "конститу": 1903,
      "люди": 1904,
      "одной": 1905,
      "держи": 1906,
      "кана": 1907,
      "говорит": 1908,
      "рассмо": 1909,
      "нефть": 1910,
      "емых": 1911,
      "директор": 1912,
      "демон": 1913,
      "оружия": 1914,
      "комитета": 1915,
      "карача": 1916,
      "многие": 1917,
      "вание": 1918,
      "твра": 1919,
      "мире": 1920,
      "тол": 1921,
      "обору": 1922,
      "каж": 1923,
      "запу": 1924,
      "циа": 1925,
      "руется": 1926,
      "видет": 1927,
      "махи": 1928,
      "боро": 1929,
      "места": 1930,
      "час": 1931,
      "своего": 1932,
      "харак": 1933,
      "телефон": 1934,
      "ствует": 1935,
      "владимира": 1936,
      "группы": 1937,
      "предотвра": 1938,
      "кандидатов": 1939,
      "кавказ": 1940,
      "вечером": 1941,
      "(<": 1942,
      "mes": 1943,
      "ау": 1944,
      "вче": 1945,
      "колле": 1946,
      "поме": 1947,
      "лами": 1948,
      "рия": 1949,
      "мор": 1950,
      "виктор": 1951,
      "вычай": 1952,
      "ингу": 1953,
      "стали": 1954,
      "скры": 1955,
      "ового": 1956,
      "гаран": 1957,
      "цель": 1958,
      "возвра": 1959,
      "лета": 1960,
      "летряс": 1961,
      "финанс": 1962,
      "агентства": 1963,
      "сообщения": 1964,
      "землетряс": 1965,
      "площа": 1966,
      "документы": 1967,
      "назад": 1968,
      "чрезвычай": 1969,
      "вчера": 1970,
      "le": 1971,
      "ri": 1972,
      "чных": 1973,
      "той": 1974,
      "тами": 1975,
      "скура": 1976,
      "писа": 1977,
      "тельно": 1978,
      "тури": 1979,
      "собира": 1980,
      "органа": 1981,
      "полностью": 1982,
      "золо": 1983,
      "никами": 1984,
      "трех": 1985,
      "адво": 1986,
      "федеральных": 1987,
      "последние": 1988,
      "клад": 1989,
      "срок": 1990,
      "тяже": 1991,
      "times": 1992,
      "лондон": 1993,
      "внеш": 1994,
      "улице": 1995,
      "обяза": 1996,
      "отмеча": 1997,
      "us": 1998,
      "дра": 1999,
      "дмит": 2000,
      "они": 2001,
      "рги": 2002,
      "сми": 2003,
      "тит": 2004,
      "кома": 2005,
      "льных": 2006,
      "льной": 2007,
      "цик": 2008,
      "некоторые": 2009,
      "проте": 2010,
      "вин": 2011,
      "сканда": 2012,
      "ительной": 2013,
      "ственно": 2014,
      "органы": 2015,
      "ющим": 2016,
      "движение": 2017,
      "отношении": 2018,
      "месяцев": 2019,
      "начальник": 2020,
      "заседании": 2021,
      "борис": 2022,
      "распростран": 2023,
      "процентов": 2024,
      "карачаево": 2025,
      "оборудов": 2026,
      "sof": 2027,
      "вов": 2028,
      "нен": 2029,
      "оши": 2030,
      "тные": 2031,
      "цени": 2032,
      "шла": 2033,
      "нами": 2034,
      "зада": 2035,
      "зарегистри": 2036,
      "недав": 2037,
      "мощ": 2038,
      "мости": 2039,
      "саха": 2040,
      "конкре": 2041,
      "которым": 2042,
      "свое": 2043,
      "федерального": 2044,
      "газеты": 2045,
      "террористов": 2046,
      "всем": 2047,
      "блока": 2048,
      "экспор": 2049,
      "администрации": 2050,
      "прокуратуры": 2051,
      "структу": 2052,
      "совершен": 2053,
      "бюджет": 2054,
      "действий": 2055,
      "исполн": 2056,
      "soft": 2057,
      "mic": 2058,
      "pre": 2059,
      "вс": 2060,
      "ктив": 2061,
      "чной": 2062,
      "ования": 2063,
      "вок": 2064,
      "чей": 2065,
      "маши": 2066,
      "выну": 2067,
      "отстав": 2068,
      "ший": 2069,
      "шим": 2070,
      "верси": 2071,
      "ранен": 2072,
      "данных": 2073,
      "ственной": 2074,
      "сообщило": 2075,
      "центр": 2076,
      "ционной": 2077,
      "начала": 2078,
      "платы": 2079,
      "нефтя": 2080,
      "ted": 2081,
      "tion": 2082,
      "ельцин": 2083,
      "журналистам": 2084,
      "осуществля": 2085,
      "смотря": 2086,
      "председателя": 2087,
      "еже": 2088,
      "кса": 2089,
      "мчс": 2090,
      "сни": 2091,
      "свидет": 2092,
      "ху": 2093,
      "дар": 2094,
      "несмотря": 2095,
      "дека": 2096,
      "мос": 2097,
      "момент": 2098,
      "тил": 2099,
      "статоч": 2100,
      "дина": 2101,
      "паки": 2102,
      "одно": 2103,
      "новых": 2104,
      "возбу": 2105,
      "возглав": 2106,
      "формиров": 2107,
      "штаб": 2108,
      "находя": 2109,
      "первые": 2110,
      "етии": 2111,
      "делега": 2112,
      "расположен": 2113,
      "ближайшее": 2114,
      "аэропор": 2115,
      "количество": 2116,
      "напом": 2117,
      "великобритании": 2118,
      "micro": 2119,
      "press": 2120,
      "жении": 2121,
      "зин": 2122,
      "идет": 2123,
      "остав": 2124,
      "ограни": 2125,
      "сбо": 2126,
      "щение": 2127,
      "нок": 2128,
      "лица": 2129,
      "непо": 2130,
      "тар": 2131,
      "вашин": 2132,
      "сох": 2133,
      "рую": 2134,
      "превы": 2135,
      "тие": 2136,
      "скоре": 2137,
      "ляют": 2138,
      "хоз": 2139,
      "мена": 2140,
      "российский": 2141,
      "сергей": 2142,
      "военные": 2143,
      "двига": 2144,
      "минувший": 2145,
      "валют": 2146,
      "государственной": 2147,
      "проведен": 2148,
      "соответствую": 2149,
      "источники": 2150,
      "получили": 2151,
      "рамках": 2152,
      "комиссии": 2153,
      "михаил": 2154,
      "украи": 2155,
      "секретарь": 2156,
      "наиболее": 2157,
      "восстанов": 2158,
      "декаб": 2159,
      "вашинг": 2160,
      "do": 2161,
      "ава": 2162,
      "тно": 2163,
      "уне": 2164,
      "успе": 2165,
      "уточ": 2166,
      "эва": 2167,
      "ладен": 2168,
      "нико": 2169,
      "заво": 2170,
      "тирова": 2171,
      "вые": 2172,
      "выда": 2173,
      "стами": 2174,
      "веду": 2175,
      "принад": 2176,
      "пале": 2177,
      "без": 2178,
      "бел": 2179,
      "развед": 2180,
      "щем": 2181,
      "конф": 2182,
      "жили": 2183,
      "служа": 2184,
      "своем": 2185,
      "ходят": 2186,
      "центризбир": 2187,
      "войны": 2188,
      "решения": 2189,
      "корруп": 2190,
      "автобу": 2191,
      "должна": 2192,
      "являются": 2193,
      "net": 2194,
      "штаба": 2195,
      "московского": 2196,
      "взрывчат": 2197,
      "этим": 2198,
      "ситуации": 2199,
      "космиче": 2200,
      "программы": 2201,
      "обвиня": 2202,
      "соответствии": 2203,
      "столице": 2204,
      "расследование": 2205,
      "погибших": 2206,
      "катастро": 2207,
      "членов": 2208,
      "качестве": 2209,
      "эваку": 2210,
      "ао": 2211,
      "бла": 2212,
      "дже": 2213,
      "пово": 2214,
      "реши": 2215,
      "пост": 2216,
      "попыт": 2217,
      "льные": 2218,
      "восто": 2219,
      "прось": 2220,
      "терак": 2221,
      "выстав": 2222,
      "выступа": 2223,
      "выполн": 2224,
      "бес": 2225,
      "ряда": 2226,
      "пиров": 2227,
      "жал": 2228,
      "бай": 2229,
      "возду": 2230,
      "собой": 2231,
      "второй": 2232,
      "ходя": 2233,
      "полно": 2234,
      "серге": 2235,
      "цены": 2236,
      "госпита": 2237,
      "новая": 2238,
      "гроз": 2239,
      "получил": 2240,
      "начальника": 2241,
      "предполагается": 2242,
      "коммуника": 2243,
      "microsoft": 2244,
      "for": 2245,
      "st": 2246,
      "зер": 2247,
      "пр": 2248,
      "ср": 2249,
      "сдел": 2250,
      "тан": 2251,
      "фбр": 2252,
      "цар": 2253,
      "нак": 2254,
      "льного": 2255,
      "задолжен": 2256,
      "сот": 2257,
      "сокра": 2258,
      "достав": 2259,
      "выяс": 2260,
      "хоро": 2261,
      "изъ": 2262,
      "беспо": 2263,
      "берез": 2264,
      "шем": 2265,
      "одном": 2266,
      "объяс": 2267,
      "здания": 2268,
      "может": 2269,
      ">%.": 2270,
      "минут": 2271,
      "выборов": 2272,
      "выборах": 2273,
      "сообщению": 2274,
      "встречи": 2275,
      "депутат": 2276,
      "директора": 2277,
      "километ": 2278,
      "демокра": 2279,
      "сведениям": 2280,
      "подразделения": 2281,
      "говорится": 2282,
      "вынужден": 2283,
      "th": 2284,
      "ап": 2285,
      "езд": 2286,
      "оцен": 2287,
      "увер": 2288,
      "шко": 2289,
      "лиде": 2290,
      "накан": 2291,
      "таким": 2292,
      "соль": 2293,
      "прожи": 2294,
      "виде": 2295,
      "рово": 2296,
      "рованы": 2297,
      "дий": 2298,
      "примен": 2299,
      "ителем": 2300,
      "стоит": 2301,
      "гии": 2302,
      "конгре": 2303,
      "цей": 2304,
      "пись": 2305,
      "пери": 2306,
      "получен": 2307,
      "партии": 2308,
      "возможность": 2309,
      "находятся": 2310,
      "обрати": 2311,
      "административ": 2312,
      "произошел": 2313,
      "налогов": 2314,
      "asso": 2315,
      "масха": 2316,
      "наблю": 2317,
      "израиль": 2318,
      "лдпр": 2319,
      "ингуш": 2320,
      "березов": 2321,
      "накануне": 2322,
      "жар": 2323,
      "ие": 2324,
      "сети": 2325,
      "чению": 2326,
      "ностей": 2327,
      "космо": 2328,
      "поки": 2329,
      "пояс": 2330,
      "поступи": 2331,
      "дой": 2332,
      "виз": 2333,
      "мере": 2334,
      "сами": 2335,
      "овал": 2336,
      "гами": 2337,
      "разу": 2338,
      "верхов": 2339,
      "буду": 2340,
      "лови": 2341,
      "рассматри": 2342,
      "охра": 2343,
      "границы": 2344,
      "организация": 2345,
      "создан": 2346,
      "генерального": 2347,
      "ters": 2348,
      "специалисты": 2349,
      "черкесии": 2350,
      "подозр": 2351,
      "достиг": 2352,
      "швейцар": 2353,
      "убий": 2354,
      "изъя": 2355,
      "др": 2356,
      "дней": 2357,
      "жной": 2358,
      "сн": 2359,
      "ссо": 2360,
      "убе": 2361,
      "юр": 2362,
      "роб": 2363,
      "рост": 2364,
      "пой": 2365,
      "посоль": 2366,
      "пожар": 2367,
      "най": 2368,
      "залож": 2369,
      "затем": 2370,
      "содерж": 2371,
      "ческой": 2372,
      "инци": 2373,
      "куль": 2374,
      "гам": 2375,
      "тых": 2376,
      "работу": 2377,
      "принято": 2378,
      "группиров": 2379,
      "депутаты": 2380,
      "проверки": 2381,
      "митин": 2382,
      "голос": 2383,
      "белору": 2384,
      "переговоры": 2385,
      "япон": 2386,
      "проекта": 2387,
      "хотя": 2388,
      "территорию": 2389,
      "ликви": 2390,
      "адвока": 2391,
      ".\"": 2392,
      "ce": 2393,
      "вся": 2394,
      "их": 2395,
      "ква": 2396,
      "сня": 2397,
      "слож": 2398,
      "учен": 2399,
      "щер": 2400,
      "запа": 2401,
      "захва": 2402,
      "ринов": 2403,
      "кирги": 2404,
      "нему": 2405,
      "мон": 2406,
      "доме": 2407,
      "выде": 2408,
      "выше": 2409,
      "выступ": 2410,
      "стар": 2411,
      "сек": 2412,
      "сел": 2413,
      "пал": 2414,
      "стоимо": 2415,
      "ляр": 2416,
      "нуть": 2417,
      "россию": 2418,
      "ходов": 2419,
      "права": 2420,
      "гражд": 2421,
      "тельства": 2422,
      "бывшего": 2423,
      "близ": 2424,
      "акций": 2425,
      "зом": 2426,
      "ровано": 2427,
      "полиции": 2428,
      "строитель": 2429,
      "плате": 2430,
      "тысячи": 2431,
      "вшее": 2432,
      "ответствен": 2433,
      "международного": 2434,
      "система": 2435,
      "работать": 2436,
      "депутатов": 2437,
      "задержан": 2438,
      "предупре": 2439,
      "интере": 2440,
      "очередь": 2441,
      "уголовное": 2442,
      "утверждает": 2443,
      "парламента": 2444,
      "отмыв": 2445,
      "ошиб": 2446,
      "bc": 2447,
      "внов": 2448,
      "вшую": 2449,
      "йнак": 2450,
      "ост": 2451,
      "ущер": 2452,
      "ффе": 2453,
      "чка": 2454,
      "эффе": 2455,
      "регу": 2456,
      "речь": 2457,
      "коре": 2458,
      "наро": 2459,
      "вокруг": 2460,
      "обре": 2461,
      "кали": 2462,
      "каса": 2463,
      "заболе": 2464,
      "зарубеж": 2465,
      "деся": 2466,
      "соедин": 2467,
      "состави": 2468,
      "прод": 2469,
      "дор": 2470,
      "допу": 2471,
      "семен": 2472,
      "северо": 2473,
      "отсут": 2474,
      "чил": 2475,
      "жиринов": 2476,
      "станет": 2477,
      "буйнак": 2478,
      "одним": 2479,
      "новые": 2480,
      "взор": 2481,
      "полиция": 2482,
      "казах": 2483,
      "ренко": 2484,
      "региональ": 2485,
      "служба": 2486,
      "крем": 2487,
      "автома": 2488,
      "порно": 2489,
      "чечне": 2490,
      "отношения": 2491,
      "состояние": 2492,
      "обязан": 2493,
      "бюджета": 2494,
      "тайван": 2495,
      "союза": 2496,
      "медици": 2497,
      "iated": 2498,
      "вырази": 2499,
      "судеб": 2500,
      "спут": 2501,
      "губерна": 2502,
      "военнослужа": 2503,
      "индонезий": 2504,
      "вновь": 2505,
      "ho": 2506,
      "двое": 2507,
      "ини": 2508,
      "сло": 2509,
      "смер": 2510,
      "тся": 2511,
      "шений": 2512,
      "ремен": 2513,
      "номер": 2514,
      "неизвест": 2515,
      "неделе": 2516,
      "таких": 2517,
      "просто": 2518,
      "май": 2519,
      "меро": 2520,
      "щим": 2521,
      "кую": 2522,
      "шир": 2523,
      "орт": 2524,
      "ительных": 2525,
      "муще": 2526,
      "армии": 2527,
      "станция": 2528,
      "свой": 2529,
      "анато": 2530,
      "публика": 2531,
      "цена": 2532,
      "друго": 2533,
      "исп": 2534,
      "президентом": 2535,
      "международных": 2536,
      "международной": 2537,
      "списка": 2538,
      "организаций": 2539,
      "австра": 2540,
      "емые": 2541,
      "санкт": 2542,
      "преступления": 2543,
      "произошло": 2544,
      "фирмы": 2545,
      "договора": 2546,
      "вероят": 2547,
      "электрон": 2548,
      "черкесс": 2549,
      "жизни": 2550,
      "корпорации": 2551,
      "стоимость": 2552,
      "ru": 2553,
      "uters": 2554,
      "ата": 2555,
      "крит": 2556,
      "нь": 2557,
      "пру": 2558,
      "син": 2559,
      "яр": 2560,
      "поэтому": 2561,
      "лии": 2562,
      "ними": 2563,
      "важ": 2564,
      "док": 2565,
      "чества": 2566,
      "мей": 2567,
      "привле": 2568,
      "печа": 2569,
      "суб": 2570,
      "сих": 2571,
      "предпринима": 2572,
      "ительные": 2573,
      "концер": 2574,
      "ранения": 2575,
      "били": 2576,
      "ябре": 2577,
      "край": 2578,
      "заявили": 2579,
      "руководитель": 2580,
      "финанси": 2581,
      "reuters": 2582,
      "миссии": 2583,
      "емый": 2584,
      "экстре": 2585,
      "восточного": 2586,
      "александра": 2587,
      "закона": 2588,
      "дальней": 2589,
      "интерфакс": 2590,
      "массов": 2591,
      "исследов": 2592,
      "дмитрий": 2593,
      "глу": 2594,
      "две": 2595,
      "ещ": 2596,
      "емо": 2597,
      "жу": 2598,
      "жению": 2599,
      "имя": 2600,
      "имуще": 2601,
      "кер": 2602,
      "оно": 2603,
      "ук": 2604,
      "указа": 2605,
      "шению": 2606,
      "яй": 2607,
      "ресу": 2608,
      "циф": 2609,
      "лого": 2610,
      "руша": 2611,
      "выпол": 2612,
      "призы": 2613,
      "присут": 2614,
      "отправ": 2615,
      "сков": 2616,
      "ентов": 2617,
      "нуж": 2618,
      "куп": 2619,
      "коммен": 2620,
      "няя": 2621,
      "гувд": 2622,
      "собствен": 2623,
      "стоян": 2624,
      "заявила": 2625,
      "анали": 2626,
      "черно": 2627,
      "согласи": 2628,
      "возможности": 2629,
      "использу": 2630,
      "производства": 2631,
      "контроль": 2632,
      "вшиеся": 2633,
      "документов": 2634,
      "сумму": 2635,
      "пенси": 2636,
      "оказались": 2637,
      "подозрева": 2638,
      "рынке": 2639,
      "вооруженных": 2640,
      "обсужда": 2641,
      "промышленности": 2642,
      "прокурора": 2643,
      "предварительным": 2644,
      "палестин": 2645,
      "конфли": 2646,
      "наблюда": 2647,
      "инициа": 2648,
      "мероприя": 2649,
      "li": 2650,
      "nas": 2651,
      "дин": 2652,
      "йло": 2653,
      "кци": 2654,
      "нт": 2655,
      "пти": 2656,
      "щую": 2657,
      "ъез": 2658,
      "стер": 2659,
      "ено": 2660,
      "енно": 2661,
      "анной": 2662,
      "начи": 2663,
      "направи": 2664,
      "вом": 2665,
      "достаточ": 2666,
      "вым": 2667,
      "думы": 2668,
      "отве": 2669,
      "стол": 2670,
      "скла": 2671,
      "верто": 2672,
      "консу": 2673,
      "менте": 2674,
      "этом": 2675,
      "форми": 2676,
      "властей": 2677,
      "говой": 2678,
      "объе": 2679,
      "утром": 2680,
      "службу": 2681,
      "соглашение": 2682,
      "террористиче": 2683,
      "всей": 2684,
      "трое": 2685,
      "удары": 2686,
      "городской": 2687,
      "кредита": 2688,
      "пострадавших": 2689,
      "передает": 2690,
      "национальной": 2691,
      "францу": 2692,
      "аэрофло": 2693,
      "союз": 2694,
      "процесс": 2695,
      "обвинения": 2696,
      "большинство": 2697,
      "характер": 2698,
      "принадлежа": 2699,
      "assoc": 2700,
      "медицин": 2701,
      "крити": 2702,
      "экстреми": 2703,
      "рушайло": 2704,
      ">:": 2705,
      "вним": 2706,
      "вкла": 2707,
      "гети": 2708,
      "джа": 2709,
      "ии": 2710,
      "ила": 2711,
      "йм": 2712,
      "юсти": 2713,
      "яко": 2714,
      "яку": 2715,
      "нос": 2716,
      "похи": 2717,
      "лицен": 2718,
      "мия": 2719,
      "как": 2720,
      "зар": 2721,
      "сона": 2722,
      "соста": 2723,
      "моло": 2724,
      "виру": 2725,
      "выход": 2726,
      "приобре": 2727,
      "отк": 2728,
      "бель": 2729,
      "муж": 2730,
      "однов": 2731,
      "баче": 2732,
      "слуш": 2733,
      "акцион": 2734,
      "говор": 2735,
      "ровали": 2736,
      "здание": 2737,
      "плат": 2738,
      "телевид": 2739,
      "руководства": 2740,
      "главного": 2741,
      "вшихся": 2742,
      "юрия": 2743,
      "мэр": 2744,
      "тонн": 2745,
      "провести": 2746,
      "камп": 2747,
      "албан": 2748,
      "назвал": 2749,
      "положение": 2750,
      "горбаче": 2751,
      "универ": 2752,
      "километров": 2753,
      "южной": 2754,
      "учре": 2755,
      "переговоров": 2756,
      "палаты": 2757,
      "пять": 2758,
      "департамента": 2759,
      "полномо": 2760,
      "ингушетии": 2761,
      "белоруссии": 2762,
      "граждани": 2763,
      "юстиции": 2764,
      "якобы": 2765,
      "ation": 2766,
      "is": 2767,
      "it": 2768,
      "кции": 2769,
      "мета": 2770,
      "опровер": 2771,
      "сматри": 2772,
      "хри": 2773,
      "эхо": 2774,
      "эпи": 2775,
      "реа": 2776,
      "рев": 2777,
      "нобе": 2778,
      "пору": 2779,
      "сосед": 2780,
      "теку": 2781,
      "мая": 2782,
      "выдви": 2783,
      "отмен": 2784,
      "лях": 2785,
      "лять": 2786,
      "предъ": 2787,
      "жена": 2788,
      "москву": 2789,
      "филь": 2790,
      "первой": 2791,
      "священ": 2792,
      "приняли": 2793,
      "федеральный": 2794,
      "ствуют": 2795,
      "боевых": 2796,
      "общей": 2797,
      "техниче": 2798,
      "встреча": 2799,
      "энергети": 2800,
      "распоря": 2801,
      "правоохранительные": 2802,
      "франции": 2803,
      "фото": 2804,
      "нане": 2805,
      "оппози": 2806,
      "условиях": 2807,
      "доволь": 2808,
      "порядка": 2809,
      "клинто": 2810,
      "поводу": 2811,
      "француз": 2812,
      "associated": 2813,
      "нобелев": 2814,
      "at": 2815,
      "ера": 2816,
      "еха": 2817,
      "игра": 2818,
      "оны": 2819,
      "оке": 2820,
      "оцени": 2821,
      "хар": 2822,
      "члены": 2823,
      "эр": 2824,
      "ясь": 2825,
      "розы": 2826,
      "ночь": 2827,
      "появи": 2828,
      "полови": 2829,
      "постоян": 2830,
      "ником": 2831,
      "замет": 2832,
      "десят": 2833,
      "содержа": 2834,
      "ссср": 2835,
      "доказа": 2836,
      "тили": 2837,
      "институ": 2838,
      "дия": 2839,
      "сад": 2840,
      "газа": 2841,
      "страте": 2842,
      "шествия": 2843,
      "которую": 2844,
      "шает": 2845,
      "тельств": 2846,
      "пересе": 2847,
      "было": 2848,
      "баты": 2849,
      "бил": 2850,
      "банки": 2851,
      "метро": 2852,
      "края": 2853,
      "резер": 2854,
      "объем": 2855,
      "воды": 2856,
      "большой": 2857,
      "федеральной": 2858,
      "операция": 2859,
      "московскому": 2860,
      "взрывов": 2861,
      "документа": 2862,
      "государственного": 2863,
      "заня": 2864,
      "необходимы": 2865,
      "блок": 2866,
      "восточном": 2867,
      "месяца": 2868,
      "самолета": 2869,
      "заявление": 2870,
      "помощью": 2871,
      "расследования": 2872,
      "ent": 2873,
      "назначен": 2874,
      "объединен": 2875,
      "участников": 2876,
      "подтвердил": 2877,
      "увеличи": 2878,
      "районах": 2879,
      "эксперты": 2880,
      "связь": 2881,
      "вызва": 2882,
      "причиной": 2883,
      "корпора": 2884,
      "если": 2885,
      "путина": 2886,
      "опубликов": 2887,
      "топлива": 2888,
      "целью": 2889,
      "свидетель": 2890,
      "километрах": 2891,
      "масхадов": 2892,
      "университ": 2893,
      "ch": 2894,
      "et": 2895,
      "ай": 2896,
      "биты": 2897,
      "вза": 2898,
      "гда": 2899,
      "днев": 2900,
      "оказыва": 2901,
      "оао": 2902,
      "фы": 2903,
      "цов": 2904,
      "стем": 2905,
      "поч": 2906,
      "появ": 2907,
      "поиск": 2908,
      "нар": 2909,
      "ната": 2910,
      "нили": 2911,
      "ница": 2912,
      "обли": 2913,
      "зам": 2914,
      "такие": 2915,
      "татар": 2916,
      "скоро": 2917,
      "чески": 2918,
      "мекси": 2919,
      "рование": 2920,
      "стических": 2921,
      "весь": 2922,
      "диров": 2923,
      "прин": 2924,
      "приве": 2925,
      "столь": 2926,
      "предлага": 2927,
      "поддержи": 2928,
      "конце": 2929,
      "желез": 2930,
      "ранены": 2931,
      "жены": 2932,
      "фика": 2933,
      "баса": 2934,
      "работе": 2935,
      "рабочи": 2936,
      "красно": 2937,
      "говоря": 2938,
      "объек": 2939,
      "ждении": 2940,
      "утра": 2941,
      "информация": 2942,
      "руководителя": 2943,
      "принять": 2944,
      "основном": 2945,
      "московской": 2946,
      "проблема": 2947,
      "остается": 2948,
      "tex": 2949,
      "наличи": 2950,
      "прошлой": 2951,
      "ураган": 2952,
      "чеченской": 2953,
      "назв": 2954,
      "герм": 2955,
      "тиморе": 2956,
      "лужкова": 2957,
      "защиты": 2958,
      "ночью": 2959,
      "арестов": 2960,
      "интерфаксу": 2961,
      "предприятия": 2962,
      "постановление": 2963,
      "ожидается": 2964,
      "события": 2965,
      "пассажиров": 2966,
      "собирается": 2967,
      "возбужден": 2968,
      "найден": 2969,
      "эффектив": 2970,
      ">:<": 2971,
      "введен": 2972,
      "гри": 2973,
      "кти": 2974,
      "озна": 2975,
      "шки": 2976,
      "ыми": 2977,
      "раж": 2978,
      "реали": 2979,
      "рос": 2980,
      "поз": 2981,
      "побе": 2982,
      "показа": 2983,
      "мию": 2984,
      "кажд": 2985,
      "запро": 2986,
      "дает": 2987,
      "тари": 2988,
      "доступ": 2989,
      "анией": 2990,
      "выступи": 2991,
      "стихи": 2992,
      "приш": 2993,
      "памя": 2994,
      "стой": 2995,
      "ствовать": 2996,
      "россией": 2997,
      "систем": 2998,
      "комби": 2999,
      "ительный": 3000,
      "чили": 3001,
      "контра": 3002,
      "бума": 3003,
      "российским": 3004,
      "никто": 3005,
      "действую": 3006,
      "военного": 3007,
      "региона": 3008,
      "служб": 3009,
      "организов": 3010,
      "существую": 3011,
      "списке": 3012,
      "относ": 3013,
      "падения": 3014,
      "директоров": 3015,
      "состоянии": 3016,
      "контроля": 3017,
      "источников": 3018,
      "финансовых": 3019,
      "заявлении": 3020,
      "сутки": 3021,
      "положения": 3022,
      "генеральный": 3023,
      "южно": 3024,
      "предусматри": 3025,
      "шоссе": 3026,
      "особо": 3027,
      "политики": 3028,
      "парламент": 3029,
      "отечество": 3030,
      "терроризмом": 3031,
      "гаранти": 3032,
      "сахалин": 3033,
      "непосред": 3034,
      "декабря": 3035,
      "успеш": 3036,
      "ущерб": 3037,
      "регули": 3038,
      "выполня": 3039,
      "ap": 3040,
      "bbc": 3041,
      "hi": 3042,
      "ам": 3043,
      "бран": 3044,
      "вшая": 3045,
      "гря": 3046,
      "для": 3047,
      "дова": 3048,
      "емой": 3049,
      "зр": 3050,
      "клу": 3051,
      "оказ": 3052,
      "ологи": 3053,
      "чит": 3054,
      "чные": 3055,
      "стани": 3056,
      "ременно": 3057,
      "поступа": 3058,
      "нал": 3059,
      "наступ": 3060,
      "нин": 3061,
      "тому": 3062,
      "обнов": 3063,
      "кате": 3064,
      "дал": 3065,
      "дали": 3066,
      "руют": 3067,
      "пропа": 3068,
      "проголос": 3069,
      "ческий": 3070,
      "мец": 3071,
      "ску": 3072,
      "щины": 3073,
      "жей": 3074,
      "жест": 3075,
      "град": 3076,
      "совещ": 3077,
      "стью": 3078,
      "возра": 3079,
      "компен": 3080,
      "полицей": 3081,
      "большо": 3082,
      "самом": 3083,
      "принял": 3084,
      "федеральные": 3085,
      "област": 3086,
      "обеща": 3087,
      "вопросы": 3088,
      "щены": 3089,
      "валер": 3090,
      "встрече": 3091,
      "ющихся": 3092,
      "участия": 3093,
      "контроли": 3094,
      "пострадавшим": 3095,
      "сумма": 3096,
      "структ": 3097,
      "северном": 3098,
      "mabe": 3099,
      "задержаны": 3100,
      "оружие": 3101,
      "белорусс": 3102,
      "терактов": 3103,
      "турции": 3104,
      "японии": 3105,
      "размере": 3106,
      "первого": 3107,
      "находился": 3108,
      "объявил": 3109,
      "бизнес": 3110,
      "кавказе": 3111,
      "площади": 3112,
      "пакистан": 3113,
      "эвакуи": 3114,
      "ликвида": 3115,
      "начина": 3116,
      "одновременно": 3117,
      "катего": 3118,
      "mabetex": 3119,
      "cor": 3120,
      "ака": 3121,
      "впервые": 3122,
      "жители": 3123,
      "здо": 3124,
      "кет": 3125,
      "удов": 3126,
      "чки": 3127,
      "чного": 3128,
      "эки": 3129,
      "рели": 3130,
      "позд": 3131,
      "посвящен": 3132,
      "наме": 3133,
      "микро": 3134,
      "низ": 3135,
      "зав": 3136,
      "некоторых": 3137,
      "немец": 3138,
      "тали": 3139,
      "сор": 3140,
      "профе": 3141,
      "веще": 3142,
      "сере": 3143,
      "чать": 3144,
      "отдель": 3145,
      "орб": 3146,
      "подзем": 3147,
      "ленный": 3148,
      "граде": 3149,
      "современ": 3150,
      "жать": 3151,
      "новения": 3152,
      "летний": 3153,
      "провин": 3154,
      "никам": 3155,
      "ционного": 3156,
      "начале": 3157,
      "детей": 3158,
      "службе": 3159,
      "порта": 3160,
      "газете": 3161,
      "основе": 3162,
      "имеют": 3163,
      "подчерки": 3164,
      "свобод": 3165,
      "выбор": 3166,
      "выборы": 3167,
      "рованных": 3168,
      "подпис": 3169,
      "обеспечения": 3170,
      "счетов": 3171,
      "слав": 3172,
      "добави": 3173,
      "законом": 3174,
      "договор": 3175,
      "необходимости": 3176,
      "тимора": 3177,
      "северной": 3178,
      "происшествия": 3179,
      "семьи": 3180,
      "особенно": 3181,
      "использование": 3182,
      "йорк": 3183,
      "солда": 3184,
      "швейца": 3185,
      "волго": 3186,
      "ядерных": 3187,
      "различных": 3188,
      "вашингто": 3189,
      "николай": 3190,
      "уверен": 3191,
      "заложников": 3192,
      "nasa": 3193,
      "внимание": 3194,
      "акаде": 3195,
      "pa": 3196,
      "ser": 3197,
      "to": 3198,
      "дро": 3199,
      "иска": 3200,
      "нета": 3201,
      "пит": 3202,
      "шан": 3203,
      "эс": 3204,
      "рат": 3205,
      "рабаты": 3206,
      "поста": 3207,
      "горя": 3208,
      "лить": 3209,
      "нач": 3210,
      "ницы": 3211,
      "торы": 3212,
      "недели": 3213,
      "лоу": 3214,
      "лебед": 3215,
      "прошед": 3216,
      "мат": 3217,
      "выяв": 3218,
      "часа": 3219,
      "приез": 3220,
      "приостанов": 3221,
      "сили": 3222,
      "тельной": 3223,
      "фили": 3224,
      "туры": 3225,
      "лете": 3226,
      "гуман": 3227,
      "ченко": 3228,
      "ченных": 3229,
      "власт": 3230,
      "военной": 3231,
      "доллара": 3232,
      "больше": 3233,
      "самого": 3234,
      "зывает": 3235,
      "американского": 3236,
      "республике": 3237,
      "управля": 3238,
      "проблемой": 3239,
      "нескольких": 3240,
      "блоки": 3241,
      "грузии": 3242,
      "добы": 3243,
      "бориса": 3244,
      "тимор": 3245,
      "высоко": 3246,
      "лидеров": 3247,
      "планирует": 3248,
      "комитет": 3249,
      "экспертов": 3250,
      "центральной": 3251,
      "автомобилей": 3252,
      "борту": 3253,
      "предприятий": 3254,
      "развития": 3255,
      "жертв": 3256,
      "разрушен": 3257,
      "оконча": 3258,
      "скуратова": 3259,
      "недавно": 3260,
      "украины": 3261,
      "коррупции": 3262,
      "аппара": 3263,
      "инцидент": 3264,
      "полномочи": 3265,
      "экипа": 3266,
      "гуманитар": 3267,
      "$<": 3268,
      ">\".": 3269,
      "bl": 3270,
      "lt": 3271,
      "ано": 3272,
      "введ": 3273,
      "ндр": 3274,
      "пле": 3275,
      "спас": 3276,
      "снова": 3277,
      "хра": 3278,
      "щению": 3279,
      "ять": 3280,
      "реда": 3281,
      "коне": 3282,
      "анных": 3283,
      "поле": 3284,
      "госс": 3285,
      "льный": 3286,
      "тором": 3287,
      "заявля": 3288,
      "рица": 3289,
      "такое": 3290,
      "вах": 3291,
      "вались": 3292,
      "лега": 3293,
      "дем": 3294,
      "ческие": 3295,
      "села": 3296,
      "отчет": 3297,
      "столич": 3298,
      "страхов": 3299,
      "ительного": 3300,
      "подроб": 3301,
      "архи": 3302,
      "целом": 3303,
      "пиноч": 3304,
      "чена": 3305,
      "новое": 3306,
      "гель": 3307,
      "ждений": 3308,
      "получить": 3309,
      "ционных": 3310,
      "телем": 3311,
      "телефо": 3312,
      "телекоммуника": 3313,
      "местных": 3314,
      "ведется": 3315,
      "inter": 3316,
      "республикан": 3317,
      "алек": 3318,
      "случай": 3319,
      "ситуацию": 3320,
      "лондоне": 3321,
      "бирже": 3322,
      "официальные": 3323,
      "располага": 3324,
      "доброво": 3325,
      "компьютеров": 3326,
      "освобожден": 3327,
      "действие": 3328,
      "интерес": 3329,
      "защит": 3330,
      "проводи": 3331,
      "включая": 3332,
      "самым": 3333,
      "пяти": 3334,
      "состояв": 3335,
      "потеря": 3336,
      "проведения": 3337,
      "уровне": 3338,
      "скорее": 3339,
      "воздуш": 3340,
      "соединен": 3341,
      "порнографи": 3342,
      "комменти": 3343,
      "пиночета": 3344,
      "la": 3345,
      "бд": 3346,
      "вую": 3347,
      "ввс": 3348,
      "гля": 3349,
      "дить": 3350,
      "днем": 3351,
      "иван": 3352,
      "йдет": 3353,
      "мани": 3354,
      "нения": 3355,
      "плен": 3356,
      "сете": 3357,
      "срав": 3358,
      "сразу": 3359,
      "услу": 3360,
      "цб": 3361,
      "чный": 3362,
      "ыду": 3363,
      "ющая": 3364,
      "роли": 3365,
      "ноября": 3366,
      "поез": 3367,
      "льян": 3368,
      "обстанов": 3369,
      "запи": 3370,
      "вален": 3371,
      "сон": 3372,
      "доход": 3373,
      "тек": 3374,
      "маха": 3375,
      "селез": 3376,
      "чабан": 3377,
      "прима": 3378,
      "отрица": 3379,
      "овая": 3380,
      "сим": 3381,
      "команд": 3382,
      "гар": 3383,
      "предло": 3384,
      "предыду": 3385,
      "чик": 3386,
      "музы": 3387,
      "арх": 3388,
      "одоб": 3389,
      "главе": 3390,
      "быстро": 3391,
      "фици": 3392,
      "служи": 3393,
      "российская": 3394,
      "персона": 3395,
      "второ": 3396,
      "акция": 3397,
      "степа": 3398,
      "сообщают": 3399,
      "следствия": 3400,
      "должности": 3401,
      "делами": 3402,
      "повре": 3403,
      "вопросу": 3404,
      "границу": 3405,
      "банках": 3406,
      "систему": 3407,
      "сообщение": 3408,
      "городах": 3409,
      "официально": 3410,
      "восточной": 3411,
      "прошлом": 3412,
      "избирателей": 3413,
      "вшегося": 3414,
      "пента": 3415,
      "китая": 3416,
      "позволит": 3417,
      "специалистов": 3418,
      "режим": 3419,
      "самых": 3420,
      "крупнейших": 3421,
      "поддержку": 3422,
      "петербург": 3423,
      "береж": 3424,
      "порядке": 3425,
      "комплекса": 3426,
      "истории": 3427,
      "шойгу": 3428,
      "конституции": 3429,
      "демонстра": 3430,
      "землетрясения": 3431,
      "оборудования": 3432,
      "вокза": 3433,
      "напомнил": 3434,
      "задолженности": 3435,
      "the": 3436,
      "период": 3437,
      "киргизии": 3438,
      "ресур": 3439,
      "достаточно": 3440,
      "стратеги": 3441,
      "ii": 3442,
      "ol": 3443,
      "ара": 3444,
      "атом": 3445,
      "азер": 3446,
      "зма": 3447,
      "кров": 3448,
      "лений": 3449,
      "нется": 3450,
      "ори": 3451,
      "сме": 3452,
      "тк": 3453,
      "члена": 3454,
      "шка": 3455,
      "шкин": 3456,
      "эт": 3457,
      "стить": 3458,
      "рао": 3459,
      "рополь": 3460,
      "анг": 3461,
      "анти": 3462,
      "линии": 3463,
      "нано": 3464,
      "воль": 3465,
      "ниц": 3466,
      "рин": 3467,
      "такая": 3468,
      "прог": 3469,
      "продолж": 3470,
      "тию": 3471,
      "скон": 3472,
      "ческое": 3473,
      "мера": 3474,
      "дум": 3475,
      "овом": 3476,
      "нуты": 3477,
      "кому": 3478,
      "предложен": 3479,
      "пуск": 3480,
      "размер": 3481,
      "щему": 3482,
      "конца": 3483,
      "артил": 3484,
      "фигу": 3485,
      "довер": 3486,
      "итальян": 3487,
      "годы": 3488,
      "евг": 3489,
      "представляет": 3490,
      "ровал": 3491,
      "генна": 3492,
      "основа": 3493,
      "интернета": 3494,
      "рья": 3495,
      "лый": 3496,
      "район": 3497,
      "нарушения": 3498,
      "делам": 3499,
      "пове": 3500,
      "американские": 3501,
      "операций": 3502,
      "готовности": 3503,
      "владими": 3504,
      "минувшую": 3505,
      "траге": 3506,
      "ителям": 3507,
      "щена": 3508,
      "юриди": 3509,
      "обнаружили": 3510,
      "тонну": 3511,
      "кредито": 3512,
      "суммы": 3513,
      "прокуратура": 3514,
      "деятельность": 3515,
      "заседание": 3516,
      "ведены": 3517,
      "рынка": 3518,
      "индонезии": 3519,
      "первом": 3520,
      "заверши": 3521,
      "дорож": 3522,
      "флори": 3523,
      "команду": 3524,
      "командов": 3525,
      "прежнему": 3526,
      "сделать": 3527,
      "балло": 3528,
      "сегодняшний": 3529,
      "четырех": 3530,
      "афри": 3531,
      "опубликова": 3532,
      "пользователей": 3533,
      "материалы": 3534,
      "финансовой": 3535,
      "скуратов": 3536,
      "отмечается": 3537,
      "хозяй": 3538,
      "снг": 3539,
      "семенова": 3540,
      "печати": 3541,
      "нтв": 3542,
      "учреждения": 3543,
      "краснояр": 3544,
      "гряз": 3545,
      "компенса": 3546,
      "здоров": 3547,
      "швейцарии": 3548,
      "аноним": 3549,
      "азербай": 3550,
      "артиллер": 3551,
      "ra": 3552,
      "um": 3553,
      "up": 3554,
      "есть": 3555,
      "жит": 3556,
      "имени": 3557,
      "кп": 3558,
      "тного": 3559,
      "указыва": 3560,
      "убит": 3561,
      "шу": 3562,
      "эй": 3563,
      "эфи": 3564,
      "ень": 3565,
      "раза": 3566,
      "реаль": 3567,
      "мино": 3568,
      "дале": 3569,
      "непри": 3570,
      "таба": 3571,
      "мог": 3572,
      "претен": 3573,
      "тиви": 3574,
      "машин": 3575,
      "стала": 3576,
      "стати": 3577,
      "вел": 3578,
      "пари": 3579,
      "патру": 3580,
      "купа": 3581,
      "силу": 3582,
      "силами": 3583,
      "широ": 3584,
      "комен": 3585,
      "предстоя": 3586,
      "няется": 3587,
      "ленного": 3588,
      "верх": 3589,
      "ставрополь": 3590,
      "жиль": 3591,
      "арбит": 3592,
      "будет": 3593,
      "шать": 3594,
      "тельного": 3595,
      "первую": 3596,
      "родствен": 3597,
      "ходить": 3598,
      "степен": 3599,
      "министром": 3600,
      "ющими": 3601,
      "правительствен": 3602,
      "корпу": 3603,
      "ракеты": 3604,
      "испыт": 3605,
      "ислам": 3606,
      "ведений": 3607,
      "адрес": 3608,
      "руководителей": 3609,
      ">%,": 3610,
      "повтор": 3611,
      "террористических": 3612,
      "всего": 3613,
      "последний": 3614,
      "вопросам": 3615,
      "техники": 3616,
      "своим": 3617,
      "проблеме": 3618,
      "первым": 3619,
      "рубля": 3620,
      "государственных": 3621,
      "числа": 3622,
      "фактически": 3623,
      "крупных": 3624,
      "подписан": 3625,
      "требов": 3626,
      "требования": 3627,
      "обеспечи": 3628,
      "политических": 3629,
      "продолжают": 3630,
      "борьбы": 3631,
      "фирма": 3632,
      "ближайшие": 3633,
      "специально": 3634,
      "товаров": 3635,
      "продуктов": 3636,
      "сайт": 3637,
      "комиссия": 3638,
      "генерала": 3639,
      "отмечает": 3640,
      "арест": 3641,
      "пунктов": 3642,
      "изменения": 3643,
      "тюрь": 3644,
      "...": 3645,
      "нюю": 3646,
      "сотрудничества": 3647,
      "бизне": 3648,
      "рассмотр": 3649,
      "протеста": 3650,
      "возглавля": 3651,
      "завода": 3652,
      "березовский": 3653,
      "адвокат": 3654,
      "выразил": 3655,
      "анатолий": 3656,
      "розыск": 3657,
      "взаимо": 3658,
      "возбуждено": 3659,
      "вашингтоне": 3660,
      "сравн": 3661,
      "прогно": 3662,
      "азербайдж": 3663,
      "ms": 3664,
      "wa": 3665,
      "ys": 3666,
      "вступ": 3667,
      "влия": 3668,
      "дья": 3669,
      "жений": 3670,
      "иде": 3671,
      "опро": 3672,
      "пани": 3673,
      "сможет": 3674,
      "уте": 3675,
      "читы": 3676,
      "рато": 3677,
      "анные": 3678,
      "попу": 3679,
      "пошли": 3680,
      "побереж": 3681,
      "лив": 3682,
      "наши": 3683,
      "наказ": 3684,
      "вось": 3685,
      "нию": 3686,
      "каких": 3687,
      "кабин": 3688,
      "заказ": 3689,
      "вала": 3690,
      "вался": 3691,
      "вии": 3692,
      "выска": 3693,
      "боту": 3694,
      "сель": 3695,
      "дипло": 3696,
      "привод": 3697,
      "причаст": 3698,
      "отказыва": 3699,
      "стом": 3700,
      "сама": 3701,
      "гах": 3702,
      "странах": 3703,
      "разгово": 3704,
      "версии": 3705,
      "менов": 3706,
      "мыр": 3707,
      "шаг": 3708,
      "миниму": 3709,
      "минималь": 3710,
      "данный": 3711,
      "возобнов": 3712,
      "ствием": 3713,
      "правительству": 3714,
      "ждению": 3715,
      "четвер": 3716,
      "лые": 3717,
      "стовер": 3718,
      "самой": 3719,
      "приняты": 3720,
      "которому": 3721,
      "агентству": 3722,
      "вшийся": 3723,
      "делений": 3724,
      "минувшее": 3725,
      "премьера": 3726,
      "ющем": 3727,
      "точки": 3728,
      "щихся": 3729,
      "ясно": 3730,
      "работает": 3731,
      "падение": 3732,
      "телям": 3733,
      "болез": 3734,
      "создать": 3735,
      "пострадали": 3736,
      "обеспечить": 3737,
      "продолжает": 3738,
      "заявления": 3739,
      "янва": 3740,
      "ставили": 3741,
      "компьютерных": 3742,
      "герман": 3743,
      "заместителя": 3744,
      "mar": 3745,
      "июля": 3746,
      "режима": 3747,
      "процеду": 3748,
      "подобные": 3749,
      "утверждают": 3750,
      "усилия": 3751,
      "европейского": 3752,
      "пунк": 3753,
      "смотрен": 3754,
      "секретаря": 3755,
      "создание": 3756,
      "призн": 3757,
      "петербурга": 3758,
      "технологий": 3759,
      "прежде": 3760,
      "развитие": 3761,
      "надеж": 3762,
      "транснефти": 3763,
      "емая": 3764,
      "клинтон": 3765,
      "раненых": 3766,
      "ежегод": 3767,
      "dow": 3768,
      "автобус": 3769,
      "просьбой": 3770,
      "сергея": 3771,
      "лидера": 3772,
      "интересов": 3773,
      "остров": 3774,
      "десяти": 3775,
      "буйнакске": 3776,
      "военнослужащих": 3777,
      "указал": 3778,
      "кампании": 3779,
      "гражданин": 3780,
      "германии": 3781,
      "арбитраж": 3782,
      "ci": 3783,
      "oo": 3784,
      "we": 3785,
      "вместо": 3786,
      "ич": 3787,
      "оз": 3788,
      "остан": 3789,
      "слия": 3790,
      "тной": 3791,
      "умер": 3792,
      "фла": 3793,
      "хит": 3794,
      "цру": 3795,
      "юго": 3796,
      "ена": 3797,
      "рати": 3798,
      "попа": 3799,
      "навод": 3800,
      "например": 3801,
      "мигра": 3802,
      "вого": 3803,
      "нила": 3804,
      "нилось": 3805,
      "капита": 3806,
      "кашир": 3807,
      "рию": 3808,
      "такого": 3809,
      "девя": 3810,
      "прогре": 3811,
      "досро": 3812,
      "тей": 3813,
      "мало": 3814,
      "инде": 3815,
      "инвести": 3816,
      "индии": 3817,
      "вез": 3818,
      "ведут": 3819,
      "рынок": 3820,
      "овано": 3821,
      "сиг": 3822,
      "изо": 3823,
      "чист": 3824,
      "ленной": 3825,
      "жела": 3826,
      "жено": 3827,
      "тельные": 3828,
      "перево": 3829,
      "фикси": 3830,
      "батури": 3831,
      "ябрь": 3832,
      "центро": 3833,
      "полков": 3834,
      "правительством": 3835,
      "здра": 3836,
      "партия": 3837,
      "местные": 3838,
      "сколько": 3839,
      "нарушение": 3840,
      "американской": 3841,
      "общества": 3842,
      "андрей": 3843,
      "последнее": 3844,
      "госла": 3845,
      "минувшей": 3846,
      "единствен": 3847,
      "судь": 3848,
      "управление": 3849,
      "использовать": 3850,
      "системе": 3851,
      "погибло": 3852,
      "работают": 3853,
      "числен": 3854,
      "направля": 3855,
      "интернете": 3856,
      "боевики": 3857,
      "денеж": 3858,
      "источник": 3859,
      "администрация": 3860,
      "очевид": 3861,
      "заседания": 3862,
      "сайта": 3863,
      "объединения": 3864,
      "очередной": 3865,
      "карамахи": 3866,
      "норве": 3867,
      "сейчас": 3868,
      "кризи": 3869,
      "выпуска": 3870,
      "закрыты": 3871,
      "жизнь": 3872,
      "действительно": 3873,
      "угроза": 3874,
      "петербурге": 3875,
      "обнаружены": 3876,
      "состоится": 3877,
      "бандформиров": 3878,
      "сеть": 3879,
      "огром": 3880,
      "продукты": 3881,
      "оконч": 3882,
      "бороны": 3883,
      "ауд": 3884,
      "органами": 3885,
      "сохран": 3886,
      "центризбирком": 3887,
      "госпитали": 3888,
      "конгресса": 3889,
      "посольства": 3890,
      "культуры": 3891,
      "ответственности": 3892,
      "электронной": 3893,
      "кциони": 3894,
      "направил": 3895,
      "лицензи": 3896,
      "слушания": 3897,
      "метал": 3898,
      "реаги": 3899,
      "текущего": 3900,
      "предъяв": 3901,
      "нанесен": 3902,
      "валерий": 3903,
      "структур": 3904,
      "ликвидации": 3905,
      "добавил": 3906,
      "чабанмахи": 3907,
      "эфире": 3908,
      ">\",": 3909,
      "ran": 3910,
      "апре": 3911,
      "ввод": 3912,
      "дь": 3913,
      "дни": 3914,
      "зон": 3915,
      "зву": 3916,
      "иго": 3917,
      "ирак": 3918,
      "кция": 3919,
      "нение": 3920,
      "сх": 3921,
      "трак": 3922,
      "учет": 3923,
      "физ": 3924,
      "шков": 3925,
      "штра": 3926,
      "югосла": 3927,
      "стя": 3928,
      "референ": 3929,
      "роль": 3930,
      "ност": 3931,
      "гот": 3932,
      "гона": 3933,
      "лах": 3934,
      "лаза": 3935,
      "лабо": 3936,
      "кась": 3937,
      "задержа": 3938,
      "ризации": 3939,
      "кими": 3940,
      "кири": 3941,
      "дам": 3942,
      "неожи": 3943,
      "таджи": 3944,
      "прото": 3945,
      "могли": 3946,
      "доходов": 3947,
      "превра": 3948,
      "чего": 3949,
      "ческая": 3950,
      "бога": 3951,
      "мел": 3952,
      "семей": 3953,
      "щиков": 3954,
      "силой": 3955,
      "изу": 3956,
      "избе": 3957,
      "подня": 3958,
      "рядом": 3959,
      "ленно": 3960,
      "шести": 3961,
      "конфи": 3962,
      "контин": 3963,
      "жив": 3964,
      "долга": 3965,
      "шат": 3966,
      "перекры": 3967,
      "компанией": 3968,
      "случи": 3969,
      "временно": 3970,
      "вшись": 3971,
      "этого": 3972,
      "родин": 3973,
      "февра": 3974,
      "форм": 3975,
      "крас": 3976,
      "альян": 3977,
      "зоне": 3978,
      "парт": 3979,
      "колоко": 3980,
      "лым": 3981,
      "рассчиты": 3982,
      "соглас": 3983,
      "соглашения": 3984,
      "сторону": 3985,
      "приняла": 3986,
      "повер": 3987,
      "всемир": 3988,
      "готовы": 3989,
      "мнс": 3990,
      "московских": 3991,
      "границе": 3992,
      "гражданской": 3993,
      "проблем": 3994,
      "европы": 3995,
      "первых": 3996,
      "документе": 3997,
      "направлении": 3998,
      "программ": 3999,
      "news": 4000,
      "действиях": 4001,
      "курса": 4002,
      "килограм": 4003,
      "предусмотрен": 4004,
      "планируется": 4005,
      "кварта": 4006,
      "кримина": 4007,
      "признал": 4008,
      "йорке": 4009,
      "поддержки": 4010,
      "солют": 4011,
      "квартире": 4012,
      "клиентов": 4013,
      "абха": 4014,
      "абсолют": 4015,
      "торговли": 4016,
      "комплекс": 4017,
      "независимо": 4018,
      "отказался": 4019,
      "материалов": 4020,
      "устройство": 4021,
      "машины": 4022,
      "напомним": 4023,
      "выступая": 4024,
      "казахстана": 4025,
      "исследования": 4026,
      "черномыр": 4027,
      "столк": 4028,
      "вертолет": 4029,
      "говорить": 4030,
      "клинтона": 4031,
      "облига": 4032,
      "каждый": 4033,
      "професси": 4034,
      "волгодон": 4035,
      "селезнев": 4036,
      "минобороны": 4037,
      "касья": 4038,
      "ai": 4039,
      "fin": 4040,
      "lo": 4041,
      "mo": 4042,
      "nation": 4043,
      "win": 4044,
      "актов": 4045,
      "бре": 4046,
      "вно": 4047,
      "дс": 4048,
      "два": 4049,
      "зм": 4050,
      "кфор": 4051,
      "сведений": 4052,
      "уз": 4053,
      "уро": 4054,
      "уче": 4055,
      "убиты": 4056,
      "чт": 4057,
      "чном": 4058,
      "юн": 4059,
      "реструкту": 4060,
      "рор": 4061,
      "коро": 4062,
      "коти": 4063,
      "ане": 4064,
      "поря": 4065,
      "пограни": 4066,
      "гом": 4067,
      "горе": 4068,
      "льное": 4069,
      "ниж": 4070,
      "нике": 4071,
      "обру": 4072,
      "обстоя": 4073,
      "рил": 4074,
      "кино": 4075,
      "неодно": 4076,
      "тая": 4077,
      "лома": 4078,
      "социаль": 4079,
      "мех": 4080,
      "ведет": 4081,
      "чается": 4082,
      "прид": 4083,
      "отделения": 4084,
      "печат": 4085,
      "сах": 4086,
      "гиган": 4087,
      "избран": 4088,
      "зина": 4089,
      "пуска": 4090,
      "подверг": 4091,
      "поддержа": 4092,
      "разреш": 4093,
      "мым": 4094,
      "жают": 4095,
      "новую": 4096,
      "данном": 4097,
      "бак": 4098,
      "туре": 4099,
      "туда": 4100,
      "фере": 4101,
      "ябло": 4102,
      "активи": 4103,
      "владель": 4104,
      "полтора": 4105,
      "следствие": 4106,
      "торгово": 4107,
      "ционные": 4108,
      "ere": 4109,
      "государств": 4110,
      "районов": 4111,
      "общего": 4112,
      "шена": 4113,
      "результаты": 4114,
      "взрывча": 4115,
      "управлении": 4116,
      "существен": 4117,
      "ющее": 4118,
      "составля": 4119,
      "милиция": 4120,
      "земли": 4121,
      "груз": 4122,
      "сена": 4123,
      "алма": 4124,
      "произошла": 4125,
      "населенных": 4126,
      "самолеты": 4127,
      "политического": 4128,
      "установлены": 4129,
      "электри": 4130,
      "законопроект": 4131,
      "исключает": 4132,
      "курс": 4133,
      "журналистов": 4134,
      "сайте": 4135,
      "участники": 4136,
      "избирательного": 4137,
      "счетах": 4138,
      "центрального": 4139,
      "бедствия": 4140,
      "общественных": 4141,
      "чинов": 4142,
      "пункта": 4143,
      "повышение": 4144,
      "массовой": 4145,
      "значительно": 4146,
      "подразделений": 4147,
      "создания": 4148,
      "оперативно": 4149,
      "намерена": 4150,
      "квартиры": 4151,
      "нынешнего": 4152,
      "жилых": 4153,
      "прокурор": 4154,
      "day": 4155,
      "событий": 4156,
      "подписал": 4157,
      "экономики": 4158,
      "экономических": 4159,
      "обязательства": 4160,
      "отмечают": 4161,
      "аэропорту": 4162,
      "белграде": 4163,
      "центризбиркома": 4164,
      "взрывчатки": 4165,
      "благода": 4166,
      "сотни": 4167,
      "пояснил": 4168,
      "касается": 4169,
      "обязанности": 4170,
      "губернатор": 4171,
      "губернатора": 4172,
      "субботу": 4173,
      "инициати": 4174,
      "якушкин": 4175,
      "состава": 4176,
      "названием": 4177,
      "непосредственно": 4178,
      "успешно": 4179,
      "зрения": 4180,
      "орбиту": 4181,
      "степашин": 4182,
      "геннадий": 4183,
      "дьяченко": 4184,
      "популяр": 4185,
      "января": 4186,
      "national": 4187,
      "bi": 4188,
      "gro": 4189,
      "ik": 4190,
      "nt": 4191,
      "po": 4192,
      "pu": 4193,
      "se": 4194,
      "spa": 4195,
      "вета": 4196,
      "впол": 4197,
      "вскоре": 4198,
      "гани": 4199,
      "гана": 4200,
      "дво": 4201,
      "житель": 4202,
      "мби": 4203,
      "нер": 4204,
      "нить": 4205,
      "оза": 4206,
      "слиш": 4207,
      "свыше": 4208,
      "упа": 4209,
      "флой": 4210,
      "чным": 4211,
      "чную": 4212,
      "шет": 4213,
      "ъезд": 4214,
      "стит": 4215,
      "ене": 4216,
      "рок": 4217,
      "коор": 4218,
      "пон": 4219,
      "полет": 4220,
      "нала": 4221,
      "науч": 4222,
      "льным": 4223,
      "оба": 4224,
      "обмен": 4225,
      "завод": 4226,
      "дах": 4227,
      "декла": 4228,
      "дежур": 4229,
      "проник": 4230,
      "докла": 4231,
      "доступа": 4232,
      "види": 4233,
      "мах": 4234,
      "маго": 4235,
      "высказа": 4236,
      "индий": 4237,
      "информи": 4238,
      "рована": 4239,
      "стату": 4240,
      "вещ": 4241,
      "пригово": 4242,
      "причин": 4243,
      "причем": 4244,
      "саве": 4245,
      "суди": 4246,
      "судом": 4247,
      "супру": 4248,
      "ляется": 4249,
      "овала": 4250,
      "чила": 4251,
      "мую": 4252,
      "ленным": 4253,
      "шев": 4254,
      "жесто": 4255,
      "стане": 4256,
      "правления": 4257,
      "ловых": 4258,
      "российско": 4259,
      "вшими": 4260,
      "банке": 4261,
      "собо": 4262,
      "меть": 4263,
      "альной": 4264,
      "цам": 4265,
      "генпрокурора": 4266,
      "стрел": 4267,
      "начался": 4268,
      "дети": 4269,
      "креп": 4270,
      "вшем": 4271,
      "делении": 4272,
      "московский": 4273,
      "авли": 4274,
      "использова": 4275,
      "составит": 4276,
      "фонд": 4277,
      "мане": 4278,
      "факт": 4279,
      "производство": 4280,
      "направления": 4281,
      "восточный": 4282,
      "прошло": 4283,
      "настоящий": 4284,
      "программе": 4285,
      "передачи": 4286,
      "звон": 4287,
      "население": 4288,
      "чеченских": 4289,
      "самолетов": 4290,
      "налого": 4291,
      "политической": 4292,
      "полагают": 4293,
      "шейся": 4294,
      "необходимость": 4295,
      "госдума": 4296,
      "позволяет": 4297,
      "происходит": 4298,
      "уголовного": 4299,
      "временем": 4300,
      "напомина": 4301,
      "действовать": 4302,
      "израиля": 4303,
      "законодательства": 4304,
      "тюре": 4305,
      "кредитов": 4306,
      "прямо": 4307,
      "сотрудничество": 4308,
      "губернато": 4309,
      "представителями": 4310,
      "продукции": 4311,
      "возвраща": 4312,
      "землетрясение": 4313,
      "версия": 4314,
      "нефтяной": 4315,
      "делегации": 4316,
      "сохра": 4317,
      "вашингтон": 4318,
      "аварии": 4319,
      "ладена": 4320,
      "катастрофы": 4321,
      "демократиче": 4322,
      "школы": 4323,
      "обратился": 4324,
      "административной": 4325,
      "группировки": 4326,
      "ошибки": 4327,
      "жириновского": 4328,
      "нужно": 4329,
      "мероприятия": 4330,
      "отклон": 4331,
      "заметил": 4332,
      "железно": 4333,
      "фикации": 4334,
      "большое": 4335,
      "завтра": 4336,
      "середи": 4337,
      "провинции": 4338,
      "иванов": 4339,
      "англий": 4340,
      "сравнению": 4341,
      "диплома": 4342,
      "минимум": 4343,
      "физи": 4344,
      "лаборато": 4345,
      "реструктуризации": 4346,
      "порядок": 4347,
      "неоднокра": 4348,
      "механи": 4349,
      "group": 4350,
      "слишком": 4351,
      "bo": 4352,
      "lu": 4353,
      "lin": 4354,
      "sa": 4355,
      "sh": 4356,
      "ur": 4357,
      "еэс": 4358,
      "жо": 4359,
      "жить": 4360,
      "иль": 4361,
      "ими": 4362,
      "имен": 4363,
      "кг": 4364,
      "км": 4365,
      "кни": 4366,
      "свет": 4367,
      "тс": 4368,
      "титься": 4369,
      "хле": 4370,
      "шить": 4371,
      "шар": 4372,
      "ьше": 4373,
      "эд": 4374,
      "ента": 4375,
      "рекомен": 4376,
      "робер": 4377,
      "кора": 4378,
      "антит": 4379,
      "пора": 4380,
      "похо": 4381,
      "пога": 4382,
      "потен": 4383,
      "попыта": 4384,
      "поезд": 4385,
      "похит": 4386,
      "листов": 4387,
      "наш": 4388,
      "наших": 4389,
      "итет": 4390,
      "тока": 4391,
      "дами": 4392,
      "дают": 4393,
      "нега": 4394,
      "неизвестно": 4395,
      "вающих": 4396,
      "сопрово": 4397,
      "руя": 4398,
      "пром": 4399,
      "процен": 4400,
      "продоволь": 4401,
      "мост": 4402,
      "препят": 4403,
      "выс": 4404,
      "выво": 4405,
      "инов": 4406,
      "вере": 4407,
      "чают": 4408,
      "прибли": 4409,
      "приказ": 4410,
      "отклю": 4411,
      "сухо": 4412,
      "лян": 4413,
      "щими": 4414,
      "куда": 4415,
      "хочет": 4416,
      "предмет": 4417,
      "пусти": 4418,
      "поддель": 4419,
      "мут": 4420,
      "разору": 4421,
      "мены": 4422,
      "цере": 4423,
      "целях": 4424,
      "пило": 4425,
      "пират": 4426,
      "шается": 4427,
      "жает": 4428,
      "раньше": 4429,
      "жене": 4430,
      "женщины": 4431,
      "тельных": 4432,
      "компью": 4433,
      "следов": 4434,
      "российское": 4435,
      "перспе": 4436,
      "банком": 4437,
      "сообщается": 4438,
      "слан": 4439,
      "представить": 4440,
      "миллион": 4441,
      "аналоги": 4442,
      "генпрокуратуры": 4443,
      "здании": 4444,
      "военную": 4445,
      "телерадио": 4446,
      "большие": 4447,
      "корд": 4448,
      "районы": 4449,
      "адре": 4450,
      "должность": 4451,
      "опек": 4452,
      "городов": 4453,
      "террористы": 4454,
      "боевые": 4455,
      "андре": 4456,
      "последних": 4457,
      "международный": 4458,
      "шены": 4459,
      "шенко": 4460,
      "штата": 4461,
      "штатов": 4462,
      "чением": 4463,
      "плана": 4464,
      "другими": 4465,
      "решением": 4466,
      "ителями": 4467,
      "транша": 4468,
      "щено": 4469,
      "министерстве": 4470,
      "безопасность": 4471,
      "энергии": 4472,
      "митро": 4473,
      "преступностью": 4474,
      "грузов": 4475,
      "источника": 4476,
      "минтоп": 4477,
      "слава": 4478,
      "налоговой": 4479,
      "бомб": 4480,
      "национального": 4481,
      "брать": 4482,
      "чув": 4483,
      "договорен": 4484,
      "деятельностью": 4485,
      "британских": 4486,
      "освобождения": 4487,
      "назначения": 4488,
      "объединение": 4489,
      "радиостанции": 4490,
      "подтвержда": 4491,
      "банковских": 4492,
      "норма": 4493,
      "украин": 4494,
      "округа": 4495,
      "исполня": 4496,
      "отмывания": 4497,
      "противоре": 4498,
      "бензин": 4499,
      "должност": 4500,
      "бандит": 4501,
      "голосования": 4502,
      "уровень": 4503,
      "транснефть": 4504,
      "брига": 4505,
      "совместно": 4506,
      "предложения": 4507,
      "требуют": 4508,
      "иссле": 4509,
      "дополнительные": 4510,
      "каждо": 4511,
      "распространен": 4512,
      "востоке": 4513,
      "сложности": 4514,
      "крайне": 4515,
      "емого": 4516,
      "консуль": 4517,
      "вкладов": 4518,
      "акционеров": 4519,
      "христ": 4520,
      "энергетики": 4521,
      "распоряжение": 4522,
      "фотографи": 4523,
      "объединенной": 4524,
      "корпорация": 4525,
      "опубликован": 4526,
      "университета": 4527,
      "рабочих": 4528,
      "говорят": 4529,
      "стойчи": 4530,
      "комбина": 4531,
      "регионах": 4532,
      "организованной": 4533,
      "состоявшейся": 4534,
      "здоровья": 4535,
      "восьми": 4536,
      "госпитализи": 4537,
      "обруши": 4538,
      "вполне": 4539,
      "флойд": 4540,
      "негатив": 4541,
      "минтопэнерго": 4542,
      "(\"": 4543,
      "ac": 4544,
      "bri": 4545,
      "ip": 4546,
      "si": 4547,
      "брай": 4548,
      "вдо": 4549,
      "вступи": 4550,
      "входят": 4551,
      "гтк": 4552,
      "зона": 4553,
      "злоу": 4554,
      "иг": 4555,
      "ина": 4556,
      "иметь": 4557,
      "ол": 4558,
      "ото": 4559,
      "свер": 4560,
      "сбор": 4561,
      "тща": 4562,
      "устан": 4563,
      "фут": 4564,
      "фрак": 4565,
      "шня": 4566,
      "щений": 4567,
      "яз": 4568,
      "рекла": 4569,
      "рекорд": 4570,
      "коле": 4571,
      "когда": 4572,
      "поми": 4573,
      "посе": 4574,
      "поня": 4575,
      "пособ": 4576,
      "посад": 4577,
      "годов": 4578,
      "лина": 4579,
      "еры": 4580,
      "мид": 4581,
      "лагер": 4582,
      "нику": 4583,
      "облом": 4584,
      "кашенко": 4585,
      "заме": 4586,
      "заложен": 4587,
      "зафикси": 4588,
      "рих": 4589,
      "невозможно": 4590,
      "леку": 4591,
      "руки": 4592,
      "проходит": 4593,
      "мона": 4594,
      "дохода": 4595,
      "доренко": 4596,
      "пребы": 4597,
      "премию": 4598,
      "тина": 4599,
      "виль": 4600,
      "вича": 4601,
      "мад": 4602,
      "мага": 4603,
      "макси": 4604,
      "выдели": 4605,
      "выигра": 4606,
      "бот": 4607,
      "станом": 4608,
      "вешня": 4609,
      "семи": 4610,
      "седе": 4611,
      "природ": 4612,
      "отря": 4613,
      "щики": 4614,
      "сила": 4615,
      "лукашенко": 4616,
      "шими": 4617,
      "гать": 4618,
      "газо": 4619,
      "предвыбор": 4620,
      "разбира": 4621,
      "тый": 4622,
      "контрак": 4623,
      "мых": 4624,
      "ковых": 4625,
      "\",-": 4626,
      "любой": 4627,
      "щаться": 4628,
      "тельство": 4629,
      "перед": 4630,
      "перевод": 4631,
      "базе": 4632,
      "возро": 4633,
      "банкро": 4634,
      "соблюд": 4635,
      "форме": 4636,
      "крае": 4637,
      "стеле": 4638,
      "следствен": 4639,
      "никах": 4640,
      "правительственных": 4641,
      "стрем": 4642,
      "большая": 4643,
      "ers": 4644,
      "руководству": 4645,
      "согласов": 4646,
      "порту": 4647,
      "делать": 4648,
      "федеральным": 4649,
      "зывают": 4650,
      "врачи": 4651,
      "всему": 4652,
      "трой": 4653,
      "последова": 4654,
      "международные": 4655,
      "основной": 4656,
      "другим": 4657,
      "взрывное": 4658,
      "проблему": 4659,
      "президенту": 4660,
      "срока": 4661,
      "рованной": 4662,
      "официальным": 4663,
      "ony": 4664,
      "пострадал": 4665,
      "обеспечению": 4666,
      "открыто": 4667,
      "произошед": 4668,
      "бомбар": 4669,
      "мировой": 4670,
      "исключено": 4671,
      "ставил": 4672,
      "подготовки": 4673,
      "июле": 4674,
      "прибыли": 4675,
      "заключение": 4676,
      "заключения": 4677,
      "предполагает": 4678,
      "серьезно": 4679,
      "серьезные": 4680,
      "использования": 4681,
      "продажи": 4682,
      "многих": 4683,
      "количе": 4684,
      "находились": 4685,
      "проводится": 4686,
      "брю": 4687,
      "сятся": 4688,
      "коммерческих": 4689,
      "обнаружено": 4690,
      "dell": 4691,
      "распростра": 4692,
      "запрет": 4693,
      "транспорта": 4694,
      "вшейся": 4695,
      "ведомства": 4696,
      "проведение": 4697,
      "меньшей": 4698,
      "подписали": 4699,
      "предложение": 4700,
      "покупа": 4701,
      "канала": 4702,
      "демонстри": 4703,
      "местах": 4704,
      "сообщениям": 4705,
      "органах": 4706,
      "структуры": 4707,
      "отставке": 4708,
      "мосгор": 4709,
      "двигателя": 4710,
      "ведущих": 4711,
      "эвакуа": 4712,
      "теракты": 4713,
      "выяснилось": 4714,
      "юртов": 4715,
      "митинга": 4716,
      "народов": 4717,
      "пенсион": 4718,
      "подозреваемых": 4719,
      "конфликта": 4720,
      "мероприятий": 4721,
      "аэрофлота": 4722,
      "оценивается": 4723,
      "означает": 4724,
      "стихий": 4725,
      "пришлось": 4726,
      "категори": 4727,
      "удовлет": 4728,
      "веществ": 4729,
      "высокопостав": 4730,
      "blic": 4731,
      "музыка": 4732,
      "сконча": 4733,
      "трагедии": 4734,
      "dows": 4735,
      "бандформирований": 4736,
      "игорь": 4737,
      "лазаренко": 4738,
      "кириенко": 4739,
      "профессиональ": 4740,
      "касьянов": 4741,
      "windows": 4742,
      "чтении": 4743,
      "space": 4744,
      "савель": 4745,
      "железнодорож": 4746,
      "церемо": 4747,
      "христенко": 4748,
      "вешняков": 4749,
      "ill": 4750,
      "lan": 4751,
      "ric": 4752,
      "sun": 4753,
      "ассо": 4754,
      "бных": 4755,
      "вклад": 4756,
      "евре": 4757,
      "ив": 4758,
      "иного": 4759,
      "идут": 4760,
      "кций": 4761,
      "лени": 4762,
      "пли": 4763,
      "рю": 4764,
      "сда": 4765,
      "смы": 4766,
      "съез": 4767,
      "тки": 4768,
      "устро": 4769,
      "урегули": 4770,
      "фро": 4771,
      "хран": 4772,
      "чита": 4773,
      "ыва": 4774,
      "язы": 4775,
      "стся": 4776,
      "рода": 4777,
      "ночи": 4778,
      "пожа": 4779,
      "посту": 4780,
      "постро": 4781,
      "показ": 4782,
      "потери": 4783,
      "последу": 4784,
      "посел": 4785,
      "нау": 4786,
      "найти": 4787,
      "водо": 4788,
      "воин": 4789,
      "воохран": 4790,
      "лад": 4791,
      "лау": 4792,
      "тологи": 4793,
      "обстре": 4794,
      "обслужи": 4795,
      "зали": 4796,
      "зава": 4797,
      "кио": 4798,
      "лосу": 4799,
      "валось": 4800,
      "валась": 4801,
      "вающий": 4802,
      "лежит": 4803,
      "дерева": 4804,
      "депорта": 4805,
      "дона": 4806,
      "доклад": 4807,
      "тела": 4808,
      "вич": 4809,
      "скор": 4810,
      "чехи": 4811,
      "диа": 4812,
      "дис": 4813,
      "дикта": 4814,
      "пригла": 4815,
      "привести": 4816,
      "паспор": 4817,
      "сав": 4818,
      "ствовали": 4819,
      "нул": 4820,
      "нули": 4821,
      "кури": 4822,
      "прайм": 4823,
      "ительное": 4824,
      "зировать": 4825,
      "чика": 4826,
      "ряду": 4827,
      "шему": 4828,
      "констру": 4829,
      "жел": 4830,
      "жем": 4831,
      "цели": 4832,
      "пишет": 4833,
      "перевоз": 4834,
      "москва": 4835,
      "служе": 4836,
      "российскими": 4837,
      "первая": 4838,
      "хат": 4839,
      "циям": 4840,
      "ствий": 4841,
      "аксен": 4842,
      "вяче": 4843,
      "объема": 4844,
      "ровала": 4845,
      "получения": 4846,
      "телекомпании": 4847,
      "дентов": 4848,
      "частных": 4849,
      "рье": 4850,
      "регионе": 4851,
      "ракета": 4852,
      "руководители": 4853,
      "ментов": 4854,
      "организ": 4855,
      "газет": 4856,
      "чечню": 4857,
      "боепри": 4858,
      "групп": 4859,
      "штаты": 4860,
      "смогут": 4861,
      "октябре": 4862,
      "джор": 4863,
      "имеются": 4864,
      "удар": 4865,
      "остави": 4866,
      "остаются": 4867,
      "остальные": 4868,
      "миссия": 4869,
      "фамили": 4870,
      "рованные": 4871,
      "журнал": 4872,
      "марки": 4873,
      "марте": 4874,
      "городского": 4875,
      "прошлого": 4876,
      "программа": 4877,
      "провели": 4878,
      "минго": 4879,
      "финансовые": 4880,
      "бомбы": 4881,
      "образования": 4882,
      "национальный": 4883,
      "русский": 4884,
      "регистрация": 4885,
      "фирм": 4886,
      "греции": 4887,
      "генеральной": 4888,
      "радиостанция": 4889,
      "предоставить": 4890,
      "ирака": 4891,
      "днях": 4892,
      "режиме": 4893,
      "самый": 4894,
      "использовании": 4895,
      "западной": 4896,
      "позиции": 4897,
      "многочис": 4898,
      "проекте": 4899,
      "частью": 4900,
      "спецслужб": 4901,
      "связанные": 4902,
      "барре": 4903,
      "департамент": 4904,
      "ситуациям": 4905,
      "истори": 4906,
      "афгани": 4907,
      "независимости": 4908,
      "требует": 4909,
      "требуется": 4910,
      "устройства": 4911,
      "толч": 4912,
      "площад": 4913,
      "чрезвычайным": 4914,
      "вчераш": 4915,
      "кладби": 4916,
      "скандала": 4917,
      "оборудование": 4918,
      "конкретных": 4919,
      "экспорт": 4920,
      "свидете": 4921,
      "уточнил": 4922,
      "тировал": 4923,
      "разведки": 4924,
      "джейм": 4925,
      "задолженность": 4926,
      "вынуждены": 4927,
      "космодро": 4928,
      "убежден": 4929,
      "юрт": 4930,
      "отмывании": 4931,
      "жириновский": 4932,
      "испан": 4933,
      "отвечая": 4934,
      "вирус": 4935,
      "эпиде": 4936,
      "постоянно": 4937,
      "института": 4938,
      "переселен": 4939,
      "весьма": 4940,
      "corri": 4941,
      "солдат": 4942,
      "sera": 4943,
      "лебедь": 4944,
      "приезжи": 4945,
      "полномочий": 4946,
      "алексей": 4947,
      "махачка": 4948,
      "фигури": 4949,
      "евгений": 4950,
      "далеко": 4951,
      "корпус": 4952,
      "каширском": 4953,
      "изоля": 4954,
      "протоко": 4955,
      "волгодонске": 4956,
      "придется": 4957,
      "координа": 4958,
      "неоднократно": 4959,
      "процента": 4960,
      "бомбардиров": 4961,
      "della": 4962,
      "\":": 4963,
      "\"<": 4964,
      ",\"": 4965,
      "RL": 4966,
      "URL": 4967,
      "tt": 4968,
      "ux": 4969,
      "work": 4970,
      "ази": 4971,
      "азии": 4972,
      "вво": 4973,
      "входит": 4974,
      "где": 4975,
      "двер": 4976,
      "дца": 4977,
      "заны": 4978,
      "иран": 4979,
      "исте": 4980,
      "кто": 4981,
      "ктора": 4982,
      "опол": 4983,
      "опла": 4984,
      "плу": 4985,
      "спро": 4986,
      "спа": 4987,
      "справ": 4988,
      "уже": 4989,
      "узна": 4990,
      "увд": 4991,
      "упал": 4992,
      "фу": 4993,
      "фф": 4994,
      "хе": 4995,
      "чений": 4996,
      "чительно": 4997,
      "шпи": 4998,
      "ресто": 4999,
      "резо": 5000,
      "номе": 5001,
      "копи": 5002,
      "косов": 5003,
      "корей": 5004,
      "англи": 5005,
      "попро": 5006,
      "гостеле": 5007,
      "напря": 5008,
      "нападения": 5009,
      "льского": 5010,
      "вообще": 5011,
      "лак": 5012,
      "нились": 5013,
      "зай": 5014,
      "зано": 5015,
      "затра": 5016,
      "заплани": 5017,
      "задор": 5018,
      "риан": 5019,
      "несен": 5020,
      "тамож": 5021,
      "вариан": 5022,
      "лец": 5023,
      "лера": 5024,
      "делом": 5025,
      "профи": 5026,
      "пресе": 5027,
      "тихо": 5028,
      "винов": 5029,
      "ческим": 5030,
      "инф": 5031,
      "месторо": 5032,
      "стаби": 5033,
      "стабили": 5034,
      "сессии": 5035,
      "пришли": 5036,
      "пакт": 5037,
      "отра": 5038,
      "откуда": 5039,
      "сток": 5040,
      "овое": 5041,
      "холер": 5042,
      "коммента": 5043,
      "измени": 5044,
      "избра": 5045,
      "ительную": 5046,
      "зия": 5047,
      "мур": 5048,
      "ленном": 5049,
      "живо": 5050,
      "жила": 5051,
      "станут": 5052,
      "станций": 5053,
      "пис": 5054,
      "будем": 5055,
      "долго": 5056,
      "граб": 5057,
      "шал": 5058,
      "данов": 5059,
      "бии": 5060,
      "летия": 5061,
      "летнего": 5062,
      "слухи": 5063,
      "российском": 5064,
      "хасав": 5065,
      "циях": 5066,
      "новом": 5067,
      "новому": 5068,
      "собин": 5069,
      "власть": 5070,
      "войну": 5071,
      "серб": 5072,
      "труда": 5073,
      "публику": 5074,
      "начал": 5075,
      "вул": 5076,
      "рена": 5077,
      "цене": 5078,
      "партий": 5079,
      "регионов": 5080,
      "колон": 5081,
      "агре": 5082,
      "приняло": 5083,
      "чечней": 5084,
      "террористами": 5085,
      "сотрудниками": 5086,
      "международным": 5087,
      "международными": 5088,
      "группой": 5089,
      "nex": 5090,
      "основных": 5091,
      "имели": 5092,
      "московская": 5093,
      "минувшие": 5094,
      "существует": 5095,
      "спикер": 5096,
      "находиться": 5097,
      "главный": 5098,
      "ссыла": 5099,
      "ударов": 5100,
      "удастся": 5101,
      "составляют": 5102,
      "миллиард": 5103,
      "жением": 5104,
      "tele": 5105,
      "лично": 5106,
      "двумя": 5107,
      "марш": 5108,
      "официальный": 5109,
      "внес": 5110,
      "финансовыми": 5111,
      "внутри": 5112,
      "кандидата": 5113,
      "русские": 5114,
      "борьбу": 5115,
      "компьютерной": 5116,
      "северная": 5117,
      "ющиеся": 5118,
      "британской": 5119,
      "подготовку": 5120,
      "июне": 5121,
      "оказать": 5122,
      "ющийся": 5123,
      "предоставля": 5124,
      "защите": 5125,
      "автомобиль": 5126,
      "европейской": 5127,
      "дороги": 5128,
      "статье": 5129,
      "пользу": 5130,
      "прекратить": 5131,
      "выпуск": 5132,
      "призвал": 5133,
      "поддержке": 5134,
      "стической": 5135,
      "саммер": 5136,
      "людям": 5137,
      "законодательству": 5138,
      "тюмень": 5139,
      "хотят": 5140,
      "спецслужбы": 5141,
      "состоит": 5142,
      "сделано": 5143,
      "импор": 5144,
      "трк": 5145,
      "таможенного": 5146,
      "думаю": 5147,
      "собрания": 5148,
      "миротворцев": 5149,
      "нефтепродуктов": 5150,
      "пассажир": 5151,
      "фунтов": 5152,
      "покуп": 5153,
      "рассмот": 5154,
      "золота": 5155,
      "тяжело": 5156,
      "конкретные": 5157,
      "машина": 5158,
      "худ": 5159,
      "аэропорта": 5160,
      "превышает": 5161,
      "тироваться": 5162,
      "network": 5163,
      "решили": 5164,
      "восток": 5165,
      "выставка": 5166,
      "выполнения": 5167,
      "видео": 5168,
      "конгресс": 5169,
      "березовского": 5170,
      "визит": 5171,
      "организациями": 5172,
      "митинг": 5173,
      "кореи": 5174,
      "зарубежных": 5175,
      "кремля": 5176,
      "сложи": 5177,
      "австралии": 5178,
      "массовые": 5179,
      "консульта": 5180,
      "объектов": 5181,
      "составе": 5182,
      "мужчи": 5183,
      "акционер": 5184,
      "албанцев": 5185,
      "вызвало": 5186,
      "принци": 5187,
      "арестован": 5188,
      "реализации": 5189,
      "выступил": 5190,
      "бумаг": 5191,
      "предусматривает": 5192,
      "проголосовали": 5193,
      "градской": 5194,
      "религи": 5195,
      "экипажа": 5196,
      "доброволь": 5197,
      "команды": 5198,
      "второго": 5199,
      "пентагона": 5200,
      "крови": 5201,
      "шкале": 5202,
      "кредиторов": 5203,
      "красноярского": 5204,
      "кпрф": 5205,
      "приводит": 5206,
      "полковник": 5207,
      "здравоохран": 5208,
      "поверх": 5209,
      "абсолютно": 5210,
      "черномырдин": 5211,
      "антитер": 5212,
      "сопровожда": 5213,
      "помимо": 5214,
      "банкрот": 5215,
      "космодрома": 5216,
      "резолю": 5217,
      "тюменьэнерго": 5218,
      ".,": 5219,
      "ag": 5220,
      "ex": 5221,
      "ve": 5222,
      "woo": 5223,
      "бл": 5224,
      "вме": 5225,
      "дли": 5226,
      "жан": 5227,
      "жителям": 5228,
      "иски": 5229,
      "иор": 5230,
      "йской": 5231,
      "оча": 5232,
      "огон": 5233,
      "оплаты": 5234,
      "пси": 5235,
      "слов": 5236,
      "сбер": 5237,
      "снаб": 5238,
      "сфере": 5239,
      "упо": 5240,
      "улуч": 5241,
      "уплаты": 5242,
      "читься": 5243,
      "штур": 5244,
      "щу": 5245,
      "эм": 5246,
      "яет": 5247,
      "№<": 5248,
      "стрии": 5249,
      "овр": 5250,
      "поро": 5251,
      "поступ": 5252,
      "похоро": 5253,
      "гол": 5254,
      "нашли": 5255,
      "вошли": 5256,
      "лая": 5257,
      "ниже": 5258,
      "какие": 5259,
      "кароли": 5260,
      "заинтересов": 5261,
      "кистана": 5262,
      "неде": 5263,
      "немед": 5264,
      "такую": 5265,
      "лог": 5266,
      "лост": 5267,
      "логов": 5268,
      "вай": 5269,
      "леони": 5270,
      "дево": 5271,
      "дерев": 5272,
      "сопротив": 5273,
      "проходи": 5274,
      "прошел": 5275,
      "пройдет": 5276,
      "моря": 5277,
      "момента": 5278,
      "досто": 5279,
      "домен": 5280,
      "дочер": 5281,
      "премии": 5282,
      "тики": 5283,
      "тине": 5284,
      "типа": 5285,
      "виду": 5286,
      "чев": 5287,
      "чек": 5288,
      "ческими": 5289,
      "бородин": 5290,
      "инду": 5291,
      "инжен": 5292,
      "мели": 5293,
      "месту": 5294,
      "ровании": 5295,
      "чар": 5296,
      "приор": 5297,
      "патри": 5298,
      "пакет": 5299,
      "рых": 5300,
      "рыва": 5301,
      "пей": 5302,
      "ствова": 5303,
      "сильно": 5304,
      "ходом": 5305,
      "праве": 5306,
      "гает": 5307,
      "предназначен": 5308,
      "ительным": 5309,
      "зиру": 5310,
      "путем": 5311,
      "подъез": 5312,
      "ряде": 5313,
      "разных": 5314,
      "шесть": 5315,
      "мые": 5316,
      "дента": 5317,
      "писто": 5318,
      "главой": 5319,
      "воздержа": 5320,
      "ченные": 5321,
      "ченный": 5322,
      "хакер": 5323,
      "акцию": 5324,
      "альных": 5325,
      "полном": 5326,
      "резко": 5327,
      "правительственной": 5328,
      "жды": 5329,
      "решить": 5330,
      "взрывы": 5331,
      "зданий": 5332,
      "ционное": 5333,
      "тической": 5334,
      "военным": 5335,
      "телеф": 5336,
      "больных": 5337,
      "информацией": 5338,
      "тысяче": 5339,
      "крест": 5340,
      "руководством": 5341,
      "руководителем": 5342,
      "нарушений": 5343,
      "чечня": 5344,
      "среды": 5345,
      "американский": 5346,
      "американская": 5347,
      "американскими": 5348,
      "расход": 5349,
      "расстре": 5350,
      "последнего": 5351,
      "международная": 5352,
      "госдепартамента": 5353,
      "возможных": 5354,
      "мирных": 5355,
      "вопросов": 5356,
      "штат": 5357,
      "основан": 5358,
      "основании": 5359,
      "единство": 5360,
      "граждане": 5361,
      "судя": 5362,
      "судно": 5363,
      "тради": 5364,
      "шихся": 5365,
      "отношений": 5366,
      "отметили": 5367,
      "работали": 5368,
      "берлин": 5369,
      "repu": 5370,
      "сроки": 5371,
      "случаях": 5372,
      "национа": 5373,
      "производителей": 5374,
      "направлен": 5375,
      "месяц": 5376,
      "пострадавшие": 5377,
      "обеспечение": 5378,
      "эксплу": 5379,
      "политическое": 5380,
      "название": 5381,
      "бомбов": 5382,
      "намерены": 5383,
      "русской": 5384,
      "улицы": 5385,
      "улиган": 5386,
      "закону": 5387,
      "ближайших": 5388,
      "конференция": 5389,
      "соверши": 5390,
      "британский": 5391,
      "освобождение": 5392,
      "принимают": 5393,
      "оказалась": 5394,
      "прибыль": 5395,
      "избирательной": 5396,
      "подобных": 5397,
      "связаны": 5398,
      "бронет": 5399,
      "нормаль": 5400,
      "размера": 5401,
      "наблюд": 5402,
      "вызван": 5403,
      "угрозы": 5404,
      "создании": 5405,
      "обсуждения": 5406,
      "активно": 5407,
      "технологии": 5408,
      "транспортных": 5409,
      "лдин": 5410,
      "вернуть": 5411,
      "проведении": 5412,
      "спасатели": 5413,
      "следователи": 5414,
      "сотрудничестве": 5415,
      "миротворческих": 5416,
      "разработан": 5417,
      "разработки": 5418,
      "войсками": 5419,
      "запуск": 5420,
      "use": 5421,
      "протест": 5422,
      "скандал": 5423,
      "отставку": 5424,
      "пакистана": 5425,
      "делегация": 5426,
      "расположенном": 5427,
      "попытки": 5428,
      "ford": 5429,
      "беспоряд": 5430,
      "оценкам": 5431,
      "лидером": 5432,
      "письмо": 5433,
      "охраны": 5434,
      "убежи": 5435,
      "пойдет": 5436,
      "содержится": 5437,
      "ученые": 5438,
      "секты": 5439,
      "народа": 5440,
      "взорван": 5441,
      "региональных": 5442,
      "обязанностей": 5443,
      "тайвань": 5444,
      "спутник": 5445,
      "смерти": 5446,
      "конфликт": 5447,
      "столкну": 5448,
      "похищен": 5449,
      "горбачевой": 5450,
      "опроверг": 5451,
      "нобелевской": 5452,
      "океан": 5453,
      "десятки": 5454,
      "доказательств": 5455,
      "необходимые": 5456,
      "татарстана": 5457,
      "басаева": 5458,
      "наличии": 5459,
      "относится": 5460,
      "поздно": 5461,
      "начнется": 5462,
      "окончатель": 5463,
      "введение": 5464,
      "телефону": 5465,
      "internet": 5466,
      "комментируя": 5467,
      "примаков": 5468,
      "предложил": 5469,
      "владимиром": 5470,
      "командование": 5471,
      "учетом": 5472,
      "избежать": 5473,
      "альянса": 5474,
      "air": 5475,
      "бреж": 5476,
      "королев": 5477,
      "озабо": 5478,
      "манежной": 5479,
      "середине": 5480,
      "эдвар": 5481,
      "телерадиокомпании": 5482,
      "брайт": 5483,
      "олбрайт": 5484,
      "устанавли": 5485,
      "ассоциа": 5486,
      "служеб": 5487,
      "кладбище": 5488,
      "переселенцев": 5489,
      "corriere": 5490,
      "англии": 5491,
      "маршру": 5492,
      "саммерс": 5493,
      "религиоз": 5494,
      "здравоохранения": 5495,
      "огонь": 5496,
      "ed": 5497,
      "el": 5498,
      "jo": 5499,
      "ko": 5500,
      "ld": 5501,
      "mb": 5502,
      "ni": 5503,
      "nn": 5504,
      "sc": 5505,
      "sony": 5506,
      "ts": 5507,
      "tor": 5508,
      "ver": 5509,
      "wor": 5510,
      "ах": 5511,
      "вслед": 5512,
      "дя": 5513,
      "дета": 5514,
      "еще": 5515,
      "жде": 5516,
      "зданов": 5517,
      "ид": 5518,
      "имена": 5519,
      "кло": 5520,
      "клет": 5521,
      "лга": 5522,
      "омон": 5523,
      "пан": 5524,
      "рг": 5525,
      "уди": 5526,
      "уника": 5527,
      "устран": 5528,
      "уволь": 5529,
      "устойчи": 5530,
      "фью": 5531,
      "хин": 5532,
      "хулиган": 5533,
      "чо": 5534,
      "штор": 5535,
      "эду": 5536,
      "эколо": 5537,
      "расчет": 5538,
      "раун": 5539,
      "роди": 5540,
      "коз": 5541,
      "колу": 5542,
      "пок": 5543,
      "побы": 5544,
      "голь": 5545,
      "лих": 5546,
      "лили": 5547,
      "напа": 5548,
      "насколько": 5549,
      "льго": 5550,
      "воло": 5551,
      "обжал": 5552,
      "кать": 5553,
      "каже": 5554,
      "зацию": 5555,
      "загряз": 5556,
      "деление": 5557,
      "сожа": 5558,
      "прохо": 5559,
      "протя": 5560,
      "пропуск": 5561,
      "модер": 5562,
      "тился": 5563,
      "видом": 5564,
      "чему": 5565,
      "ческом": 5566,
      "мафи": 5567,
      "майор": 5568,
      "дисков": 5569,
      "причастности": 5570,
      "отда": 5571,
      "отдела": 5572,
      "гия": 5573,
      "кун": 5574,
      "куби": 5575,
      "сив": 5576,
      "силия": 5577,
      "празд": 5578,
      "компакт": 5579,
      "изде": 5580,
      "изобра": 5581,
      "страна": 5582,
      "предска": 5583,
      "предстоит": 5584,
      "ительная": 5585,
      "подвер": 5586,
      "подчин": 5587,
      "разви": 5588,
      "тые": 5589,
      "сообще": 5590,
      "няет": 5591,
      "ленную": 5592,
      "контак": 5593,
      "жилого": 5594,
      "арен": 5595,
      "армию": 5596,
      "стандар": 5597,
      "шаются": 5598,
      "споко": 5599,
      "щает": 5600,
      "щать": 5601,
      "новей": 5602,
      "переме": 5603,
      "перерегистрации": 5604,
      "данной": 5605,
      "москви": 5606,
      "были": 5607,
      "базы": 5608,
      "гурья": 5609,
      "хак": 5610,
      "явлин": 5611,
      "гера": 5612,
      "степ": 5613,
      "считы": 5614,
      "зоны": 5615,
      "следствием": 5616,
      "трево": 5617,
      "осетии": 5618,
      "решению": 5619,
      "сербии": 5620,
      "строев": 5621,
      "получа": 5622,
      "начали": 5623,
      "тического": 5624,
      "произведен": 5625,
      "телекомпания": 5626,
      "ценных": 5627,
      "местной": 5628,
      "местного": 5629,
      "местному": 5630,
      "ислами": 5631,
      "народного": 5632,
      "автор": 5633,
      "автоном": 5634,
      "сторона": 5635,
      "врача": 5636,
      "среднем": 5637,
      "американским": 5638,
      "всеми": 5639,
      "расстоя": 5640,
      "расцени": 5641,
      "последним": 5642,
      "возможной": 5643,
      "возможным": 5644,
      "шенных": 5645,
      "помочь": 5646,
      "основные": 5647,
      "своими": 5648,
      "судья": 5649,
      "известный": 5650,
      "главной": 5651,
      "осталось": 5652,
      "остальных": 5653,
      "свободу": 5654,
      "свободы": 5655,
      "государственная": 5656,
      "милицион": 5657,
      "обращения": 5658,
      "tel": 5659,
      "санитар": 5660,
      "tish": 5661,
      "состоялась": 5662,
      "телями": 5663,
      "работников": 5664,
      "утверждения": 5665,
      "прошли": 5666,
      "участии": 5667,
      "программу": 5668,
      "грузин": 5669,
      "открылась": 5670,
      "аэс": 5671,
      "образов": 5672,
      "кандидат": 5673,
      "мирово": 5674,
      "мировом": 5675,
      "условно": 5676,
      "условий": 5677,
      "ставила": 5678,
      "британские": 5679,
      "июня": 5680,
      "принимать": 5681,
      "правила": 5682,
      "позволя": 5683,
      "дальше": 5684,
      "прибыл": 5685,
      "избирательных": 5686,
      "избирательный": 5687,
      "электроэнергии": 5688,
      "защиту": 5689,
      "масштаб": 5690,
      "провока": 5691,
      "опасных": 5692,
      "опасности": 5693,
      "михаила": 5694,
      "августе": 5695,
      "медиа": 5696,
      "следует": 5697,
      "надзо": 5698,
      "западных": 5699,
      "продаж": 5700,
      "европейских": 5701,
      "первое": 5702,
      "пытаются": 5703,
      "ющейся": 5704,
      "вооруженные": 5705,
      "benex": 5706,
      "атлан": 5707,
      "созданию": 5708,
      "изменений": 5709,
      "председателем": 5710,
      "равно": 5711,
      "сильный": 5712,
      "comm": 5713,
      "постановления": 5714,
      "недостаточ": 5715,
      "недостовер": 5716,
      "связанных": 5717,
      "жертва": 5718,
      "жертвы": 5719,
      "разрушения": 5720,
      "потерпе": 5721,
      "ведомств": 5722,
      "бандиты": 5723,
      "круглосу": 5724,
      "спасателей": 5725,
      "объявила": 5726,
      "сетей": 5727,
      "сторонники": 5728,
      "огне": 5729,
      "объявлен": 5730,
      "топливо": 5731,
      "функциони": 5732,
      "предотвратить": 5733,
      "туристов": 5734,
      "органам": 5735,
      "нена": 5736,
      "задачи": 5737,
      "совершенно": 5738,
      "возглавляет": 5739,
      "валютного": 5740,
      "украина": 5741,
      "авария": 5742,
      "разведыва": 5743,
      "коррупцией": 5744,
      "взрывчатка": 5745,
      "госпиталь": 5746,
      "грозного": 5747,
      "сделки": 5748,
      "покинуть": 5749,
      "верховного": 5750,
      "изъято": 5751,
      "отмыванием": 5752,
      "калифор": 5753,
      "заболевания": 5754,
      "десять": 5755,
      "составил": 5756,
      "автомашин": 5757,
      "тайване": 5758,
      "house": 5759,
      "публикации": 5760,
      "испании": 5761,
      "австралий": 5762,
      "концерна": 5763,
      "имущества": 5764,
      "стерлин": 5765,
      "лицензии": 5766,
      "зарплаты": 5767,
      "горбачева": 5768,
      "соседних": 5769,
      "половине": 5770,
      "относительно": 5771,
      "станислава": 5772,
      "начинает": 5773,
      "властям": 5774,
      "вахха": 5775,
      "порнографии": 5776,
      "ресурсов": 5777,
      "баллотироваться": 5778,
      "африкан": 5779,
      "артиллерий": 5780,
      "высказы": 5781,
      "mars": 5782,
      "центробанка": 5783,
      "аудит": 5784,
      "сохранить": 5785,
      "колокола": 5786,
      "абхазии": 5787,
      "облигаций": 5788,
      "взрывчатых": 5789,
      "ститут": 5790,
      "лаборатории": 5791,
      "кгб": 5792,
      "роберт": 5793,
      "бандитов": 5794,
      "исследова": 5795,
      "british": 5796,
      "ленин": 5797,
      "неделю": 5798,
      "эксплуата": 5799,
      "эдуар": 5800,
      "колумби": 5801,
      "кажегель": 5802,
      "модерни": 5803,
      "гурьянова": 5804,
      "круглосуточ": 5805,
      ">)": 5806,
      "au": 5807,
      "cnn": 5808,
      "ea": 5809,
      "gar": 5810,
      "il": 5811,
      "lent": 5812,
      "man": 5813,
      "vi": 5814,
      "ала": 5815,
      "аде": 5816,
      "акт": 5817,
      "вь": 5818,
      "вки": 5819,
      "ввоз": 5820,
      "вана": 5821,
      "дания": 5822,
      "двор": 5823,
      "звре": 5824,
      "ием": 5825,
      "ились": 5826,
      "кл": 5827,
      "кен": 5828,
      "ксо": 5829,
      "лла": 5830,
      "лоб": 5831,
      "ланд": 5832,
      "нений": 5833,
      "оди": 5834,
      "огла": 5835,
      "олег": 5836,
      "сных": 5837,
      "тится": 5838,
      "убед": 5839,
      "укреп": 5840,
      "чная": 5841,
      "ющую": 5842,
      "стрен": 5843,
      "енных": 5844,
      "ентологи": 5845,
      "рета": 5846,
      "роста": 5847,
      "кост": 5848,
      "пот": 5849,
      "пото": 5850,
      "посет": 5851,
      "полета": 5852,
      "лите": 5853,
      "нашего": 5854,
      "льва": 5855,
      "мило": 5856,
      "мических": 5857,
      "воспо": 5858,
      "восемь": 5859,
      "нием": 5860,
      "нических": 5861,
      "кафе": 5862,
      "каким": 5863,
      "казом": 5864,
      "защи": 5865,
      "запас": 5866,
      "нео": 5867,
      "недоволь": 5868,
      "тает": 5869,
      "тать": 5870,
      "вающие": 5871,
      "десс": 5872,
      "сомо": 5873,
      "сомн": 5874,
      "руд": 5875,
      "простран": 5876,
      "ссер": 5877,
      "моз": 5878,
      "прео": 5879,
      "тила": 5880,
      "тирован": 5881,
      "виктора": 5882,
      "мари": 5883,
      "магаз": 5884,
      "вывод": 5885,
      "вышли": 5886,
      "выйти": 5887,
      "выкупа": 5888,
      "инди": 5889,
      "инком": 5890,
      "интен": 5891,
      "институт": 5892,
      "мерах": 5893,
      "стиан": 5894,
      "вера": 5895,
      "сепара": 5896,
      "дила": 5897,
      "примо": 5898,
      "приблиз": 5899,
      "пак": 5900,
      "отказ": 5901,
      "скан": 5902,
      "саудов": 5903,
      "супер": 5904,
      "суток": 5905,
      "енты": 5906,
      "нужда": 5907,
      "лукой": 5908,
      "хора": 5909,
      "ходор": 5910,
      "комсомо": 5911,
      "изготов": 5912,
      "извле": 5913,
      "гала": 5914,
      "страну": 5915,
      "предполож": 5916,
      "предпоч": 5917,
      "подклю": 5918,
      "чие": 5919,
      "чиков": 5920,
      "муса": 5921,
      "мушар": 5922,
      "разы": 5923,
      "разобра": 5924,
      "нями": 5925,
      "ленное": 5926,
      "констан": 5927,
      "конкур": 5928,
      "ментом": 5929,
      "ковского": 5930,
      "будь": 5931,
      "правов": 5932,
      "жах": 5933,
      "люмини": 5934,
      "одну": 5935,
      "пересмо": 5936,
      "перехва": 5937,
      "переведены": 5938,
      "данного": 5939,
      "быть": 5940,
      "быков": 5941,
      "фина": 5942,
      "туру": 5943,
      "возме": 5944,
      "компанию": 5945,
      "ближ": 5946,
      "италии": 5947,
      "циями": 5948,
      "втором": 5949,
      "спеш": 5950,
      "гео": 5951,
      "центов": 5952,
      "крат": 5953,
      "представля": 5954,
      "представлены": 5955,
      "знамен": 5956,
      "министров": 5957,
      "зой": 5958,
      "екрета": 5959,
      "война": 5960,
      "цах": 5961,
      "торговой": 5962,
      "решении": 5963,
      "сервер": 5964,
      "сербов": 5965,
      "ционный": 5966,
      "тических": 5967,
      "военный": 5968,
      "военное": 5969,
      "произой": 5970,
      "плата": 5971,
      "пласти": 5972,
      "большую": 5973,
      "больницы": 5974,
      "тысяча": 5975,
      "исход": 5976,
      "химиче": 5977,
      "принятия": 5978,
      "сентябре": 5979,
      "сотрудни": 5980,
      "расходов": 5981,
      "обеих": 5982,
      "обеспоко": 5983,
      "обезвре": 5984,
      "последствия": 5985,
      "последствий": 5986,
      "охва": 5987,
      "охот": 5988,
      "мирного": 5989,
      "смог": 5990,
      "имеющих": 5991,
      "сказать": 5992,
      "судна": 5993,
      "клады": 5994,
      "трав": 5995,
      "обозна": 5996,
      "феры": 5997,
      "отношению": 5998,
      "остался": 5999,
      "сообщений": 6000,
      "санти": 6001,
      "экстрен": 6002,
      "ельциным": 6003,
      "производству": 6004,
      "направлены": 6005,
      "утвержден": 6006,
      "утверждению": 6007,
      "официальных": 6008,
      "официального": 6009,
      "прошла": 6010,
      "болель": 6011,
      "грузи": 6012,
      "боевикам": 6013,
      "урагана": 6014,
      "камдесс": 6015,
      "оборон": 6016,
      "александром": 6017,
      "плохо": 6018,
      "миню": 6019,
      "налогам": 6020,
      "намерения": 6021,
      "этаж": 6022,
      "брат": 6023,
      "давно": 6024,
      "прокуратурой": 6025,
      "авиации": 6026,
      "беженцами": 6027,
      "проектов": 6028,
      "оказалось": 6029,
      "пределы": 6030,
      "множе": 6031,
      "комиссию": 6032,
      "раиса": 6033,
      "происходя": 6034,
      "включа": 6035,
      "включает": 6036,
      "связей": 6037,
      "медики": 6038,
      "щийся": 6039,
      "ареста": 6040,
      "западные": 6041,
      "продажу": 6042,
      "политике": 6043,
      "общественного": 6044,
      "атмос": 6045,
      "признан": 6046,
      "людми": 6047,
      "выплаты": 6048,
      "ракетной": 6049,
      "квартир": 6050,
      "ядерного": 6051,
      "ландии": 6052,
      "недопусти": 6053,
      "прямом": 6054,
      "единой": 6055,
      "надеется": 6056,
      "вернулись": 6057,
      "сегодняшнего": 6058,
      "коммуни": 6059,
      "большинства": 6060,
      "unic": 6061,
      "спустя": 6062,
      "участвовать": 6063,
      "возникновения": 6064,
      "сторонников": 6065,
      "подписано": 6066,
      "объявлено": 6067,
      "терроризм": 6068,
      "покушение": 6069,
      "каналам": 6070,
      "рассмотреть": 6071,
      "каждой": 6072,
      "телефонной": 6073,
      "коллегами": 6074,
      "помещений": 6075,
      "чрезвычайного": 6076,
      "зарегистрированных": 6077,
      "нефтяных": 6078,
      "находящихся": 6079,
      "ограничения": 6080,
      "соответствующих": 6081,
      "автобуса": 6082,
      "благо": 6083,
      "решил": 6084,
      "теракта": 6085,
      "беспре": 6086,
      "грозит": 6087,
      "доставлены": 6088,
      "объяснил": 6089,
      "применя": 6090,
      "верховный": 6091,
      "будущем": 6092,
      "создана": 6093,
      "достигну": 6094,
      "швейцарской": 6095,
      "убийства": 6096,
      "содержит": 6097,
      "западе": 6098,
      "киргиз": 6099,
      "системах": 6100,
      "острова": 6101,
      "составила": 6102,
      "допустить": 6103,
      "отсутствия": 6104,
      "казахстан": 6105,
      "тайваня": 6106,
      "вероятно": 6107,
      "субъ": 6108,
      "крайней": 6109,
      "финансирования": 6110,
      "массовых": 6111,
      "призыв": 6112,
      "призыву": 6113,
      "согласие": 6114,
      "согласился": 6115,
      "медицинской": 6116,
      "приобрет": 6117,
      "христиан": 6118,
      "выдвину": 6119,
      "оппозиции": 6120,
      "нобелевскую": 6121,
      "ехать": 6122,
      "появились": 6123,
      "оказывать": 6124,
      "скорость": 6125,
      "объектив": 6126,
      "тариф": 6127,
      "памят": 6128,
      "сахалинской": 6129,
      "эвакуированы": 6130,
      "corp": 6131,
      "академии": 6132,
      "лебедя": 6133,
      "летел": 6134,
      "госсекрета": 6135,
      "столичного": 6136,
      "страхования": 6137,
      "соединенные": 6138,
      "бдитель": 6139,
      "услуги": 6140,
      "примакова": 6141,
      "поврежден": 6142,
      "демонстрации": 6143,
      "испытания": 6144,
      "тюрьме": 6145,
      "бизнеса": 6146,
      "пункты": 6147,
      "cial": 6148,
      "фламинго": 6149,
      "очевидцев": 6150,
      "норвеж": 6151,
      "окончании": 6152,
      "апреля": 6153,
      "штраф": 6154,
      "шатт": 6155,
      "турец": 6156,
      "инициативе": 6157,
      "жительства": 6158,
      "вещание": 6159,
      "тюрем": 6160,
      "кораб": 6161,
      "перспекти": 6162,
      "грузови": 6163,
      "каждого": 6164,
      "злоупотреб": 6165,
      "рихтера": 6166,
      "доходах": 6167,
      "пребывания": 6168,
      "категорически": 6169,
      "депортации": 6170,
      "чехии": 6171,
      "баррель": 6172,
      "немедленно": 6173,
      "инженер": 6174,
      "приоритет": 6175,
      "фьючер": 6176,
      "степени": 6177,
      "communic": 6178,
      "стерлингов": 6179,
      "lenta": 6180,
      "адеква": 6181,
      "милоше": 6182,
      "сепарати": 6183,
      "мушарра": 6184,
      "камдессю": 6185,
      "./": 6186,
      "99": 6187,
      "am": 6188,
      "bar": 6189,
      "tv": 6190,
      "wal": 6191,
      "yo": 6192,
      "афин": 6193,
      "аок": 6194,
      "алюмини": 6195,
      "бить": 6196,
      "вру": 6197,
      "впро": 6198,
      "вряд": 6199,
      "входя": 6200,
      "дзе": 6201,
      "ее": 6202,
      "зель": 6203,
      "ир": 6204,
      "квали": 6205,
      "крю": 6206,
      "лки": 6207,
      "мл": 6208,
      "опаса": 6209,
      "съ": 6210,
      "ува": 6211,
      "уде": 6212,
      "убы": 6213,
      "умень": 6214,
      "уиль": 6215,
      "ухуд": 6216,
      "хель": 6217,
      "чится": 6218,
      "швед": 6219,
      "шлин": 6220,
      "щин": 6221,
      "юге": 6222,
      "стен": 6223,
      "стской": 6224,
      "енной": 6225,
      "енный": 6226,
      "енности": 6227,
      "реакция": 6228,
      "роз": 6229,
      "носит": 6230,
      "кот": 6231,
      "кону": 6232,
      "поло": 6233,
      "после": 6234,
      "почему": 6235,
      "лизов": 6236,
      "лизации": 6237,
      "нав": 6238,
      "нашей": 6239,
      "наук": 6240,
      "льман": 6241,
      "миг": 6242,
      "воро": 6243,
      "нибудь": 6244,
      "общая": 6245,
      "каш": 6246,
      "кает": 6247,
      "кадар": 6248,
      "зале": 6249,
      "застав": 6250,
      "застре": 6251,
      "затруд": 6252,
      "заработ": 6253,
      "заранее": 6254,
      "рино": 6255,
      "кине": 6256,
      "неза": 6257,
      "таил": 6258,
      "вати": 6259,
      "дера": 6260,
      "прояв": 6261,
      "ссель": 6262,
      "мость": 6263,
      "могу": 6264,
      "дож": 6265,
      "телю": 6266,
      "тива": 6267,
      "чел": 6268,
      "маги": 6269,
      "вый": 6270,
      "выте": 6271,
      "вызыва": 6272,
      "выдать": 6273,
      "вызывает": 6274,
      "бон": 6275,
      "боя": 6276,
      "инве": 6277,
      "инфе": 6278,
      "рованию": 6279,
      "селения": 6280,
      "дио": 6281,
      "дир": 6282,
      "диаг": 6283,
      "приви": 6284,
      "примет": 6285,
      "прият": 6286,
      "приступи": 6287,
      "принес": 6288,
      "примор": 6289,
      "павел": 6290,
      "рым": 6291,
      "дует": 6292,
      "думу": 6293,
      "отли": 6294,
      "отстран": 6295,
      "отпуск": 6296,
      "сторов": 6297,
      "сап": 6298,
      "сали": 6299,
      "суть": 6300,
      "гиле": 6301,
      "куз": 6302,
      "курор": 6303,
      "овало": 6304,
      "сия": 6305,
      "сибир": 6306,
      "шина": 6307,
      "холдин": 6308,
      "компро": 6309,
      "бек": 6310,
      "страх": 6311,
      "страш": 6312,
      "путе": 6313,
      "путей": 6314,
      "подлин": 6315,
      "чилий": 6316,
      "размеры": 6317,
      "терро": 6318,
      "концу": 6319,
      "меня": 6320,
      "денции": 6321,
      "живых": 6322,
      "целе": 6323,
      "станцию": 6324,
      "писан": 6325,
      "була": 6326,
      "правда": 6327,
      "грана": 6328,
      "шами": 6329,
      "спокой": 6330,
      "ранов": 6331,
      "даны": 6332,
      "был": 6333,
      "емся": 6334,
      "билет": 6335,
      "летом": 6336,
      "летняя": 6337,
      "ственного": 6338,
      "российскую": 6339,
      "вред": 6340,
      "хамас": 6341,
      "хачила": 6342,
      "канал": 6343,
      "взят": 6344,
      "мяте": 6345,
      "ального": 6346,
      "слы": 6347,
      "значение": 6348,
      "полной": 6349,
      "полный": 6350,
      "связано": 6351,
      "никак": 6352,
      "третий": 6353,
      "гена": 6354,
      "осна": 6355,
      "серии": 6356,
      "полутора": 6357,
      "ционная": 6358,
      "начать": 6359,
      "началась": 6360,
      "платель": 6361,
      "большей": 6362,
      "больницу": 6363,
      "четверо": 6364,
      "кового": 6365,
      "orbi": 6366,
      "друз": 6367,
      "рассле": 6368,
      "адресу": 6369,
      "соглашению": 6370,
      "менты": 6371,
      "федеральном": 6372,
      "inc": 6373,
      "повто": 6374,
      "врачей": 6375,
      "президенте": 6376,
      "общее": 6377,
      "величи": 6378,
      "группе": 6379,
      "штабе": 6380,
      "штатах": 6381,
      "смогли": 6382,
      "основная": 6383,
      "имеется": 6384,
      "границ": 6385,
      "списки": 6386,
      "транза": 6387,
      "главным": 6388,
      "отношение": 6389,
      "остались": 6390,
      "милицией": 6391,
      "директором": 6392,
      "фай": 6393,
      "проверка": 6394,
      "проверку": 6395,
      "проверять": 6396,
      "рованный": 6397,
      "вторжения": 6398,
      "направить": 6399,
      "преступников": 6400,
      "преступлений": 6401,
      "ратуры": 6402,
      "внесен": 6403,
      "тонны": 6404,
      "ссам": 6405,
      "программного": 6406,
      "контрольно": 6407,
      "обеспечении": 6408,
      "открытие": 6409,
      "соответственно": 6410,
      "налога": 6411,
      "политическим": 6412,
      "назван": 6413,
      "представительства": 6414,
      "бюро": 6415,
      "продолжаются": 6416,
      "национальности": 6417,
      "секрет": 6418,
      "русского": 6419,
      "регистрацию": 6420,
      "фирмой": 6421,
      "исключил": 6422,
      "исключают": 6423,
      "авиакомпании": 6424,
      "итоги": 6425,
      "итогам": 6426,
      "вооружения": 6427,
      "франция": 6428,
      "госдуме": 6429,
      "специального": 6430,
      "журналист": 6431,
      "продукта": 6432,
      "учред": 6433,
      "предоставления": 6434,
      "предоставлении": 6435,
      "увеличения": 6436,
      "увеличить": 6437,
      "михаи": 6438,
      "процессо": 6439,
      "предполагалось": 6440,
      "подобного": 6441,
      "связана": 6442,
      "щегося": 6443,
      "андат": 6444,
      "практи": 6445,
      "общественно": 6446,
      "занимается": 6447,
      "нанес": 6448,
      "статьи": 6449,
      "пункт": 6450,
      "повышения": 6451,
      "количества": 6452,
      "позицию": 6453,
      "прекращении": 6454,
      "проводить": 6455,
      "поставки": 6456,
      "выпусти": 6457,
      "лезнов": 6458,
      "определить": 6459,
      "обвинение": 6460,
      "называют": 6461,
      "берегов": 6462,
      "информационной": 6463,
      "выплат": 6464,
      "зависимости": 6465,
      "ракетно": 6466,
      "законодательство": 6467,
      "спецслужба": 6468,
      "рубежом": 6469,
      "абду": 6470,
      "ожидает": 6471,
      "вернуться": 6472,
      "китайского": 6473,
      "таможенных": 6474,
      "взять": 6475,
      "следователей": 6476,
      "афган": 6477,
      "предложению": 6478,
      "запуска": 6479,
      "писатель": 6480,
      "адвоката": 6481,
      "ющимся": 6482,
      "задача": 6483,
      "совершено": 6484,
      "осуществляется": 6485,
      "ежеднев": 6486,
      "оставшихся": 6487,
      "сбоев": 6488,
      "хозя": 6489,
      "валюты": 6490,
      "восстановления": 6491,
      "декабре": 6492,
      "космического": 6493,
      "попытка": 6494,
      "попытке": 6495,
      "просьбе": 6496,
      "выставке": 6497,
      "хорошо": 6498,
      "одномандат": 6499,
      "полученных": 6500,
      "поступило": 6501,
      "подозрительных": 6502,
      "японских": 6503,
      "запада": 6504,
      "строительства": 6505,
      "ответственность": 6506,
      "ошибка": 6507,
      "вшуюся": 6508,
      "корея": 6509,
      "неизвестные": 6510,
      "исследований": 6511,
      "собственности": 6512,
      "объеме": 6513,
      "террористической": 6514,
      "телевидения": 6515,
      "телевидение": 6516,
      "десятков": 6517,
      "билл": 6518,
      "университет": 6519,
      "наркоти": 6520,
      "ницах": 6521,
      "приведет": 6522,
      "столько": 6523,
      "басаев": 6524,
      "объекты": 6525,
      "наличие": 6526,
      "позже": 6527,
      "памяти": 6528,
      "комбината": 6529,
      "контракт": 6530,
      "существующих": 6531,
      "совещания": 6532,
      "совещание": 6533,
      "полицейские": 6534,
      "контролиру": 6535,
      "подчеркивается": 6536,
      "солдаты": 6537,
      "today": 6538,
      "выявлено": 6539,
      "филип": 6540,
      "добычи": 6541,
      "гуманитарной": 6542,
      "введении": 6543,
      "international": 6544,
      "поезда": 6545,
      "записи": 6546,
      "отрицает": 6547,
      "персонала": 6548,
      "old": 6549,
      "повест": 6550,
      "владимиру": 6551,
      "флориды": 6552,
      "командующий": 6553,
      "опубликовала": 6554,
      "хозяйства": 6555,
      "рассмотрения": 6556,
      "азербайджана": 6557,
      "пошлины": 6558,
      "разговора": 6559,
      "возобновить": 6560,
      "ежегодно": 6561,
      "арбитражного": 6562,
      "миграционной": 6563,
      "ведутся": 6564,
      "судьбе": 6565,
      "референдума": 6566,
      "неожидан": 6567,
      "феврале": 6568,
      "килограммов": 6569,
      "finan": 6570,
      "учеб": 6571,
      "нижней": 6572,
      "обстоятельств": 6573,
      "гигант": 6574,
      "бактери": 6575,
      "чиновников": 6576,
      "благодаря": 6577,
      "соболезнов": 6578,
      "налогоплатель": 6579,
      "напоминает": 6580,
      "похоже": 6581,
      "потенциаль": 6582,
      "похитили": 6583,
      "компьюте": 6584,
      "адреса": 6585,
      "распространенном": 6586,
      "комбинат": 6587,
      "лагеря": 6588,
      "выделить": 6589,
      "ботлих": 6590,
      "португа": 6591,
      "эвакуации": 6592,
      "стихийного": 6593,
      "удовлетво": 6594,
      "савельев": 6595,
      "многочисленные": 6596,
      "ужесточ": 6597,
      "тяжелое": 6598,
      "психо": 6599,
      "бомбовые": 6600,
      "эдвардс": 6601,
      "world": 6602,
      "зданович": 6603,
      "удив": 6604,
      "москвичей": 6605,
      "впрочем": 6606,
      "квалифици": 6607,
      "orbiter": 6608,
      "'<": 6609,
      "bm": 6610,
      "bs": 6611,
      "cli": 6612,
      "dg": 6613,
      "di": 6614,
      "go": 6615,
      "ner": 6616,
      "афи": 6617,
      "вани": 6618,
      "ваний": 6619,
      "доби": 6620,
      "еги": 6621,
      "елена": 6622,
      "ио": 6623,
      "иден": 6624,
      "кн": 6625,
      "кво": 6626,
      "лова": 6627,
      "мг": 6628,
      "неров": 6629,
      "оце": 6630,
      "опыт": 6631,
      "оформ": 6632,
      "окрест": 6633,
      "пленных": 6634,
      "сдо": 6635,
      "сово": 6636,
      "сформи": 6637,
      "уфсб": 6638,
      "уяз": 6639,
      "цо": 6640,
      "цита": 6641,
      "цвет": 6642,
      "чке": 6643,
      "чное": 6644,
      "шер": 6645,
      "эль": 6646,
      "эсто": 6647,
      "енного": 6648,
      "енным": 6649,
      "реп": 6650,
      "рези": 6651,
      "ребен": 6652,
      "ремон": 6653,
      "рого": 6654,
      "ростов": 6655,
      "ноябре": 6656,
      "нопти": 6657,
      "коль": 6658,
      "ань": 6659,
      "антов": 6660,
      "антар": 6661,
      "ангель": 6662,
      "пони": 6663,
      "поте": 6664,
      "почи": 6665,
      "поправ": 6666,
      "потому": 6667,
      "ливан": 6668,
      "насилия": 6669,
      "насчиты": 6670,
      "льном": 6671,
      "мише": 6672,
      "волю": 6673,
      "лази": 6674,
      "нив": 6675,
      "толь": 6676,
      "тону": 6677,
      "общий": 6678,
      "какой": 6679,
      "какую": 6680,
      "затя": 6681,
      "киз": 6682,
      "дала": 6683,
      "нера": 6684,
      "неот": 6685,
      "нелега": 6686,
      "ложил": 6687,
      "вало": 6688,
      "василь": 6689,
      "левой": 6690,
      "деш": 6691,
      "дере": 6692,
      "сож": 6693,
      "содействие": 6694,
      "прос": 6695,
      "прогу": 6696,
      "проходят": 6697,
      "проходя": 6698,
      "прокоммен": 6699,
      "продемонстри": 6700,
      "мол": 6701,
      "море": 6702,
      "мого": 6703,
      "могиле": 6704,
      "достовер": 6705,
      "преем": 6706,
      "тема": 6707,
      "тими": 6708,
      "виенко": 6709,
      "чеш": 6710,
      "ческую": 6711,
      "мазу": 6712,
      "вывоз": 6713,
      "выстре": 6714,
      "выез": 6715,
      "выведен": 6716,
      "вызов": 6717,
      "вынес": 6718,
      "выхода": 6719,
      "выгля": 6720,
      "бок": 6721,
      "мемо": 6722,
      "вела": 6723,
      "ведо": 6724,
      "вечер": 6725,
      "сесси": 6726,
      "сект": 6727,
      "севере": 6728,
      "диверси": 6729,
      "часто": 6730,
      "прибо": 6731,
      "приход": 6732,
      "приграни": 6733,
      "пасов": 6734,
      "отрас": 6735,
      "отряда": 6736,
      "сара": 6737,
      "саентологи": 6738,
      "сувер": 6739,
      "судов": 6740,
      "сульман": 6741,
      "лят": 6742,
      "ляются": 6743,
      "гибд": 6744,
      "купи": 6745,
      "силовых": 6746,
      "синопти": 6747,
      "шиф": 6748,
      "хождение": 6749,
      "гаре": 6750,
      "бей": 6751,
      "странами": 6752,
      "подва": 6753,
      "чиком": 6754,
      "мусульман": 6755,
      "разре": 6756,
      "разрабаты": 6757,
      "няются": 6758,
      "шева": 6759,
      "теров": 6760,
      "конг": 6761,
      "ставки": 6762,
      "армия": 6763,
      "пик": 6764,
      "долг": 6765,
      "долги": 6766,
      "долгов": 6767,
      "гран": 6768,
      "жали": 6769,
      "жаков": 6770,
      "люж": 6771,
      "любы": 6772,
      "щается": 6773,
      "новым": 6774,
      "тельным": 6775,
      "переработ": 6776,
      "переведен": 6777,
      "перемены": 6778,
      "быкова": 6779,
      "баз": 6780,
      "баш": 6781,
      "тура": 6782,
      "био": 6783,
      "которыми": 6784,
      "слежи": 6785,
      "близо": 6786,
      "перене": 6787,
      "соблю": 6788,
      "собственных": 6789,
      "формы": 6790,
      "спек": 6791,
      "гексо": 6792,
      "акци": 6793,
      "центров": 6794,
      "альный": 6795,
      "министру": 6796,
      "следственных": 6797,
      "никакого": 6798,
      "правительстве": 6799,
      "роваться": 6800,
      "войне": 6801,
      "осмо": 6802,
      "основой": 6803,
      "решений": 6804,
      "стрель": 6805,
      "строя": 6806,
      "утрен": 6807,
      "получает": 6808,
      "начались": 6809,
      "вуд": 6810,
      "доллар": 6811,
      "деть": 6812,
      "платить": 6813,
      "ложения": 6814,
      "ложить": 6815,
      "частей": 6816,
      "коржаков": 6817,
      "партию": 6818,
      "друг": 6819,
      "крым": 6820,
      "государство": 6821,
      "рассказа": 6822,
      "хим": 6823,
      "хина": 6824,
      "америка": 6825,
      "самое": 6826,
      "самостоя": 6827,
      "прессе": 6828,
      "наруш": 6829,
      "стороне": 6830,
      "принятие": 6831,
      "газпром": 6832,
      "int": 6833,
      "повле": 6834,
      "междугород": 6835,
      "операционной": 6836,
      "общество": 6837,
      "последней": 6838,
      "готовность": 6839,
      "мнение": 6840,
      "шено": 6841,
      "вопроса": 6842,
      "штате": 6843,
      "дым": 6844,
      "правопорядка": 6845,
      "результатам": 6846,
      "гражданам": 6847,
      "взрывных": 6848,
      "транш": 6849,
      "организацию": 6850,
      "министерством": 6851,
      "главная": 6852,
      "берлина": 6853,
      "сын": 6854,
      "тинг": 6855,
      "закончи": 6856,
      "милицию": 6857,
      "обращение": 6858,
      "сообщении": 6859,
      "емым": 6860,
      "чьи": 6861,
      "случаи": 6862,
      "фабри": 6863,
      "этими": 6864,
      "энерги": 6865,
      "двусторон": 6866,
      "рованного": 6867,
      "состоялось": 6868,
      "восточно": 6869,
      "настоящему": 6870,
      "контролю": 6871,
      "проведет": 6872,
      "боевиками": 6873,
      "открытии": 6874,
      "оборот": 6875,
      "соответствует": 6876,
      "передало": 6877,
      "минске": 6878,
      "счету": 6879,
      "чеченские": 6880,
      "чеченцев": 6881,
      "столицу": 6882,
      "ash": 6883,
      "полагает": 6884,
      "продолжаться": 6885,
      "намерении": 6886,
      "образова": 6887,
      "добав": 6888,
      "этап": 6889,
      "мировых": 6890,
      "секретные": 6891,
      "русских": 6892,
      "борьба": 6893,
      "правоохранительными": 6894,
      "исключительно": 6895,
      "законам": 6896,
      "компьютерные": 6897,
      "прокуратуре": 6898,
      "прокуратуру": 6899,
      "обязаны": 6900,
      "расследовании": 6901,
      "герран": 6902,
      "бург": 6903,
      "итоге": 6904,
      "вооружений": 6905,
      "северного": 6906,
      "mac": 6907,
      "подготовка": 6908,
      "подготовить": 6909,
      "специальные": 6910,
      "специальный": 6911,
      "журналистами": 6912,
      "задержания": 6913,
      "назначении": 6914,
      "действии": 6915,
      "правил": 6916,
      "подтвержден": 6917,
      "позволи": 6918,
      "счетам": 6919,
      "опасения": 6920,
      "экспери": 6921,
      "семье": 6922,
      "семья": 6923,
      "подобная": 6924,
      "автомобиля": 6925,
      "серьезных": 6926,
      "щиеся": 6927,
      "размещения": 6928,
      "временного": 6929,
      "политика": 6930,
      "политиков": 6931,
      "заниматься": 6932,
      "дороге": 6933,
      "пытается": 6934,
      "пытались": 6935,
      "повышен": 6936,
      "массового": 6937,
      "проводятся": 6938,
      "окружа": 6939,
      "поставить": 6940,
      "вызвать": 6941,
      "йорка": 6942,
      "угрозу": 6943,
      "оперативного": 6944,
      "обвинению": 6945,
      "обвинений": 6946,
      "противостоя": 6947,
      "противоракетной": 6948,
      "коммерции": 6949,
      "информационных": 6950,
      "информационное": 6951,
      "обнаружена": 6952,
      "намерено": 6953,
      "deo": 6954,
      "бензина": 6955,
      "лится": 6956,
      "изменить": 6957,
      "активных": 6958,
      "активное": 6959,
      "волков": 6960,
      "ракетных": 6961,
      "законодательством": 6962,
      "вдвое": 6963,
      "кавказа": 6964,
      "развитию": 6965,
      "кредитных": 6966,
      "остановить": 6967,
      "планеты": 6968,
      "транспорте": 6969,
      "третьем": 6970,
      "лежащих": 6971,
      "уничтожено": 6972,
      "отечества": 6973,
      "незаконным": 6974,
      "таможенные": 6975,
      "балла": 6976,
      "взяты": 6977,
      "довольно": 6978,
      "объявили": 6979,
      "меньше": 6980,
      "подает": 6981,
      "огнем": 6982,
      "различные": 6983,
      "мови": 6984,
      "легко": 6985,
      "демонстран": 6986,
      "характера": 6987,
      "предотвращению": 6988,
      "помещения": 6989,
      "гарантии": 6990,
      "внешней": 6991,
      "распространение": 6992,
      "недавних": 6993,
      "мощных": 6994,
      "исполнительной": 6995,
      "всп": 6996,
      "осуществлять": 6997,
      "находящийся": 6998,
      "проведенного": 6999,
      "соответствующее": 7000,
      "выеха": 7001,
      "ведущие": 7002,
      "джек": 7003,
      "решила": 7004,
      "выставки": 7005,
      "бесплат": 7006,
      "байкону": 7007,
      "сергеев": 7008,
      "доставлен": 7009,
      "беспокой": 7010,
      "демократии": 7011,
      "вынужденных": 7012,
      "применения": 7013,
      "налоговых": 7014,
      "рассматривается": 7015,
      "убийство": 7016,
      "изъяты": 7017,
      "захватили": 7018,
      "строительство": 7019,
      "платежи": 7020,
      "платежей": 7021,
      "вшееся": 7022,
      "задержанных": 7023,
      "предупрежда": 7024,
      "интересам": 7025,
      "калинин": 7026,
      "допуска": 7027,
      "отсутствие": 7028,
      "анатолия": 7029,
      "публикацию": 7030,
      "другое": 7031,
      "преступлениями": 7032,
      "черкесской": 7033,
      "финансирование": 7034,
      "инициатив": 7035,
      "склады": 7036,
      "вертолета": 7037,
      "аэрофлот": 7038,
      "вклады": 7039,
      "молоде": 7040,
      "телевидению": 7041,
      "гражданина": 7042,
      "поручено": 7043,
      "операциях": 7044,
      "масхадовым": 7045,
      "появление": 7046,
      "замминистра": 7047,
      "татарстан": 7048,
      "мексике": 7049,
      "предлагает": 7050,
      "поддерживает": 7051,
      "победу": 7052,
      "приштине": 7053,
      "контрактов": 7054,
      "ape": 7055,
      "app": 7056,
      "возрасте": 7057,
      "полицейских": 7058,
      "большого": 7059,
      "областной": 7060,
      "пакистане": 7061,
      "начинается": 7062,
      "подчеркивает": 7063,
      "матвиенко": 7064,
      "приостановлено": 7065,
      "властями": 7066,
      "конец": 7067,
      "освобождены": 7068,
      "интересы": 7069,
      "потеряли": 7070,
      "воздушных": 7071,
      "сетевой": 7072,
      "поездов": 7073,
      "симво": 7074,
      "архангель": 7075,
      "пентагон": 7076,
      "основатель": 7077,
      "компенсации": 7078,
      "испытаний": 7079,
      "исламских": 7080,
      "рассмотрение": 7081,
      "побережья": 7082,
      "кабинета": 7083,
      "отказываются": 7084,
      "пункте": 7085,
      "девяти": 7086,
      "индекс": 7087,
      "батурина": 7088,
      "денежных": 7089,
      "кризиса": 7090,
      "предъявлено": 7091,
      "вводится": 7092,
      "югославии": 7093,
      "континген": 7094,
      "февраля": 7095,
      "столкнов": 7096,
      "столкновения": 7097,
      "яблоко": 7098,
      "магомед": 7099,
      "boe": 7100,
      "противоречит": 7101,
      "госпитализированы": 7102,
      "фракции": 7103,
      "иногород": 7104,
      "урегулирования": 7105,
      "показания": 7106,
      "перевозок": 7107,
      "вячеслав": 7108,
      "боеприпасов": 7109,
      "джеймс": 7110,
      "задорнов": 7111,
      "стабиль": 7112,
      "антитеррори": 7113,
      "вмеша": 7114,
      "вайн": 7115,
      "индустрии": 7116,
      "расходы": 7117,
      "протяжении": 7118,
      "хакеров": 7119,
      "надзора": 7120,
      "video": 7121,
      "воспольз": 7122,
      "мушарраф": 7123,
      "./$<": 7124,
      "крюгерран": 7125,
      "диагно": 7126,
      "сапги": 7127,
      "financial": 7128,
      "иденти": 7129,
      "кнр": 7130,
      "совокуп": 7131,
      "уязви": 7132,
      "антаркти": 7133,
      "починок": 7134,
      "мазута": 7135,
      "гибдд": 7136,
      "близости": 7137,
      "00": 7138,
      "199": 7139,
      "ek": 7140,
      "g4": 7141,
      "gold": 7142,
      "kfor": 7143,
      "op": 7144,
      "su": 7145,
      "ta": 7146,
      "via": 7147,
      "аи": 7148,
      "апе": 7149,
      "атак": 7150,
      "аген": 7151,
      "аслан": 7152,
      "ассам": 7153,
      "бэ": 7154,
      "бя": 7155,
      "бет": 7156,
      "ваны": 7157,
      "введения": 7158,
      "ввести": 7159,
      "гко": 7160,
      "гова": 7161,
      "дэ": 7162,
      "дании": 7163,
      "ео": 7164,
      "ему": 7165,
      "евым": 7166,
      "зен": 7167,
      "згла": 7168,
      "илю": 7169,
      "кле": 7170,
      "кви": 7171,
      "лля": 7172,
      "мана": 7173,
      "мюн": 7174,
      "нг": 7175,
      "ора": 7176,
      "оде": 7177,
      "осу": 7178,
      "окра": 7179,
      "окаж": 7180,
      "ограб": 7181,
      "пта": 7182,
      "рс": 7183,
      "сю": 7184,
      "сна": 7185,
      "снима": 7186,
      "труп": 7187,
      "ума": 7188,
      "уста": 7189,
      "устра": 7190,
      "уще": 7191,
      "учения": 7192,
      "устин": 7193,
      "чности": 7194,
      "чными": 7195,
      "шор": 7196,
      "щания": 7197,
      "эфир": 7198,
      "юар": 7199,
      "ящей": 7200,
      "ование": 7201,
      "рада": 7202,
      "раскры": 7203,
      "реке": 7204,
      "носить": 7205,
      "кофи": 7206,
      "коления": 7207,
      "посы": 7208,
      "посты": 7209,
      "понима": 7210,
      "посла": 7211,
      "подать": 7212,
      "побед": 7213,
      "подели": 7214,
      "попал": 7215,
      "поиска": 7216,
      "потребуется": 7217,
      "поиски": 7218,
      "поколения": 7219,
      "гора": 7220,
      "готова": 7221,
      "горизбир": 7222,
      "лимо": 7223,
      "лиши": 7224,
      "лишен": 7225,
      "лихора": 7226,
      "награ": 7227,
      "лье": 7228,
      "льской": 7229,
      "нице": 7230,
      "никого": 7231,
      "тони": 7232,
      "томас": 7233,
      "тогда": 7234,
      "обсуд": 7235,
      "общины": 7236,
      "касс": 7237,
      "касса": 7238,
      "калюж": 7239,
      "зад": 7240,
      "рина": 7241,
      "риев": 7242,
      "кина": 7243,
      "киев": 7244,
      "кибер": 7245,
      "циональ": 7246,
      "ципли": 7247,
      "дари": 7248,
      "нельз": 7249,
      "непода": 7250,
      "таб": 7251,
      "лод": 7252,
      "лос": 7253,
      "ваго": 7254,
      "вающего": 7255,
      "сой": 7256,
      "созна": 7257,
      "сосре": 7258,
      "сорат": 7259,
      "руются": 7260,
      "моде": 7261,
      "мораль": 7262,
      "дочь": 7263,
      "преимуще": 7264,
      "тел": 7265,
      "тины": 7266,
      "тиров": 7267,
      "вия": 7268,
      "чести": 7269,
      "выми": 7270,
      "выработ": 7271,
      "выдвига": 7272,
      "бого": 7273,
      "боин": 7274,
      "века": 7275,
      "сева": 7276,
      "селе": 7277,
      "дино": 7278,
      "дисси": 7279,
      "дились": 7280,
      "дианы": 7281,
      "часы": 7282,
      "прием": 7283,
      "прикры": 7284,
      "пришло": 7285,
      "присоедин": 7286,
      "прилега": 7287,
      "павла": 7288,
      "павиль": 7289,
      "рыв": 7290,
      "отделении": 7291,
      "сал": 7292,
      "кут": 7293,
      "курен": 7294,
      "сило": 7295,
      "лун": 7296,
      "хол": 7297,
      "хождения": 7298,
      "правед": 7299,
      "изуча": 7300,
      "гай": 7301,
      "гал": 7302,
      "гаче": 7303,
      "бели": 7304,
      "беседе": 7305,
      "странам": 7306,
      "зился": 7307,
      "поднима": 7308,
      "подсчет": 7309,
      "чики": 7310,
      "муха": 7311,
      "разли": 7312,
      "разда": 7313,
      "развер": 7314,
      "разгла": 7315,
      "разби": 7316,
      "разобла": 7317,
      "разрешение": 7318,
      "онной": 7319,
      "ленная": 7320,
      "шествен": 7321,
      "конкурен": 7322,
      "мыс": 7323,
      "мыми": 7324,
      "жилом": 7325,
      "армей": 7326,
      "цедент": 7327,
      "целост": 7328,
      "буква": 7329,
      "ствами": 7330,
      "любом": 7331,
      "аниягу": 7332,
      "оджа": 7333,
      "перечис": 7334,
      "бав": 7335,
      "бара": 7336,
      "бири": 7337,
      "ственным": 7338,
      "компет": 7339,
      "банов": 7340,
      "канад": 7341,
      "новостей": 7342,
      "новолак": 7343,
      "форму": 7344,
      "метр": 7345,
      "геро": 7346,
      "геор": 7347,
      "акты": 7348,
      "сообщалось": 7349,
      "действует": 7350,
      "знает": 7351,
      "торже": 7352,
      "ослож": 7353,
      "взрыво": 7354,
      "взрыве": 7355,
      "взрыву": 7356,
      "взрывом": 7357,
      "серд": 7358,
      "стреб": 7359,
      "нейших": 7360,
      "ветра": 7361,
      "начало": 7362,
      "началось": 7363,
      "тический": 7364,
      "военная": 7365,
      "произво": 7366,
      "регионы": 7367,
      "erg": 7368,
      "ведение": 7369,
      "авторы": 7370,
      "америки": 7371,
      "пресса": 7372,
      "порт": 7373,
      "сторож": 7374,
      "принята": 7375,
      "федеральная": 7376,
      "нетаниягу": 7377,
      "средне": 7378,
      "террориста": 7379,
      "террористам": 7380,
      "операцию": 7381,
      "облага": 7382,
      "ответил": 7383,
      "международную": 7384,
      "возможного": 7385,
      "считается": 7386,
      "группу": 7387,
      "основы": 7388,
      "правозащит": 7389,
      "джон": 7390,
      "планы": 7391,
      "единства": 7392,
      "обой": 7393,
      "офиса": 7394,
      "офице": 7395,
      "организацией": 7396,
      "организаторы": 7397,
      "щенные": 7398,
      "австри": 7399,
      "главно": 7400,
      "темпе": 7401,
      "государственным": 7402,
      "президентских": 7403,
      "обратиться": 7404,
      "срочно": 7405,
      "личности": 7406,
      "встречу": 7407,
      "авиали": 7408,
      "санкциони": 7409,
      "экви": 7410,
      "факты": 7411,
      "лондона": 7412,
      "мэром": 7413,
      "мэрии": 7414,
      "ельцину": 7415,
      "марта": 7416,
      "городских": 7417,
      "городке": 7418,
      "обнаружи": 7419,
      "преступники": 7420,
      "официальное": 7421,
      "радиов": 7422,
      "месяце": 7423,
      "месяцы": 7424,
      "контролем": 7425,
      "сбро": 7426,
      "открыл": 7427,
      "распоряд": 7428,
      "подоро": 7429,
      "политические": 7430,
      "продолжается": 7431,
      "установить": 7432,
      "установлено": 7433,
      "установили": 7434,
      "заявлением": 7435,
      "домах": 7436,
      "домаш": 7437,
      "colt": 7438,
      "тена": 7439,
      "положении": 7440,
      "законопроекта": 7441,
      "пенсии": 7442,
      "карточки": 7443,
      "давление": 7444,
      "необходимое": 7445,
      "беженцы": 7446,
      "зера": 7447,
      "британского": 7448,
      "mate": 7449,
      "специальным": 7450,
      "специальная": 7451,
      "петров": 7452,
      "высоте": 7453,
      "сайтов": 7454,
      "объединений": 7455,
      "оказался": 7456,
      "лидеры": 7457,
      "иностранные": 7458,
      "иностранным": 7459,
      "дальнего": 7460,
      "увеличение": 7461,
      "комитете": 7462,
      "заключенных": 7463,
      "происшед": 7464,
      "уголовной": 7465,
      "провода": 7466,
      "провозгла": 7467,
      "банковской": 7468,
      "банковские": 7469,
      "подозре": 7470,
      "опасность": 7471,
      "михал": 7472,
      "теракт": 7473,
      "связям": 7474,
      "серьезной": 7475,
      "усиленный": 7476,
      "следующим": 7477,
      "использованы": 7478,
      "западном": 7479,
      "европейский": 7480,
      "украден": 7481,
      "повысить": 7482,
      "крупнейшая": 7483,
      "округу": 7484,
      "хватает": 7485,
      "beers": 7486,
      "парамет": 7487,
      "обсуждение": 7488,
      "берегу": 7489,
      "информационного": 7490,
      "информационные": 7491,
      "литвы": 7492,
      "выплате": 7493,
      "гейтс": 7494,
      "способности": 7495,
      "запрещении": 7496,
      "путину": 7497,
      "нынешний": 7498,
      "постановлением": 7499,
      "транспорт": 7500,
      "уничтожение": 7501,
      "великобритания": 7502,
      "надеются": 7503,
      "незаконно": 7504,
      "незаконных": 7505,
      "следователь": 7506,
      "уровня": 7507,
      "комплек": 7508,
      "объявлены": 7509,
      "терроризма": 7510,
      "экономического": 7511,
      "экономическими": 7512,
      "устройств": 7513,
      "дополнительных": 7514,
      "лучшее": 7515,
      "махина": 7516,
      "предотвращения": 7517,
      "чрезвычайное": 7518,
      "золото": 7519,
      "внешне": 7520,
      "внешнего": 7521,
      "дратных": 7522,
      "дмитрия": 7523,
      "скандалом": 7524,
      "распространения": 7525,
      "вовле": 7526,
      "задачей": 7527,
      "зарегистрировано": 7528,
      "мощный": 7529,
      "сахара": 7530,
      "бюджетных": 7531,
      "бюджетного": 7532,
      "исполнительный": 7533,
      "отставки": 7534,
      "tions": 7535,
      "формирования": 7536,
      "сбои": 7537,
      "проведена": 7538,
      "аварий": 7539,
      "николая": 7540,
      "заводе": 7541,
      "беллази": 7542,
      "космической": 7543,
      "катастрофа": 7544,
      "выяснить": 7545,
      "беспоко": 7546,
      "подразделениями": 7547,
      "письме": 7548,
      "обратились": 7549,
      "космос": 7550,
      "покинули": 7551,
      "охрана": 7552,
      "ученых": 7553,
      "выступить": 7554,
      "строительстве": 7555,
      "предупреждение": 7556,
      "ущерба": 7557,
      "регуляр": 7558,
      "заболеваний": 7559,
      "составили": 7560,
      "семенов": 7561,
      "судебного": 7562,
      "спутников": 7563,
      "индонезийской": 7564,
      "индонезийских": 7565,
      "hop": 7566,
      "черкесска": 7567,
      "черкесске": 7568,
      "атаки": 7569,
      "концерн": 7570,
      "дальнейшем": 7571,
      "имуществе": 7572,
      "цифров": 7573,
      "присутствие": 7574,
      "палестинцев": 7575,
      "наблюдатели": 7576,
      "экстремистов": 7577,
      "молоды": 7578,
      "откло": 7579,
      "эпицентр": 7580,
      "фильма": 7581,
      "половиной": 7582,
      "резерв": 7583,
      "увеличивается": 7584,
      "облизбир": 7585,
      "мексикан": 7586,
      "проблемам": 7587,
      "арестованы": 7588,
      "событиями": 7589,
      "найдены": 7590,
      "григо": 7591,
      "запрос": 7592,
      "южноафрикан": 7593,
      "особое": 7594,
      "выполнять": 7595,
      "наступлением": 7596,
      "областях": 7597,
      "белорусской": 7598,
      "категории": 7599,
      "талибан": 7600,
      "подземных": 7601,
      "йоркской": 7602,
      "академи": 7603,
      "аппарата": 7604,
      "полномочия": 7605,
      "гуманитарного": 7606,
      "алексе": 7607,
      "соединенных": 7608,
      "манифе": 7609,
      "пленар": 7610,
      "услуг": 7611,
      "обстановка": 7612,
      "обстановки": 7613,
      "валентин": 7614,
      "валентина": 7615,
      "доходы": 7616,
      "архите": 7617,
      "повреждений": 7618,
      "вокзале": 7619,
      "стратегического": 7620,
      "iii": 7621,
      "араб": 7622,
      "атомной": 7623,
      "членам": 7624,
      "членами": 7625,
      "этниче": 7626,
      "машину": 7627,
      "париж": 7628,
      "широко": 7629,
      "родственников": 7630,
      "степень": 7631,
      "азербайджан": 7632,
      "опрошенных": 7633,
      "панику": 7634,
      "наказание": 7635,
      "причастность": 7636,
      "болезнь": 7637,
      "web": 7638,
      "week": 7639,
      "слияние": 7640,
      "наводнение": 7641,
      "прогремел": 7642,
      "сигнал": 7643,
      "очевидно": 7644,
      "кризис": 7645,
      "слушаниях": 7646,
      "схема": 7647,
      "ностями": 7648,
      "таджикистана": 7649,
      "motor": 7650,
      "погранич": 7651,
      "алмаз": 7652,
      "ikea": 7653,
      "декларации": 7654,
      "видимо": 7655,
      "магоме": 7656,
      "приговорен": 7657,
      "супруга": 7658,
      "linux": 7659,
      "именем": 7660,
      "погашения": 7661,
      "митроф": 7662,
      "вдоль": 7663,
      "игры": 7664,
      "понять": 7665,
      "отряды": 7666,
      "предвыборной": 7667,
      "возросла": 7668,
      "открытое": 7669,
      "sunday": 7670,
      "пожара": 7671,
      "дисципли": 7672,
      "газету": 7673,
      "вариант": 7674,
      "тихоокеан": 7675,
      "стабилизации": 7676,
      "холеры": 7677,
      "животных": 7678,
      "хасавюртов": 7679,
      "собинбанка": 7680,
      "агрессии": 7681,
      "консультации": 7682,
      "резолюции": 7683,
      "сопротивления": 7684,
      "достоин": 7685,
      "идти": 7686,
      "кубических": 7687,
      "явлинский": 7688,
      "исламистов": 7689,
      "жертвам": 7690,
      "аудитор": 7691,
      "ленинградской": 7692,
      "татья": 7693,
      "интенсив": 7694,
      "разыски": 7695,
      "людмила": 7696,
      "беспрецедент": 7697,
      "субъе": 7698,
      "милошевича": 7699,
      "магистра": 7700,
      "ботлихском": 7701,
      "climate": 7702,
      "прокомментировал": 7703,
      "приходится": 7704,
      "apple": 7705,
      "контингента": 7706,
      "boeing": 7707,
      "viacom": 7708,
      "апелля": 7709,
      "ассамбле": 7710,
      "лихорад": 7711,
      "нельзя": 7712,
      "неподалеку": 7713,
      "сосредо": 7714,
      "буквально": 7715,
      "\")": 7716,
      "\"),": 7717,
      ",<": 7718,
      "bre": 7719,
      "fran": 7720,
      "gen": 7721,
      "ited": 7722,
      "ibm": 7723,
      "pan": 7724,
      "tner": 7725,
      "whi": 7726,
      "ами": 7727,
      "бк": 7728,
      "бь": 7729,
      "вг": 7730,
      "вп": 7731,
      "вбли": 7732,
      "внима": 7733,
      "глоб": 7734,
      "дит": 7735,
      "дров": 7736,
      "двой": 7737,
      "дых": 7738,
      "ец": 7739,
      "ежене": 7740,
      "жителя": 7741,
      "зве": 7742,
      "зании": 7743,
      "змом": 7744,
      "идея": 7745,
      "йе": 7746,
      "крова": 7747,
      "кндр": 7748,
      "кцб": 7749,
      "кстати": 7750,
      "лка": 7751,
      "ллет": 7752,
      "лых": 7753,
      "лэй": 7754,
      "ленты": 7755,
      "нта": 7756,
      "нены": 7757,
      "оре": 7758,
      "оско": 7759,
      "оправ": 7760,
      "очист": 7761,
      "офф": 7762,
      "ощу": 7763,
      "пления": 7764,
      "рной": 7765,
      "ртр": 7766,
      "рбк": 7767,
      "сном": 7768,
      "сним": 7769,
      "сюж": 7770,
      "сначала": 7771,
      "твор": 7772,
      "уг": 7773,
      "ужа": 7774,
      "угля": 7775,
      "указом": 7776,
      "фана": 7777,
      "фору": 7778,
      "фкцб": 7779,
      "цит": 7780,
      "щением": 7781,
      "ьми": 7782,
      "юг": 7783,
      "яро": 7784,
      "стр": 7785,
      "раис": 7786,
      "реки": 7787,
      "ногла": 7788,
      "ночет": 7789,
      "нополь": 7790,
      "коали": 7791,
      "антимо": 7792,
      "послу": 7793,
      "покры": 7794,
      "поможет": 7795,
      "пообеща": 7796,
      "постепен": 7797,
      "гости": 7798,
      "горы": 7799,
      "гораз": 7800,
      "литов": 7801,
      "линия": 7802,
      "лицами": 7803,
      "надо": 7804,
      "нать": 7805,
      "наша": 7806,
      "наем": 7807,
      "настро": 7808,
      "налоги": 7809,
      "нашим": 7810,
      "нападение": 7811,
      "настолько": 7812,
      "льную": 7813,
      "льгот": 7814,
      "мисс": 7815,
      "токио": 7816,
      "обсе": 7817,
      "обследов": 7818,
      "обнародов": 7819,
      "казы": 7820,
      "заб": 7821,
      "зах": 7822,
      "зара": 7823,
      "замо": 7824,
      "затоп": 7825,
      "забро": 7826,
      "задейств": 7827,
      "задержи": 7828,
      "закупа": 7829,
      "загоре": 7830,
      "циско": 7831,
      "дат": 7832,
      "даты": 7833,
      "неу": 7834,
      "непре": 7835,
      "недейств": 7836,
      "неясно": 7837,
      "немало": 7838,
      "таков": 7839,
      "сян": 7840,
      "лок": 7841,
      "лока": 7842,
      "вано": 7843,
      "васи": 7844,
      "вающей": 7845,
      "вакци": 7846,
      "деше": 7847,
      "дефи": 7848,
      "депоз": 7849,
      "соч": 7850,
      "соли": 7851,
      "соци": 7852,
      "соору": 7853,
      "проф": 7854,
      "прома": 7855,
      "пройти": 7856,
      "проходить": 7857,
      "молеку": 7858,
      "можем": 7859,
      "доле": 7860,
      "доже": 7861,
      "домой": 7862,
      "прер": 7863,
      "пределами": 7864,
      "теми": 7865,
      "тепер": 7866,
      "тик": 7867,
      "тиков": 7868,
      "вир": 7869,
      "вина": 7870,
      "визи": 7871,
      "винова": 7872,
      "вибри": 7873,
      "скорой": 7874,
      "чест": 7875,
      "маша": 7876,
      "выру": 7877,
      "вылет": 7878,
      "выклю": 7879,
      "высказал": 7880,
      "вышед": 7881,
      "выкуп": 7882,
      "бои": 7883,
      "мега": 7884,
      "мерами": 7885,
      "стат": 7886,
      "вей": 7887,
      "сем": 7888,
      "семер": 7889,
      "секун": 7890,
      "диск": 7891,
      "дизель": 7892,
      "приста": 7893,
      "призывает": 7894,
      "ителю": 7895,
      "думе": 7896,
      "отступ": 7897,
      "откро": 7898,
      "отверг": 7899,
      "отложен": 7900,
      "отрав": 7901,
      "отреаги": 7902,
      "ответа": 7903,
      "отделение": 7904,
      "отслежи": 7905,
      "пеш": 7906,
      "сквер": 7907,
      "сахар": 7908,
      "ляли": 7909,
      "лятся": 7910,
      "щина": 7911,
      "гий": 7912,
      "сиан": 7913,
      "шил": 7914,
      "холод": 7915,
      "команда": 7916,
      "избир": 7917,
      "издания": 7918,
      "ганом": 7919,
      "бег": 7920,
      "белый": 7921,
      "подмосков": 7922,
      "рядов": 7923,
      "ряды": 7924,
      "рязани": 7925,
      "муф": 7926,
      "разным": 7927,
      "развя": 7928,
      "разговор": 7929,
      "тым": 7930,
      "нять": 7931,
      "няют": 7932,
      "онных": 7933,
      "онлай": 7934,
      "ленка": 7935,
      "ленными": 7936,
      "дентом": 7937,
      "денциаль": 7938,
      "жилой": 7939,
      "ковский": 7940,
      "ковые": 7941,
      "аргу": 7942,
      "писы": 7943,
      "пиночет": 7944,
      "бух": 7945,
      "бука": 7946,
      "булга": 7947,
      "шах": 7948,
      "шаги": 7949,
      "шают": 7950,
      "жается": 7951,
      "мерседе": 7952,
      "один": 7953,
      "гладеш": 7954,
      "щают": 7955,
      "перебро": 7956,
      "переверну": 7957,
      "перерабаты": 7958,
      "перестрел": 7959,
      "перерегистрация": 7960,
      "кем": 7961,
      "бам": 7962,
      "бат": 7963,
      "бата": 7964,
      "возму": 7965,
      "возника": 7966,
      "летие": 7967,
      "российскому": 7968,
      "бангладеш": 7969,
      "лейбори": 7970,
      "хаб": 7971,
      "годовой": 7972,
      "спеку": 7973,
      "метео": 7974,
      "взлет": 7975,
      "акта": 7976,
      "редсто": 7977,
      "знаю": 7978,
      "знать": 7979,
      "зону": 7980,
      "черного": 7981,
      "никакой": 7982,
      "осведом": 7983,
      "стремя": 7984,
      "водитель": 7985,
      "водителя": 7986,
      "утся": 7987,
      "получит": 7988,
      "ционную": 7989,
      "тические": 7990,
      "плату": 7991,
      "телеканала": 7992,
      "телерадиов": 7993,
      "большим": 7994,
      "парти": 7995,
      "парков": 7996,
      "пыток": 7997,
      "мьян": 7998,
      "ero": 7999
    },
    "merges": [
      [
        "с",
        "т"
      ],
      [
        "е",
        "н"
      ],
      [
        "о",
        "в"
      ],
      [
        "р",
        "а"
      ],
      [
        "р",
        "е"
      ],
      [
        "р",
        "о"
      ],
      [
        "н",
        "о"
      ],
      [
        "к",
        "о"
      ],
      [
        "а",
        "н"
      ],
      [
        "п",
        "о"
      ],
      [
        "г",
        "о"
      ],
      [
        "л",
        "и"
      ],
      [
        "е",
        "р"
      ],
      [
        "н",
        "а"
      ],
      [
        "е",
        "т"
      ],
      [
        "н",
        "ы"
      ],
      [
        "л",
        "ь"
      ],
      [
        "и",
        "т"
      ],
      [
        "м",
        "и"
      ],
      [
        "ен",
        "и"
      ],
      [
        "в",
        "о"
      ],
      [
        "л",
        "а"
      ],
      [
        "н",
        "и"
      ],
      [
        "т",
        "о"
      ],
      [
        "о",
        "б"
      ],
      [
        "к",
        "а"
      ],
      [
        "з",
        "а"
      ],
      [
        "р",
        "и"
      ],
      [
        "к",
        "и"
      ],
      [
        "N",
        "U"
      ],
      [
        "NU",
        "M"
      ],
      [
        "ц",
        "и"
      ],
      [
        "д",
        "а"
      ],
      [
        "н",
        "е"
      ],
      [
        "т",
        "а"
      ],
      [
        "с",
        "я"
      ],
      [
        "л",
        "о"
      ],
      [
        "в",
        "а"
      ],
      [
        "л",
        "е"
      ],
      [
        "д",
        "е"
      ],
      [
        "с",
        "о"
      ],
      [
        "р",
        "у"
      ],
      [
        "п",
        "ро"
      ],
      [
        "с",
        "с"
      ],
      [
        "м",
        "о"
      ],
      [
        "д",
        "о"
      ],
      [
        "п",
        "ре"
      ],
      [
        "т",
        "е"
      ],
      [
        "т",
        "и"
      ],
      [
        "ан",
        "и"
      ],
      [
        "в",
        "и"
      ],
      [
        "с",
        "ко"
      ],
      [
        "ч",
        "е"
      ],
      [
        "м",
        "а"
      ],
      [
        "в",
        "ы"
      ],
      [
        "б",
        "о"
      ],
      [
        "и",
        "н"
      ],
      [
        "м",
        "е"
      ],
      [
        "р",
        "ов"
      ],
      [
        "ст",
        "а"
      ],
      [
        "ст",
        "и"
      ],
      [
        "в",
        "е"
      ],
      [
        "с",
        "е"
      ],
      [
        "с",
        "ки"
      ],
      [
        "д",
        "и"
      ],
      [
        "ч",
        "а"
      ],
      [
        "ны",
        "х"
      ],
      [
        "п",
        "ри"
      ],
      [
        "т",
        "ь"
      ],
      [
        "п",
        "а"
      ],
      [
        "р",
        "ы"
      ],
      [
        "ени",
        "я"
      ],
      [
        "ит",
        "е"
      ],
      [
        "д",
        "у"
      ],
      [
        "о",
        "т"
      ],
      [
        "п",
        "е"
      ],
      [
        "но",
        "й"
      ],
      [
        "ст",
        "о"
      ],
      [
        "с",
        "к"
      ],
      [
        "сс",
        "и"
      ],
      [
        "ов",
        "о"
      ],
      [
        "с",
        "а"
      ],
      [
        "но",
        "го"
      ],
      [
        "ени",
        "е"
      ],
      [
        "с",
        "у"
      ],
      [
        "ци",
        "и"
      ],
      [
        "ен",
        "т"
      ],
      [
        "л",
        "я"
      ],
      [
        "щ",
        "и"
      ],
      [
        "ст",
        "в"
      ],
      [
        "н",
        "у"
      ],
      [
        "г",
        "и"
      ],
      [
        "к",
        "у"
      ],
      [
        "ов",
        "а"
      ],
      [
        "ро",
        "сси"
      ],
      [
        "с",
        "и"
      ],
      [
        "л",
        "у"
      ],
      [
        "ш",
        "и"
      ],
      [
        "х",
        "о"
      ],
      [
        "п",
        "ра"
      ],
      [
        "ко",
        "м"
      ],
      [
        "и",
        "з"
      ],
      [
        "г",
        "а"
      ],
      [
        "ю",
        "т"
      ],
      [
        "б",
        "е"
      ],
      [
        "ны",
        "е"
      ],
      [
        "ст",
        "ра"
      ],
      [
        "с",
        "ь"
      ],
      [
        "о",
        "р"
      ],
      [
        "пре",
        "д"
      ],
      [
        "ите",
        "ль"
      ],
      [
        "з",
        "и"
      ],
      [
        "п",
        "у"
      ],
      [
        "по",
        "д"
      ],
      [
        "ч",
        "и"
      ],
      [
        "р",
        "я"
      ],
      [
        "м",
        "у"
      ],
      [
        "ра",
        "з"
      ],
      [
        "т",
        "ы"
      ],
      [
        "со",
        "об"
      ],
      [
        "н",
        "я"
      ],
      [
        "о",
        "н"
      ],
      [
        "л",
        "ен"
      ],
      [
        "ш",
        "е"
      ],
      [
        "щ",
        "е"
      ],
      [
        "ко",
        "то"
      ],
      [
        "т",
        "ер"
      ],
      [
        "в",
        "ер"
      ],
      [
        "ко",
        "н"
      ],
      [
        "м",
        "ен"
      ],
      [
        "м",
        "ы"
      ],
      [
        "ста",
        "в"
      ],
      [
        "д",
        "ен"
      ],
      [
        "\"",
        "."
      ],
      [
        "ж",
        "и"
      ],
      [
        "к",
        "ов"
      ],
      [
        "ит",
        "ь"
      ],
      [
        "ж",
        "е"
      ],
      [
        "ет",
        "ся"
      ],
      [
        "ны",
        "м"
      ],
      [
        "а",
        "р"
      ],
      [
        "ц",
        "е"
      ],
      [
        "ст",
        "ан"
      ],
      [
        "п",
        "и"
      ],
      [
        "ны",
        "й"
      ],
      [
        "б",
        "у"
      ],
      [
        "ско",
        "й"
      ],
      [
        "ст",
        "ва"
      ],
      [
        "пра",
        "в"
      ],
      [
        "до",
        "л"
      ],
      [
        "г",
        "ра"
      ],
      [
        "ш",
        "а"
      ],
      [
        "с",
        "ов"
      ],
      [
        "\"",
        ","
      ],
      [
        "ж",
        "а"
      ],
      [
        "л",
        "ов"
      ],
      [
        "м",
        "ер"
      ],
      [
        "к",
        "т"
      ],
      [
        "л",
        "ю"
      ],
      [
        "с",
        "ка"
      ],
      [
        "но",
        "сти"
      ],
      [
        "с",
        "по"
      ],
      [
        "ст",
        "во"
      ],
      [
        "ско",
        "го"
      ],
      [
        "ски",
        "х"
      ],
      [
        "ани",
        "я"
      ],
      [
        "ра",
        "н"
      ],
      [
        "о",
        "д"
      ],
      [
        "ж",
        "ен"
      ],
      [
        "г",
        "ла"
      ],
      [
        "щ",
        "а"
      ],
      [
        "н",
        "ов"
      ],
      [
        "те",
        "ль"
      ],
      [
        "пе",
        "ре"
      ],
      [
        "ст",
        "ь"
      ],
      [
        "ми",
        "ни"
      ],
      [
        "но",
        "м"
      ],
      [
        "д",
        "ан"
      ],
      [
        "мо",
        "ск"
      ],
      [
        "б",
        "ы"
      ],
      [
        "к",
        "е"
      ],
      [
        "ф",
        "и"
      ],
      [
        "б",
        "а"
      ],
      [
        "т",
        "у"
      ],
      [
        "е",
        "м"
      ],
      [
        "во",
        "з"
      ],
      [
        "б",
        "и"
      ],
      [
        "л",
        "ет"
      ],
      [
        "кото",
        "ры"
      ],
      [
        "г",
        "у"
      ],
      [
        "росси",
        "и"
      ],
      [
        "ств",
        "ен"
      ],
      [
        "ком",
        "п"
      ],
      [
        "с",
        "ле"
      ],
      [
        "с",
        "лу"
      ],
      [
        "е",
        "й"
      ],
      [
        "д",
        "ов"
      ],
      [
        "с",
        "во"
      ],
      [
        "б",
        "ли"
      ],
      [
        "ч",
        "ен"
      ],
      [
        "ени",
        "и"
      ],
      [
        "росси",
        "й"
      ],
      [
        "в",
        "ре"
      ],
      [
        "ст",
        "у"
      ],
      [
        "в",
        "ши"
      ],
      [
        "п",
        "ер"
      ],
      [
        "б",
        "ан"
      ],
      [
        "д",
        "ер"
      ],
      [
        "ле",
        "й"
      ],
      [
        "ит",
        "а"
      ],
      [
        "ани",
        "и"
      ],
      [
        "х",
        "а"
      ],
      [
        "т",
        "ов"
      ],
      [
        "я",
        "в"
      ],
      [
        "ени",
        "ю"
      ],
      [
        "го",
        "д"
      ],
      [
        "ет",
        "а"
      ],
      [
        "к",
        "ан"
      ],
      [
        "но",
        "е"
      ],
      [
        "ци",
        "я"
      ],
      [
        "п",
        "ров"
      ],
      [
        "н",
        "ово"
      ],
      [
        "с",
        "об"
      ],
      [
        "э",
        "то"
      ],
      [
        "ра",
        "бо"
      ],
      [
        "в",
        "то"
      ],
      [
        "ро",
        "д"
      ],
      [
        "та",
        "к"
      ],
      [
        "я",
        "ви"
      ],
      [
        "ф",
        "е"
      ],
      [
        "ти",
        "в"
      ],
      [
        "л",
        "ения"
      ],
      [
        "ф",
        "ор"
      ],
      [
        "р",
        "ит"
      ],
      [
        "ни",
        "к"
      ],
      [
        "с",
        "пе"
      ],
      [
        "м",
        "ет"
      ],
      [
        "хо",
        "д"
      ],
      [
        "я",
        "б"
      ],
      [
        "сооб",
        "щи"
      ],
      [
        "в",
        "з"
      ],
      [
        "у",
        "ю"
      ],
      [
        "ст",
        "ви"
      ],
      [
        "г",
        "е"
      ],
      [
        "а",
        "к"
      ],
      [
        "м",
        "я"
      ],
      [
        "ре",
        "д"
      ],
      [
        "в",
        "я"
      ],
      [
        "на",
        "я"
      ],
      [
        "ски",
        "й"
      ],
      [
        "ц",
        "ент"
      ],
      [
        "го",
        "да"
      ],
      [
        "ани",
        "е"
      ],
      [
        "о",
        "на"
      ],
      [
        "л",
        "ли"
      ],
      [
        "в",
        "ла"
      ],
      [
        "к",
        "ра"
      ],
      [
        "ра",
        "ль"
      ],
      [
        "ст",
        "е"
      ],
      [
        "так",
        "же"
      ],
      [
        "с",
        "ч"
      ],
      [
        "сооб",
        "ща"
      ],
      [
        "а",
        "ль"
      ],
      [
        "е",
        "в"
      ],
      [
        "но",
        "сть"
      ],
      [
        "де",
        "й"
      ],
      [
        "г",
        "ово"
      ],
      [
        "з",
        "ы"
      ],
      [
        "с",
        "л"
      ],
      [
        "ор",
        "г"
      ],
      [
        "пред",
        "став"
      ],
      [
        "ми",
        "лли"
      ],
      [
        "с",
        "ша"
      ],
      [
        "яб",
        "ря"
      ],
      [
        "я",
        "т"
      ],
      [
        "ли",
        "сь"
      ],
      [
        "з",
        "на"
      ],
      [
        "по",
        "л"
      ],
      [
        "с",
        "вя"
      ],
      [
        "мини",
        "ст"
      ],
      [
        "з",
        "о"
      ],
      [
        "сле",
        "д"
      ],
      [
        "сто",
        "я"
      ],
      [
        "е",
        "к"
      ],
      [
        "за",
        "яви"
      ],
      [
        "ру",
        "п"
      ],
      [
        "ан",
        "а"
      ],
      [
        "ч",
        "ер"
      ],
      [
        "ю",
        "щи"
      ],
      [
        "ро",
        "м"
      ],
      [
        "пре",
        "зи"
      ],
      [
        "л",
        "ся"
      ],
      [
        "ни",
        "ка"
      ],
      [
        "ре",
        "з"
      ],
      [
        "ко",
        "й"
      ],
      [
        "че",
        "лов"
      ],
      [
        "год",
        "ня"
      ],
      [
        "об",
        "ъ"
      ],
      [
        "се",
        "годня"
      ],
      [
        "прав",
        "итель"
      ],
      [
        "т",
        "ре"
      ],
      [
        "ров",
        "а"
      ],
      [
        "ну",
        "ю"
      ],
      [
        "сообща",
        "ет"
      ],
      [
        "во",
        "й"
      ],
      [
        "ж",
        "д"
      ],
      [
        "ц",
        "а"
      ],
      [
        "ют",
        "ся"
      ],
      [
        "г",
        "ен"
      ],
      [
        "сл",
        "ова"
      ],
      [
        "ски",
        "е"
      ],
      [
        "вре",
        "мя"
      ],
      [
        "то",
        "р"
      ],
      [
        "ть",
        "ся"
      ],
      [
        "о",
        "с"
      ],
      [
        "по",
        "ли"
      ],
      [
        "су",
        "да"
      ],
      [
        "то",
        "м"
      ],
      [
        "л",
        "ение"
      ],
      [
        "ре",
        "ш"
      ],
      [
        "фор",
        "ма"
      ],
      [
        "слова",
        "м"
      ],
      [
        "стан",
        "ов"
      ],
      [
        "вз",
        "ры"
      ],
      [
        "ны",
        "ми"
      ],
      [
        "фе",
        "де"
      ],
      [
        "с",
        "ер"
      ],
      [
        "ст",
        "ре"
      ],
      [
        "во",
        "д"
      ],
      [
        "ка",
        "за"
      ],
      [
        "ин",
        "тер"
      ],
      [
        "т",
        "ру"
      ],
      [
        "ци",
        "ю"
      ],
      [
        "ре",
        "с"
      ],
      [
        "пу",
        "бли"
      ],
      [
        "ени",
        "й"
      ],
      [
        "ст",
        "ро"
      ],
      [
        "заяви",
        "л"
      ],
      [
        "з",
        "д"
      ],
      [
        "у",
        "т"
      ],
      [
        "по",
        "лу"
      ],
      [
        "не",
        "й"
      ],
      [
        "ло",
        "сь"
      ],
      [
        "ду",
        "т"
      ],
      [
        "в",
        "ет"
      ],
      [
        "ци",
        "он"
      ],
      [
        "на",
        "ча"
      ],
      [
        "ы",
        "х"
      ],
      [
        "ри",
        "а"
      ],
      [
        "ти",
        "че"
      ],
      [
        "во",
        "ен"
      ],
      [
        "в",
        "у"
      ],
      [
        "про",
        "из"
      ],
      [
        "па",
        "с"
      ],
      [
        "дол",
        "ла"
      ],
      [
        "д",
        "ет"
      ],
      [
        "п",
        "ла"
      ],
      [
        "те",
        "ле"
      ],
      [
        "бо",
        "ль"
      ],
      [
        "-",
        "<"
      ],
      [
        "ин",
        "форма"
      ],
      [
        "ново",
        "сти"
      ],
      [
        "р",
        "ен"
      ],
      [
        "ло",
        "ж"
      ],
      [
        "сту",
        "п"
      ],
      [
        "д",
        "ент"
      ],
      [
        "к",
        "с"
      ],
      [
        "ни",
        "ков"
      ],
      [
        "ча",
        "ст"
      ],
      [
        "ц",
        "ен"
      ],
      [
        "ты",
        "ся"
      ],
      [
        "ит",
        "ар"
      ],
      [
        "од",
        "на"
      ],
      [
        "ри",
        "и"
      ],
      [
        "до",
        "м"
      ],
      [
        "ко",
        "р"
      ],
      [
        "о",
        "ру"
      ],
      [
        "ска",
        "я"
      ],
      [
        "р",
        "ь"
      ],
      [
        "ч",
        "ет"
      ],
      [
        "па",
        "р"
      ],
      [
        "стра",
        "н"
      ],
      [
        "к",
        "ово"
      ],
      [
        "п",
        "ы"
      ],
      [
        "м",
        "ь"
      ],
      [
        "р",
        "ф"
      ],
      [
        "ско",
        "м"
      ],
      [
        "которы",
        "е"
      ],
      [
        "ме",
        "ст"
      ],
      [
        "це",
        "в"
      ],
      [
        "ан",
        "ы"
      ],
      [
        "ре",
        "ги"
      ],
      [
        "ко",
        "ло"
      ],
      [
        "e",
        "r"
      ],
      [
        "ци",
        "аль"
      ],
      [
        "ь",
        "ю"
      ],
      [
        "o",
        "r"
      ],
      [
        "д",
        "ру"
      ],
      [
        "ра",
        "к"
      ],
      [
        "го",
        "суда"
      ],
      [
        "ит",
        "у"
      ],
      [
        "мо",
        "ж"
      ],
      [
        "и",
        "с"
      ],
      [
        "к",
        "ры"
      ],
      [
        "ц",
        "ы"
      ],
      [
        "челов",
        "ек"
      ],
      [
        "госуда",
        "р"
      ],
      [
        "е",
        "д"
      ],
      [
        "л",
        "ы"
      ],
      [
        "на",
        "род"
      ],
      [
        "сто",
        "ч"
      ],
      [
        "слу",
        "ж"
      ],
      [
        "ра",
        "сс"
      ],
      [
        "ско",
        "ль"
      ],
      [
        "долла",
        "ров"
      ],
      [
        "ль",
        "з"
      ],
      [
        "та",
        "сс"
      ],
      [
        "хо",
        "ди"
      ],
      [
        "ст",
        "ов"
      ],
      [
        "ме",
        "ж"
      ],
      [
        "ве",
        "д"
      ],
      [
        "сообщи",
        "л"
      ],
      [
        "к",
        "ре"
      ],
      [
        "х",
        "и"
      ],
      [
        "ра",
        "й"
      ],
      [
        "одна",
        "ко"
      ],
      [
        "а",
        "вто"
      ],
      [
        "ру",
        "ково"
      ],
      [
        "мер",
        "и"
      ],
      [
        "тру",
        "д"
      ],
      [
        "ка",
        "з"
      ],
      [
        "а",
        "д"
      ],
      [
        "а",
        "мери"
      ],
      [
        "дол",
        "ж"
      ],
      [
        "ф",
        "ин"
      ],
      [
        "ит",
        "ся"
      ],
      [
        "ни",
        "ки"
      ],
      [
        "руково",
        "д"
      ],
      [
        "са",
        "мо"
      ],
      [
        "а",
        "г"
      ],
      [
        "пре",
        "сс"
      ],
      [
        "a",
        "n"
      ],
      [
        "со",
        "гла"
      ],
      [
        "то",
        "го"
      ],
      [
        "по",
        "р"
      ],
      [
        "на",
        "ру"
      ],
      [
        "и",
        "л"
      ],
      [
        "о",
        "пе"
      ],
      [
        "бу",
        "дут"
      ],
      [
        "ла",
        "сь"
      ],
      [
        "и",
        "спо"
      ],
      [
        "м",
        "ент"
      ],
      [
        "де",
        "ла"
      ],
      [
        "сто",
        "ро"
      ],
      [
        "ро",
        "ри"
      ],
      [
        "при",
        "ня"
      ],
      [
        "яв",
        "ля"
      ],
      [
        "феде",
        "раль"
      ],
      [
        "орг",
        "ани"
      ],
      [
        "с",
        "ент"
      ],
      [
        "га",
        "з"
      ],
      [
        "мини",
        "стра"
      ],
      [
        "н",
        "ет"
      ],
      [
        "зы",
        "ва"
      ],
      [
        ">",
        "%"
      ],
      [
        "в",
        "ше"
      ],
      [
        "i",
        "n"
      ],
      [
        "п",
        "ов"
      ],
      [
        "че",
        "ч"
      ],
      [
        "в",
        "ра"
      ],
      [
        "ств",
        "у"
      ],
      [
        "меж",
        "ду"
      ],
      [
        "прези",
        "ден"
      ],
      [
        "тыся",
        "ч"
      ],
      [
        "не",
        "ф"
      ],
      [
        "го",
        "ро"
      ],
      [
        "о",
        "м"
      ],
      [
        "с",
        "ред"
      ],
      [
        "тер",
        "рори"
      ],
      [
        "амери",
        "кан"
      ],
      [
        "опе",
        "ра"
      ],
      [
        "со",
        "труд"
      ],
      [
        "бо",
        "е"
      ],
      [
        "кото",
        "ро"
      ],
      [
        "стви",
        "я"
      ],
      [
        "в",
        "се"
      ],
      [
        "об",
        "ла"
      ],
      [
        "от",
        "вет"
      ],
      [
        "он",
        "ов"
      ],
      [
        "т",
        "ро"
      ],
      [
        "ра",
        "с"
      ],
      [
        "об",
        "ще"
      ],
      [
        "ци",
        "й"
      ],
      [
        "ко",
        "но"
      ],
      [
        "ль",
        "та"
      ],
      [
        "об",
        "е"
      ],
      [
        "м",
        "в"
      ],
      [
        "ан",
        "д"
      ],
      [
        "рит",
        "о"
      ],
      [
        "по",
        "след"
      ],
      [
        "го",
        "тов"
      ],
      [
        "моск",
        "ве"
      ],
      [
        "комп",
        "ании"
      ],
      [
        "между",
        "народ"
      ],
      [
        "д",
        "ви"
      ],
      [
        "к",
        "лю"
      ],
      [
        "сент",
        "ября"
      ],
      [
        "вла",
        "ди"
      ],
      [
        "го",
        "с"
      ],
      [
        "ите",
        "лей"
      ],
      [
        "дан",
        "ным"
      ],
      [
        "моск",
        "вы"
      ],
      [
        "дер",
        "ж"
      ],
      [
        "де",
        "ль"
      ],
      [
        "тер",
        "рито"
      ],
      [
        "фин",
        "ан"
      ],
      [
        "е",
        "ль"
      ],
      [
        "м",
        "н"
      ],
      [
        "о",
        "коло"
      ],
      [
        "воз",
        "мож"
      ],
      [
        "сч",
        "ита"
      ],
      [
        "о",
        "х"
      ],
      [
        "ш",
        "ен"
      ],
      [
        "ве",
        "ли"
      ],
      [
        "ц",
        "у"
      ],
      [
        "ми",
        "р"
      ],
      [
        "во",
        "про"
      ],
      [
        "г",
        "руп"
      ],
      [
        "про",
        "тив"
      ],
      [
        "те",
        "х"
      ],
      [
        "n",
        "e"
      ],
      [
        "г",
        "ов"
      ],
      [
        "ш",
        "та"
      ],
      [
        "го",
        "ду"
      ],
      [
        "свя",
        "зи"
      ],
      [
        "аг",
        "ент"
      ],
      [
        "ч",
        "ение"
      ],
      [
        "с",
        "мо"
      ],
      [
        "вши",
        "й"
      ],
      [
        "д",
        "ы"
      ],
      [
        "ж",
        "да"
      ],
      [
        "к",
        "ро"
      ],
      [
        "у",
        "льта"
      ],
      [
        "по",
        "мо"
      ],
      [
        "ос",
        "нов"
      ],
      [
        "о",
        "кт"
      ],
      [
        "пра",
        "во"
      ],
      [
        "д",
        "ж"
      ],
      [
        "де",
        "л"
      ],
      [
        "с",
        "ре"
      ],
      [
        "рез",
        "ульта"
      ],
      [
        "б",
        "ле"
      ],
      [
        "и",
        "ме"
      ],
      [
        "моск",
        "ов"
      ],
      [
        "е",
        "з"
      ],
      [
        "ки",
        "х"
      ],
      [
        "ски",
        "м"
      ],
      [
        "гра",
        "ни"
      ],
      [
        "ген",
        "е"
      ],
      [
        "у",
        "р"
      ],
      [
        "ска",
        "за"
      ],
      [
        "ж",
        "дан"
      ],
      [
        "п",
        "л"
      ],
      [
        "ча",
        "сти"
      ],
      [
        "из",
        "ве"
      ],
      [
        "сво",
        "и"
      ],
      [
        "ми",
        "ну"
      ],
      [
        "ед",
        "ин"
      ],
      [
        "пре",
        "мь"
      ],
      [
        "гра",
        "ждан"
      ],
      [
        "рес",
        "публи"
      ],
      [
        "дру",
        "ги"
      ],
      [
        "ст",
        "ве"
      ],
      [
        "ни",
        "м"
      ],
      [
        "да",
        "ге"
      ],
      [
        "э",
        "н"
      ],
      [
        "ни",
        "х"
      ],
      [
        "су",
        "д"
      ],
      [
        "к",
        "ла"
      ],
      [
        "ва",
        "р"
      ],
      [
        "реш",
        "ение"
      ],
      [
        "взры",
        "в"
      ],
      [
        "у",
        "прав"
      ],
      [
        "по",
        "ка"
      ],
      [
        "не",
        "е"
      ],
      [
        "т",
        "ра"
      ],
      [
        "ла",
        "га"
      ],
      [
        "об",
        "о"
      ],
      [
        "минист",
        "р"
      ],
      [
        "су",
        "ще"
      ],
      [
        "под",
        "чер"
      ],
      [
        "о",
        "фи"
      ],
      [
        "ите",
        "ля"
      ],
      [
        "изве",
        "ст"
      ],
      [
        "даге",
        "стан"
      ],
      [
        "с",
        "пи"
      ],
      [
        "ю",
        "ще"
      ],
      [
        "на",
        "ход"
      ],
      [
        ">",
        "-"
      ],
      [
        "к",
        "ну"
      ],
      [
        "т",
        "ран"
      ],
      [
        "то",
        "ч"
      ],
      [
        "про",
        "бле"
      ],
      [
        "органи",
        "за"
      ],
      [
        "а",
        "ли"
      ],
      [
        "бе",
        "зо"
      ],
      [
        "ш",
        "ин"
      ],
      [
        "ев",
        "ро"
      ],
      [
        "президен",
        "та"
      ],
      [
[...]
