{
  "version": "1.0",
  "truncation": null,
  "padding": null,
  "added_tokens": [],
  "normalizer": null,
  "pre_tokenizer": {
    "type": "Whitespace"
  },
  "post_processor": null,
  "decoder": null,
  "model": {
    "type": "Unigram",
    "unk_id": 0,
    "vocab": [
      [
        "[UNK]",
        0.0
      ],
      [
        ",",
        -3.0053496421966734
      ],
      [
        ".",
        -3.4111805107043054
      ],
      [
        "и",
        -3.479895677781199
      ],
      [
        "е",
        -3.566088148698409
      ],
      [
        "а",
        -3.8513204819259848
      ],
      [
        "\"",
        -3.883903658058072
      ],
      [
        "й",
        -4.050100951089194
      ],
      [
        "<",
        -4.164192929010623
      ],
      [
        "U",
        -4.166044138601958
      ],
      [
        "M",
        -4.169292024518697
      ],
      [
        "N",
        -4.169524420521485
      ],
      [
        "-",
        -4.276653892342784
      ],
      [
        ">",
        -4.310647794404538
      ],
      [
        "ы",
        -4.362850637919728
      ],
      [
        "х",
        -4.462924061635174
      ],
      [
        "у",
        -4.550583622102214
      ],
      [
        "я",
        -4.567294148962658
      ],
      [
        "м",
        -4.58970776751875
      ],
      [
        "о",
        -4.868324308302657
      ],
      [
        "ов",
        -4.932921475564818
      ],
      [
        "в",
        -5.225181424534519
      ],
      [
        "ю",
        -5.283052613432805
      ],
      [
        "ой",
        -5.344441676549385
      ],
      [
        "ся",
        -5.413311918030613
      ],
      [
        "го",
        -5.517507053251722
      ],
      [
        "ого",
        -5.594616027960127
      ],
      [
        "с",
        -5.647309782602219
      ],
      [
        "ом",
        -5.659612962611414
      ],
      [
        "ь",
        -5.769633322079402
      ],
      [
        "т",
        -5.81886247297962
      ],
      [
        "ть",
        -5.919015940808086
      ],
      [
        "\".",
        -5.94090650460706
      ],
      [
        "ая",
        -5.948534514412366
      ],
      [
        "россии",
        -6.035394538310701
      ],
      [
        "ей",
        -6.047432296267133
      ],
      [
        "ую",
        -6.129860748211438
      ],
      [
        "\",",
        -6.289161254677992
      ],
      [
        "к",
        -6.327060865457325
      ],
      [
        "также",
        -6.402055808760677
      ],
      [
        "(",
        -6.415080033335861
      ],
      [
        "года",
        -6.429550278183995
      ],
      [
        "ми",
        -6.448533689310153
      ],
      [
        "сша",
        -6.463894243578987
      ],
      [
        "н",
        -6.508900123301498
      ],
      [
        "заявил",
        -6.524193423070065
      ],
      [
        "это",
        -6.528306618852841
      ],
      [
        "ных",
        -6.538441301927178
      ],
      [
        "сообщает",
        -6.547472174049761
      ],
      [
        ")",
        -6.551516731650648
      ],
      [
        ":",
        -6.567995937147118
      ],
      [
        "человек",
        -6.595360949562086
      ],
      [
        "время",
        -6.638177180633473
      ],
      [
        "на",
        -6.665258895498713
      ],
      [
        "ых",
        -6.674025439914908
      ],
      [
        "словам",
        -6.7070784368664205
      ],
      [
        "ется",
        -6.711863036439885
      ],
      [
        "сегодня",
        -6.735875127888907
      ],
      [
        "ет",
        -6.758808280084089
      ],
      [
        "новост",
        -6.7791227714356905
      ],
      [
        "не",
        -6.796308497383829
      ],
      [
        "риа",
        -6.814222922491208
      ],
      [
        "д",
        -6.852927572544552
      ],
      [
        "сообщил",
        -6.8673821245512565
      ],
      [
        "рф",
        -6.910987299230598
      ],
      [
        "долларов",
        -6.920416275500337
      ],
      [
        "ного",
        -6.924200629265012
      ],
      [
        "тасс",
        -6.927502764141359
      ],
      [
        "ами",
        -6.928294317481228
      ],
      [
        "однако",
        -6.9290815101249965
      ],
      [
        "по",
        -6.949957204885736
      ],
      [
        "за",
        -6.95418918245006
      ],
      [
        "пресс",
        -6.9644629058437415
      ],
      [
        "ной",
        -6.965735956626277
      ],
      [
        "итар",
        -6.97499820551782
      ],
      [
        "л",
        -6.978857815979863
      ],
      [
        "лись",
        -6.9874803337529485
      ],
      [
        "будут",
        -6.993548302333803
      ],
      [
        "ф",
        -7.011353180924583
      ],
      [
        "тысяч",
        -7.022396908257835
      ],
      [
        "ок",
        -7.045817928176307
      ],
      [
        "которые",
        -7.050670466359456
      ],
      [
        "министр",
        -7.078631196800544
      ],
      [
        ">%",
        -7.09069564189831
      ],
      [
        ">-",
        -7.097619822655663
      ],
      [
        "ах",
        -7.10523856680555
      ],
      [
        "того",
        -7.108197364855802
      ],
      [
        "москве",
        -7.109781420864244
      ],
      [
        "сентября",
        -7.113880459486526
      ],
      [
        "данным",
        -7.117953492350051
      ],
      [
        "москвы",
        -7.12890266232335
      ],
      [
        "около",
        -7.165627147821852
      ],
      [
        "г",
        -7.180226616203192
      ],
      [
        "миллион",
        -7.196357179716186
      ],
      [
        "году",
        -7.200607247937803
      ],
      [
        "информаци",
        -7.209752502561198
      ],
      [
        "п",
        -7.210963055979449
      ],
      [
        "работ",
        -7.218676350737288
      ],
      [
        "связи",
        -7.224646318305774
      ],
      [
        "ли",
        -7.245188742478239
      ],
      [
        "ться",
        -7.248515752531052
      ],
      [
        "октябр",
        -7.2576854137971445
      ],
      [
        "президент",
        -7.272669417326222
      ],
      [
        "р",
        -7.285754737227299
      ],
      [
        "премьер",
        -7.289451489773938
      ],
      [
        "s",
        -7.291203460033623
      ],
      [
        "дел",
        -7.292354151424678
      ],
      [
        "ить",
        -7.301562402423138
      ],
      [
        "компании",
        -7.312244250584461
      ],
      [
        "решение",
        -7.318380097415937
      ],
      [
        "ем",
        -7.341154997225668
      ],
      [
        "президента",
        -7.3422232394964695
      ],
      [
        "результат",
        -7.351539835529966
      ],
      [
        "лет",
        -7.352290656861972
      ],
      [
        "пока",
        -7.353645339441259
      ],
      [
        "правительства",
        -7.356412607884333
      ],
      [
        "против",
        -7.365714529845069
      ],
      [
        "тся",
        -7.370617229281762
      ],
      [
        "но",
        -7.3870801434766165
      ],
      [
        "который",
        -7.405051877166055
      ],
      [
        "y",
        -7.409150315855102
      ],
      [
        "из",
        -7.436688395966253
      ],
      [
        "вопрос",
        -7.4394296726373
      ],
      [
        "c",
        -7.461173256416876
      ],
      [
        "лось",
        -7.462452046918637
      ],
      [
        "проблем",
        -7.463583807249983
      ],
      [
        "мнению",
        -7.471335030121758
      ],
      [
        "том",
        -7.479415986837723
      ],
      [
        "интернет",
        -7.479898872975694
      ],
      [
        "безопасности",
        -7.4840278190851075
      ],
      [
        "он",
        -7.488080615597675
      ],
      [
        "их",
        -7.488700285522324
      ],
      [
        "чечни",
        -7.49590464529942
      ],
      [
        "области",
        -7.507698475321625
      ],
      [
        "лась",
        -7.5098124723402675
      ],
      [
        "подчеркнул",
        -7.515990870105001
      ],
      [
        "ым",
        -7.5166932977270715
      ],
      [
        "сказал",
        -7.518332461849012
      ],
      [
        "отметил",
        -7.523083060403693
      ],
      [
        "то",
        -7.53641701182813
      ],
      [
        "владимир",
        -7.538959051829244
      ],
      [
        "территории",
        -7.549587361687013
      ],
      [
        "ссылк",
        -7.563892750516024
      ],
      [
        "сил",
        -7.566375754306219
      ],
      [
        "документ",
        -7.581545302093581
      ],
      [
        "путин",
        -7.591849431681572
      ],
      [
        "граждан",
        -7.60643008381136
      ],
      [
        "ельцин",
        -7.618416107571876
      ],
      [
        "взрыв",
        -7.623816887861223
      ],
      [
        "ый",
        -7.624201005257829
      ],
      [
        "сь",
        -7.627810547447451
      ],
      [
        "является",
        -7.628019984204817
      ],
      [
        "пол",
        -7.628990620315847
      ],
      [
        "времен",
        -7.641470355774858
      ],
      [
        "год",
        -7.64546373780857
      ],
      [
        "стран",
        -7.650579812936773
      ],
      [
        "российских",
        -7.657602697195723
      ],
      [
        "несколько",
        -7.658060967113648
      ],
      [
        "города",
        -7.659821383229584
      ],
      [
        "банка",
        -7.66411772146236
      ],
      [
        "которых",
        -7.669354441263536
      ],
      [
        "российски",
        -7.678526849068876
      ],
      [
        "ки",
        -7.687208817124244
      ],
      [
        "мэр",
        -7.690672814115599
      ],
      [
        "d",
        -7.692824072163724
      ],
      [
        "ать",
        -7.699535063414065
      ],
      [
        "страны",
        -7.700050984820824
      ],
      [
        "про",
        -7.706887903454295
      ],
      [
        "суд",
        -7.707852284105306
      ],
      [
        "рубле",
        -7.724071147944453
      ],
      [
        "ют",
        -7.7396095799606535
      ],
      [
        "оон",
        -7.7431423596244855
      ],
      [
        "город",
        -7.744761022155284
      ],
      [
        "new",
        -7.745648191139611
      ],
      [
        "ской",
        -7.7469838379446445
      ],
      [
        "енко",
        -7.758349605614727
      ],
      [
        "ются",
        -7.763094875788818
      ],
      [
        "республики",
        -7.767500470673142
      ],
      [
        "вторник",
        -7.76845037794576
      ],
      [
        "б",
        -7.773817331866362
      ],
      [
        "депутат",
        -7.776479304022409
      ],
      [
        "ий",
        -7.784220076803872
      ],
      [
        "агентство",
        -7.785433903109554
      ],
      [
        "милици",
        -7.786258699374993
      ],
      [
        "a",
        -7.786418023253892
      ],
      [
        "тем",
        -7.788901371713576
      ],
      [
        "кром",
        -7.793887568300575
      ],
      [
        "российской",
        -7.795303877065841
      ],
      [
        "bank",
        -7.795898461404063
      ],
      [
        "мвд",
        -7.799371734055462
      ],
      [
        "ная",
        -7.800669277490642
      ],
      [
        "сообщили",
        -7.809528824444382
      ],
      [
        "закон",
        -7.8174631578587634
      ],
      [
        "стороны",
        -7.818433762490584
      ],
      [
        "службы",
        -7.824808340991483
      ],
      [
        "министра",
        -7.825225750445593
      ],
      [
        "частност",
        -7.826980298823223
      ],
      [
        "правительство",
        -7.840604807198743
      ],
      [
        "дело",
        -7.8424878427999705
      ],
      [
        "власти",
        -7.844323314255342
      ],
      [
        "ный",
        -7.846004025554091
      ],
      [
        "считает",
        -7.847137287327595
      ],
      [
        "цен",
        -7.8496890770663335
      ],
      [
        "обороны",
        -7.856733791997042
      ],
      [
        "ork",
        -7.866370241646509
      ],
      [
        "ского",
        -7.869342572071193
      ],
      [
        "му",
        -7.871292767957414
      ],
      [
        "федеральны",
        -7.875074396283695
      ],
      [
        "дагестан",
        -7.879579053571427
      ],
      [
        "акци",
        -7.884962826136323
      ],
      [
        "операци",
        -7.891535506633187
      ],
      [
        "россия",
        -7.898244001451794
      ],
      [
        "четверг",
        -7.906819843122151
      ],
      [
        "получил",
        -7.90737628192233
      ],
      [
        "могут",
        -7.9074041973474305
      ],
      [
        "согласно",
        -7.9078424071021685
      ],
      [
        "управления",
        -7.909386089001218
      ],
      [
        "дома",
        -7.910366150431385
      ],
      [
        "его",
        -7.9159317779513785
      ],
      [
        "которая",
        -7.926444272740669
      ],
      [
        "двух",
        -7.934649623826789
      ],
      [
        "счет",
        -7.9382130133800635
      ],
      [
        "правоохранительн",
        -7.938282311519965
      ],
      [
        "миллиард",
        -7.940837236748228
      ],
      [
        "ные",
        -7.943757767307259
      ],
      [
        "понедельник",
        -7.946417806209943
      ],
      [
        "проект",
        -7.946686183357974
      ],
      [
        "ходе",
        -7.9469878065689095
      ],
      [
        "помощь",
        -7.947457607904825
      ],
      [
        "лидер",
        -7.950387985005988
      ],
      [
        "лужков",
        -7.977419572916415
      ],
      [
        "при",
        -7.980457523008729
      ],
      [
        "представитель",
        -7.981010805869713
      ],
      [
        "настоящее",
        -7.981023403267649
      ],
      [
        "ка",
        -7.982572258279175
      ],
      [
        "ц",
        -7.986375649198908
      ],
      [
        "ев",
        -7.9866575167728815
      ],
      [
        "последни",
        -7.988541044804503
      ],
      [
        "других",
        -7.988824241915765
      ],
      [
        "александр",
        -7.989661763324912
      ],
      [
        "лся",
        -7.989714476808231
      ],
      [
        "течение",
        -7.997837089530455
      ],
      [
        "совета",
        -8.000302880087123
      ],
      [
        "юри",
        -8.001922078505778
      ],
      [
        "of",
        -8.00291640441566
      ],
      [
        "российского",
        -8.005016403758612
      ],
      [
        "действия",
        -8.005734207399149
      ],
      [
        "что",
        -8.010254987254346
      ],
      [
        "пример",
        -8.011372602855115
      ],
      [
        "ранее",
        -8.024397583351082
      ],
      [
        "глава",
        -8.028066537403506
      ],
      [
        "случае",
        -8.029309794445696
      ],
      [
        "генерал",
        -8.02957832965274
      ],
      [
        "вести",
        -8.036554542280264
      ],
      [
        "ра",
        -8.036694383318139
      ],
      [
        "средств",
        -8.040652819099954
      ],
      [
        "фсб",
        -8.04243829354212
      ],
      [
        "борьб",
        -8.042658544632491
      ],
      [
        "газет",
        -8.047591684555126
      ],
      [
        "среди",
        -8.048708108281465
      ],
      [
        "самолет",
        -8.05269595761087
      ],
      [
        "систем",
        -8.055734668770729
      ],
      [
        "банк",
        -8.057333623177712
      ],
      [
        "так",
        -8.061444742099916
      ],
      [
        "полици",
        -8.064353658562602
      ],
      [
        "компания",
        -8.069139030698164
      ],
      [
        "своих",
        -8.073529055439018
      ],
      [
        "отношени",
        -8.073775340460404
      ],
      [
        "намерен",
        -8.075462798354756
      ],
      [
        "поскольку",
        -8.076325993509649
      ],
      [
        "ч",
        -8.076935163512003
      ],
      [
        "ия",
        -8.08184085964536
      ],
      [
        "свое",
        -8.084979966484639
      ],
      [
        "представители",
        -8.087305041750128
      ],
      [
        "либо",
        -8.08923512243618
      ],
      [
        "боевиков",
        -8.089559688909894
      ],
      [
        "председатель",
        -8.091274069561802
      ],
      [
        "гу",
        -8.09367335479972
      ],
      [
        "ную",
        -8.094465250740836
      ],
      [
        "директор",
        -8.096190144079767
      ],
      [
        "первый",
        -8.096270297836169
      ],
      [
        "ко",
        -8.097758271762682
      ],
      [
        "корреспондент",
        -8.099349836342132
      ],
      [
        "день",
        -8.099644769312274
      ],
      [
        "люде",
        -8.100335401032735
      ],
      [
        "начал",
        -8.10353748196815
      ],
      [
        "переговор",
        -8.104955445466501
      ],
      [
        "от",
        -8.107929751807049
      ],
      [
        "вице",
        -8.113055137581028
      ],
      [
        "района",
        -8.119053860177331
      ],
      [
        "конференции",
        -8.119628990250279
      ],
      [
        "глав",
        -8.13055302624192
      ],
      [
        "тимор",
        -8.131861955571331
      ],
      [
        "пятниц",
        -8.135930762240417
      ],
      [
        "лишь",
        -8.136708826731855
      ],
      [
        "ряд",
        -8.143206432273974
      ],
      [
        "федерации",
        -8.149689843738287
      ],
      [
        "взрыва",
        -8.150632958759758
      ],
      [
        "районе",
        -8.155143493002338
      ],
      [
        "беженцев",
        -8.160774370760942
      ],
      [
        "мене",
        -8.161304763792872
      ],
      [
        "котором",
        -8.162740443224035
      ],
      [
        "срок",
        -8.1659468481493
      ],
      [
        "сред",
        -8.169371036181756
      ],
      [
        "жителей",
        -8.170189888886746
      ],
      [
        "министерства",
        -8.171595817725654
      ],
      [
        "участие",
        -8.172307968831515
      ],
      [
        "дела",
        -8.173572477251923
      ],
      [
        "интерфакс",
        -8.173625428026156
      ],
      [
        "дня",
        -8.176805433792836
      ],
      [
        "центра",
        -8.185909067712117
      ],
      [
        "внутренних",
        -8.186741958337457
      ],
      [
        "эти",
        -8.190564985457852
      ],
      [
        "часов",
        -8.19295070085353
      ],
      [
        "источник",
        -8.195220824088505
      ],
      [
        "которой",
        -8.19613046147561
      ],
      [
        "населени",
        -8.19636257253822
      ],
      [
        "руководство",
        -8.196708371417444
      ],
      [
        "деньг",
        -8.200748803918561
      ],
      [
        "t",
        -8.203507396282973
      ],
      [
        "вмест",
        -8.205134971189787
      ],
      [
        "числе",
        -8.20780989500479
      ],
      [
        "ается",
        -8.208840327010936
      ],
      [
        "мин",
        -8.220870702346835
      ],
      [
        "дом",
        -8.222175083773932
      ],
      [
        "должны",
        -8.223543218360614
      ],
      [
        "обнаружен",
        -8.2267853836101
      ],
      [
        "пор",
        -8.227098044923281
      ],
      [
        "часть",
        -8.232463201446723
      ],
      [
        "ые",
        -8.237661310133433
      ],
      [
        "свои",
        -8.237996498709979
      ],
      [
        "которого",
        -8.239901047365613
      ],
      [
        "государства",
        -8.247331973284608
      ],
      [
        "вы",
        -8.250812637592247
      ],
      [
        "многи",
        -8.255113174881197
      ],
      [
        "органов",
        -8.25553278585652
      ],
      [
        "сти",
        -8.256431673384363
      ],
      [
        "известно",
        -8.257096523238832
      ],
      [
        "системы",
        -8.257723013407812
      ],
      [
        "раз",
        -8.263810808786225
      ],
      [
        "министерство",
        -8.2645697334739
      ],
      [
        "михаил",
        -8.266778931705804
      ],
      [
        "интервью",
        -8.267021547335844
      ],
      [
        "ны",
        -8.27174522230661
      ],
      [
        "новый",
        -8.273583410048289
      ],
      [
        "данны",
        -8.279733071048241
      ],
      [
        "состав",
        -8.280151680967425
      ],
      [
        "финансов",
        -8.286797546845655
      ],
      [
        "под",
        -8.293551217158694
      ],
      [
        "должен",
        -8.293682527918968
      ],
      [
        "нового",
        -8.294081193291209
      ],
      [
        "всем",
        -8.294157048819496
      ],
      [
        "войск",
        -8.294872573375391
      ],
      [
        "газета",
        -8.294998022841005
      ],
      [
        "заместитель",
        -8.295340588479895
      ],
      [
        "военных",
        -8.296670112472812
      ],
      [
        "e",
        -8.299470549235098
      ],
      [
        "ках",
        -8.30492082305528
      ],
      [
        "центре",
        -8.305525086899134
      ],
      [
        "практическ",
        -8.30608671025787
      ],
      [
        "размер",
        -8.311754575641661
      ],
      [
        "погибли",
        -8.32012079496604
      ],
      [
        "столиц",
        -8.323676636917128
      ],
      [
        "регистрации",
        -8.324051615658835
      ],
      [
        "ому",
        -8.324851981281007
      ],
      [
        "косово",
        -8.325286718456056
      ],
      [
        "первы",
        -8.326195836413024
      ],
      [
        "другие",
        -8.327552923693442
      ],
      [
        "петербург",
        -8.327598454537604
      ],
      [
        "счета",
        -8.328254219855467
      ],
      [
        "эксперт",
        -8.330727491560545
      ],
      [
        "з",
        -8.338775032173318
      ],
      [
        "дагестане",
        -8.339267636219112
      ],
      [
        "находится",
        -8.339475156473005
      ],
      [
        "удалось",
        -8.339672241173815
      ],
      [
        "бывший",
        -8.343474013812667
      ],
      [
        "компьютер",
        -8.344888666762206
      ],
      [
        "руководител",
        -8.3559080209435
      ],
      [
        "произошл",
        -8.358524327459806
      ],
      [
        "августа",
        -8.361008285784717
      ],
      [
        "месте",
        -8.362642113983583
      ],
      [
        "имеет",
        -8.36387307794172
      ],
      [
        "удар",
        -8.365675119538754
      ],
      [
        "великобритани",
        -8.369819406706835
      ],
      [
        "нет",
        -8.370605598745396
      ],
      [
        "американских",
        -8.370925939059118
      ],
      [
        "иностранны",
        -8.371717852439424
      ],
      [
        "эта",
        -8.37185500956614
      ],
      [
        "нью",
        -8.372849140650619
      ],
      [
        "стало",
        -8.377846022580318
      ],
      [
        "совет",
        -8.379434168942735
      ],
      [
        "улиц",
        -8.381042324560546
      ],
      [
        "составляет",
        -8.385896692492324
      ],
      [
        "главы",
        -8.38606460259404
      ],
      [
        "суда",
        -8.387225413013077
      ],
      [
        "борис",
        -8.39284290018529
      ],
      [
        "политик",
        -8.39418364141101
      ],
      [
        "считают",
        -8.395017736897836
      ],
      [
        "жизн",
        -8.400356868202536
      ],
      [
        "сотрудников",
        -8.40275354370528
      ],
      [
        "энерго",
        -8.404543392778358
      ],
      [
        "задержан",
        -8.407616118361386
      ],
      [
        "госдумы",
        -8.40833399472262
      ],
      [
        "арми",
        -8.409905269294622
      ],
      [
        "начальник",
        -8.41374828457798
      ],
      [
        "меры",
        -8.415897442918162
      ],
      [
        "воскресень",
        -8.417428651722357
      ],
      [
        "миллиарда",
        -8.432365624863369
      ],
      [
        "спис",
        -8.433933740908564
      ],
      [
        "деятельности",
        -8.434479259013017
      ],
      [
        "организаци",
        -8.435960195695529
      ],
      [
        "до",
        -8.43709820963005
      ],
      [
        "помощи",
        -8.437298389919711
      ],
      [
        "та",
        -8.437354676743734
      ],
      [
        "число",
        -8.441304197961266
      ],
      [
        "служб",
        -8.445105735820071
      ],
      [
        "своей",
        -8.450716667517874
      ],
      [
        "мест",
        -8.450888541486824
      ],
      [
        "объявил",
        -8.451725289916357
      ],
      [
        "место",
        -8.452910173128382
      ],
      [
        "миллиона",
        -8.454044880332098
      ],
      [
        "журналистам",
        -8.45521429249386
      ],
      [
        "именно",
        -8.455766211040144
      ],
      [
        "программ",
        -8.457375313255078
      ],
      [
        "одного",
        -8.457469993764743
      ],
      [
        "палат",
        -8.457994249586434
      ],
      [
        "штат",
        -8.460711565337995
      ],
      [
        "образо",
        -8.460962685948349
      ],
      [
        "новой",
        -8.463117928555357
      ],
      [
        "оста",
        -8.46314670948566
      ],
      [
        "возможно",
        -8.463784430599148
      ],
      [
        "тех",
        -8.46913781304394
      ],
      [
        "месяце",
        -8.472645419507778
      ],
      [
        "ла",
        -8.47524662052226
      ],
      [
        "сайт",
        -8.477051400690675
      ],
      [
        "пост",
        -8.480928986616007
      ],
      [
        "виктор",
        -8.482059665150489
      ],
      [
        "обще",
        -8.482394757065297
      ],
      [
        "стал",
        -8.482700272915872
      ],
      [
        "движени",
        -8.487557132446828
      ],
      [
        "необходимо",
        -8.487568844190573
      ],
      [
        "стране",
        -8.488007174802181
      ],
      [
        "сообщила",
        -8.489666544515726
      ],
      [
        "мира",
        -8.492163332868326
      ],
      [
        "украин",
        -8.494295870114724
      ],
      [
        "центр",
        -8.49667179640587
      ],
      [
        "южно",
        -8.499771601274388
      ],
      [
        "никаких",
        -8.503118221441614
      ],
      [
        "оружи",
        -8.505079795406488
      ],
      [
        "прав",
        -8.509112972584223
      ],
      [
        "пере",
        -8.509991602093436
      ],
      [
        "группа",
        -8.511133237246902
      ],
      [
        "сотрудники",
        -8.511640980918536
      ],
      [
        "домов",
        -8.512682968985324
      ],
      [
        "одной",
        -8.513286973625188
      ],
      [
        "фонда",
        -8.514121763046765
      ],
      [
        "лиц",
        -8.515706380674306
      ],
      [
        "этим",
        -8.518148538846573
      ],
      [
        "во",
        -8.520359090166174
      ],
      [
        "очень",
        -8.520370706093853
      ],
      [
        "вечером",
        -8.520595711087005
      ],
      [
        "ями",
        -8.52192977146831
      ],
      [
        "люди",
        -8.525183699097948
      ],
      [
        "мы",
        -8.527033108853054
      ],
      [
        "ранены",
        -8.529943057328998
      ],
      [
        "силы",
        -8.53069851163907
      ],
      [
        "рам",
        -8.530959260922018
      ],
      [
        "нато",
        -8.540185190915787
      ],
      [
        "организации",
        -8.54086316605864
      ],
      [
        "кандидатов",
        -8.541165931438574
      ],
      [
        "ости",
        -8.541353384757473
      ],
      [
        "начала",
        -8.542613979687417
      ],
      [
        "производств",
        -8.5450007543511
      ],
      [
        "клинтон",
        -8.54632132846081
      ],
      [
        "ят",
        -8.546402051236548
      ],
      [
        "материал",
        -8.546980543264413
      ],
      [
        "группы",
        -8.54837625843265
      ],
      [
        "сумм",
        -8.548399931188644
      ],
      [
        "нефт",
        -8.548644592576947
      ],
      [
        "военно",
        -8.54876142278405
      ],
      [
        "франци",
        -8.549118489923282
      ],
      [
        "нов",
        -8.551258195777788
      ],
      [
        "как",
        -8.551275566040596
      ],
      [
        "карачаев",
        -8.555282448227025
      ],
      [
        "блока",
        -8.559118004972957
      ],
      [
        "причин",
        -8.56031901345743
      ],
      [
        "об",
        -8.560748834828532
      ],
      [
        "очеред",
        -8.567562019492382
      ],
      [
        "московск",
        -8.570499169702606
      ],
      [
        "количество",
        -8.570676399049315
      ],
      [
        "цель",
        -8.571016364493072
      ],
      [
        "которое",
        -8.571787545665659
      ],
      [
        "ку",
        -8.57208887211442
      ],
      [
        "план",
        -8.574610294150082
      ],
      [
        "средства",
        -8.575014641765717
      ],
      [
        "times",
        -8.575647702196687
      ],
      [
        "скуратов",
        -8.57579714050306
      ],
      [
        "владимира",
        -8.576288502270085
      ],
      [
        "агентства",
        -8.576661500134879
      ],
      [
        "процентов",
        -8.576706521176982
      ],
      [
        "цев",
        -8.582120987247226
      ],
      [
        "мв",
        -8.5823497268963
      ],
      [
        "оказа",
        -8.585191878612997
      ],
      [
        "расследование",
        -8.586546968669207
      ],
      [
        "минут",
        -8.587615447155489
      ],
      [
        "некоторые",
        -8.589758082848913
      ],
      [
        "сторон",
        -8.591258312971643
      ],
      [
        "номер",
        -8.592540713284095
      ],
      [
        "машин",
        -8.5928558914393
      ],
      [
        "p",
        -8.593245185097762
      ],
      [
        "контрол",
        -8.594066567238317
      ],
      [
        "компаний",
        -8.594792372318377
      ],
      [
        "комплекс",
        -8.595970348031788
      ],
      [
        "теракт",
        -8.596764356866016
      ],
      [
        "право",
        -8.596885100489025
      ],
      [
        "террористов",
        -8.597189259739134
      ],
      [
        "действи",
        -8.597770550954666
      ],
      [
        "заседании",
        -8.600625995183233
      ],
      [
        "органы",
        -8.601249939112812
      ],
      [
        "трех",
        -8.601731138432019
      ],
      [
        "n",
        -8.605439892401343
      ],
      [
        "здания",
        -8.606817103288007
      ],
      [
        "установлен",
        -8.606945497140192
      ],
      [
        "ам",
        -8.609722057185047
      ],
      [
        "телефон",
        -8.611750468883447
      ],
      [
        "рынк",
        -8.611915472136108
      ],
      [
        "ру",
        -8.615212449199372
      ],
      [
        "объем",
        -8.616112391118769
      ],
      [
        "момент",
        -8.616231348960508
      ],
      [
        "режим",
        -8.617757211251966
      ],
      [
        "групп",
        -8.618707681783714
      ],
      [
        "ская",
        -8.62093044052623
      ],
      [
        "администрации",
        -8.621446710033721
      ],
      [
        "части",
        -8.621682974879946
      ],
      [
        "стать",
        -8.624819869881215
      ],
      [
        "комитета",
        -8.625835730551891
      ],
      [
        "пострадавши",
        -8.626504409028671
      ],
      [
        "пункт",
        -8.62890937962534
      ],
      [
        "бр",
        -8.629440073277149
      ],
      [
        "должно",
        -8.631279529427962
      ],
      [
        "своем",
        -8.634560009652299
      ],
      [
        "ния",
        -8.635814766737031
      ],
      [
        "член",
        -8.63872993562222
      ],
      [
        "председателя",
        -8.638968745317111
      ],
      [
        "ни",
        -8.63984157388705
      ],
      [
        "скандал",
        -8.64181096290331
      ],
      [
        "таким",
        -8.644653531775713
      ],
      [
        "al",
        -8.645008726741095
      ],
      [
        "сотрудничеств",
        -8.64707967637072
      ],
      [
        "смотря",
        -8.647264843569957
      ],
      [
        "должн",
        -8.648519669762639
      ],
      [
        "дмитри",
        -8.649647691354208
      ],
      [
        "блок",
        -8.652144132654398
      ],
      [
        "press",
        -8.655007626316209
      ],
      [
        "кавказ",
        -8.65624244406743
      ],
      [
        "дене",
        -8.65890859023118
      ],
      [
        "места",
        -8.659121697207919
      ],
      [
        "соответстви",
        -8.660171044787123
      ],
      [
        "ближайшее",
        -8.660726982030303
      ],
      [
        "выше",
        -8.663568812641195
      ],
      [
        "двое",
        -8.663925827976195
      ],
      [
        "секретарь",
        -8.666074882208495
      ],
      [
        "стали",
        -8.667673853425171
      ],
      [
        "говорит",
        -8.668008145571442
      ],
      [
        "лондон",
        -8.669904989055421
      ],
      [
        "войны",
        -8.670833578758241
      ],
      [
        "ответ",
        -8.671490378572685
      ],
      [
        "утверждает",
        -8.672940420029654
      ],
      [
        "собой",
        -8.67401599170605
      ],
      [
        "ностью",
        -8.674147345531882
      ],
      [
        "погибши",
        -8.674601303819045
      ],
      [
        "сергей",
        -8.676955502508358
      ],
      [
        "минувший",
        -8.677489930235387
      ],
      [
        "военные",
        -8.679684336893397
      ],
      [
        "комиссии",
        -8.679704331644402
      ],
      [
        "технологи",
        -8.68310066209073
      ],
      [
        "прокуратур",
        -8.685803257603084
      ],
      [
        "идет",
        -8.685945510005105
      ],
      [
        "ураган",
        -8.68733621131937
      ],
      [
        "данных",
        -8.687907715837873
      ],
      [
        "наибол",
        -8.689721778199365
      ],
      [
        "черкеси",
        -8.690194145060977
      ],
      [
        "сми",
        -8.690637571193697
      ],
      [
        "банков",
        -8.690659113604283
      ],
      [
        "район",
        -8.694681624936544
      ],
      [
        "которым",
        -8.695370644461086
      ],
      [
        "губернатор",
        -8.696417183023524
      ],
      [
        "списк",
        -8.696637451846605
      ],
      [
        "конгресс",
        -8.696705656720123
      ],
      [
        "коррупци",
        -8.697004406597848
      ],
      [
        "центризбирком",
        -8.697035590261102
      ],
      [
        "йорк",
        -8.697056935329318
      ],
      [
        "подготовк",
        -8.697211326739739
      ],
      [
        "жертв",
        -8.69739416531031
      ],
      [
        "являются",
        -8.698446543342051
      ],
      [
        "запад",
        -8.699320907086433
      ],
      [
        "качестве",
        -8.699564208746246
      ],
      [
        "бюджет",
        -8.699680463554646
      ],
      [
        "цик",
        -8.699810370057786
      ],
      [
        "членов",
        -8.700383598396733
      ],
      [
        "возможность",
        -8.703134855083892
      ],
      [
        "взрывчатк",
        -8.704956281694706
      ],
      [
        "мире",
        -8.707450668398323
      ],
      [
        "э",
        -8.70899510599189
      ],
      [
        "ш",
        -8.709849068290023
      ],
      [
        "et",
        -8.710614532221975
      ],
      [
        "программы",
        -8.710949816597001
      ],
      [
        "ский",
        -8.713623318448086
      ],
      [
        "принял",
        -8.715599680158114
      ],
      [
        "пр",
        -8.717588362595164
      ],
      [
        "просьб",
        -8.718776990225887
      ],
      [
        "минувше",
        -8.721001376895078
      ],
      [
        "второй",
        -8.722261874837876
      ],
      [
        "планирует",
        -8.72383600796728
      ],
      [
        "вд",
        -8.72401448483415
      ],
      [
        "сообщило",
        -8.724477675454901
      ],
      [
        "ситуации",
        -8.725912599723184
      ],
      [
        "мер",
        -8.727113108471052
      ],
      [
        "i",
        -8.727372621562283
      ],
      [
        "перв",
        -8.733073575209952
      ],
      [
        "новая",
        -8.733335442328562
      ],
      [
        "федеральн",
        -8.73451168081675
      ],
      [
        "столице",
        -8.736145129993835
      ],
      [
        "договор",
        -8.737992761904021
      ],
      [
        "объявлен",
        -8.738976240986915
      ],
      [
        "новых",
        -8.73909841129073
      ],
      [
        "принято",
        -8.739487062830994
      ],
      [
        "задолженност",
        -8.740984425897164
      ],
      [
        "скоре",
        -8.741566124733147
      ],
      [
        "доход",
        -8.741661035011914
      ],
      [
        "официально",
        -8.741897141060713
      ],
      [
        "связан",
        -8.742314172438
      ],
      [
        "сообщению",
        -8.743266343415781
      ],
      [
        "выборов",
        -8.744276416241156
      ],
      [
        "штаб",
        -8.747172197883035
      ],
      [
        "сведениям",
        -8.747660844238952
      ],
      [
        "представителе",
        -8.750708151740785
      ],
      [
        "x",
        -8.751835206019862
      ],
      [
        "этому",
        -8.752179285810461
      ],
      [
        "структур",
        -8.758872661257483
      ],
      [
        "встречи",
        -8.75956199679091
      ],
      [
        "семь",
        -8.759860392452698
      ],
      [
        "местны",
        -8.75991163378842
      ],
      [
        "предварительны",
        -8.759940808883428
      ],
      [
        "масхадов",
        -8.763693210604927
      ],
      [
        "накануне",
        -8.763707948586243
      ],
      [
        "произошел",
        -8.763749951084513
      ],
      [
        "ситуация",
        -8.7639406600238
      ],
      [
        "находятся",
        -8.76397968398402
      ],
      [
        "мир",
        -8.764182625005576
      ],
      [
        "росси",
        -8.76580797332759
      ],
      [
        "ию",
        -8.766926968874573
      ],
      [
        "предполагает",
        -8.767258826033014
      ],
      [
        "ближайши",
        -8.768159750241708
      ],
      [
        "российским",
        -8.768506212678025
      ],
      [
        "орт",
        -8.77179324888228
      ],
      [
        "все",
        -8.772798678730165
      ],
      [
        "подтвердил",
        -8.773375739446466
      ],
      [
        "партии",
        -8.773647446427098
      ],
      [
        "участи",
        -8.779938825106045
      ],
      [
        "подобны",
        -8.781102921894313
      ],
      [
        "продаж",
        -8.783241750717883
      ],
      [
        "вших",
        -8.78345748284011
      ],
      [
        "адвокат",
        -8.784545384889721
      ],
      [
        "еся",
        -8.784915964426988
      ],
      [
        "выплат",
        -8.788054547181568
      ],
      [
        "генерального",
        -8.789217774270607
      ],
      [
        "специалисты",
        -8.790758499479049
      ],
      [
        "стоит",
        -8.790881282084753
      ],
      [
        "территорию",
        -8.791697260979987
      ],
      [
        "пострадал",
        -8.791787640525765
      ],
      [
        "ситуаци",
        -8.792100492412182
      ],
      [
        "государственн",
        -8.795300456932253
      ],
      [
        "создан",
        -8.7963002825724
      ],
      [
        "границы",
        -8.797370826769738
      ],
      [
        "одном",
        -8.797575548250778
      ],
      [
        "дпр",
        -8.79766905840285
      ],
      [
        "состояние",
        -8.798223350005651
      ],
      [
        "международно",
        -8.801168426157474
      ],
      [
        "движение",
        -8.805806489425994
      ],
      [
        "ex",
        -8.806081372023954
      ],
      [
        "хотя",
        -8.806576829020837
      ],
      [
        "квартир",
        -8.8073707588574
      ],
      [
        "заявлени",
        -8.809490738784236
      ],
      [
        "отставк",
        -8.80963038733948
      ],
      [
        "отечеств",
        -8.809852179748605
      ],
      [
        "затем",
        -8.81360240070209
      ],
      [
        "договора",
        -8.814768188152183
      ],
      [
        "пассажир",
        -8.816687749917088
      ],
      [
        "границ",
        -8.817567556910845
      ],
      [
        "дней",
        -8.818345800136125
      ],
      [
        "работа",
        -8.819391493277019
      ],
      [
        "направлен",
        -8.819809509712364
      ],
      [
        "ным",
        -8.81988275371882
      ],
      [
        "торгов",
        -8.824164462523697
      ],
      [
        "o",
        -8.824856341284582
      ],
      [
        "ков",
        -8.827401900850928
      ],
      [
        "проверки",
        -8.827485236950668
      ],
      [
        "те",
        -8.830456183078741
      ],
      [
        "отмечает",
        -8.830716992883167
      ],
      [
        "решения",
        -8.83089486138671
      ],
      [
        "большинство",
        -8.831042439133888
      ],
      [
        "грузи",
        -8.831332907289319
      ],
      [
        "станет",
        -8.831988567486611
      ],
      [
        "сети",
        -8.833107330430433
      ],
      [
        "или",
        -8.833177229292229
      ],
      [
        "ном",
        -8.833301272118495
      ],
      [
        "m",
        -8.833383286662922
      ],
      [
        "выбора",
        -8.835490178677492
      ],
      [
        "бывшего",
        -8.835615007718916
      ],
      [
        "ло",
        -8.835663287370501
      ],
      [
        "речь",
        -8.835816011444793
      ],
      [
        "ись",
        -8.836011571282514
      ],
      [
        "одним",
        -8.836258093158367
      ],
      [
        "доме",
        -8.83910622811282
      ],
      [
        "таки",
        -8.839861617047404
      ],
      [
        "ти",
        -8.840201287035356
      ],
      [
        "международного",
        -8.840231567955575
      ],
      [
        "мч",
        -8.84347021475817
      ],
      [
        "начальника",
        -8.843675623116255
      ],
      [
        "бомб",
        -8.844264495711013
      ],
      [
        "постановление",
        -8.844522451355349
      ],
      [
        "уголовное",
        -8.846113621042317
      ],
      [
        "создани",
        -8.847091407096787
      ],
      [
        "назвал",
        -8.849515310366824
      ],
      [
        "здание",
        -8.849876285169808
      ],
      [
        "госдум",
        -8.850160995331454
      ],
      [
        "завод",
        -8.851309657569189
      ],
      [
        "верси",
        -8.852691691699913
      ],
      [
        "soft",
        -8.855102059381355
      ],
      [
        "аются",
        -8.856915921018011
      ],
      [
        "обеспечени",
        -8.857215999118361
      ],
      [
        "поддержк",
        -8.857264687276885
      ],
      [
        "директора",
        -8.857385452105241
      ],
      [
        "заявление",
        -8.85790340299733
      ],
      [
        "лица",
        -8.85949385461332
      ],
      [
        "прибыл",
        -8.859544303875717
      ],
      [
        "процесс",
        -8.860018415730806
      ],
      [
        "ущерб",
        -8.860149201613524
      ],
      [
        "вновь",
        -8.860264272002649
      ],
      [
        "ing",
        -8.861464556764243
      ],
      [
        "вокруг",
        -8.863699442435514
      ],
      [
        "чечне",
        -8.86929207302728
      ],
      [
        "кой",
        -8.871499159614395
      ],
      [
        "развити",
        -8.87296206360033
      ],
      [
        "станции",
        -8.873410178014547
      ],
      [
        "факт",
        -8.875736210066378
      ],
      [
        "возможност",
        -8.876176920493684
      ],
      [
        "час",
        -8.87623669124483
      ],
      [
        "готов",
        -8.877510651600808
      ],
      [
        "неделе",
        -8.879508414641197
      ],
      [
        ">\"",
        -8.88045635218604
      ],
      [
        "призыв",
        -8.880546193835967
      ],
      [
        "реду",
        -8.882211929553025
      ],
      [
        "войска",
        -8.883180083078983
      ],
      [
        "прошло",
        -8.883189137434645
      ],
      [
        "власт",
        -8.883243335112962
      ],
      [
        "ком",
        -8.884761531322667
      ],
      [
        "стоимость",
        -8.886328356129503
      ],
      [
        "ях",
        -8.886649180138779
      ],
      [
        "отмывани",
        -8.890264679902149
      ],
      [
        "правительств",
        -8.890652070448132
      ],
      [
        "русски",
        -8.89097243682292
      ],
      [
        "километра",
        -8.891157443045461
      ],
      [
        "международных",
        -8.892079777043788
      ],
      [
        "законодательств",
        -8.89211618027763
      ],
      [
        "ились",
        -8.892547911494706
      ],
      [
        "таких",
        -8.893103893651201
      ],
      [
        "вчера",
        -8.894631215347511
      ],
      [
        "фирмы",
        -8.895041625445167
      ],
      [
        "сут",
        -8.898853193739555
      ],
      [
        "инцидент",
        -8.899086067517416
      ],
      [
        "истори",
        -8.90192263343071
      ],
      [
        "le",
        -8.902659641323726
      ],
      [
        "япони",
        -8.903924543183296
      ],
      [
        "просто",
        -8.905731262585217
      ],
      [
        "государственно",
        -8.906038785295227
      ],
      [
        "корпорации",
        -8.906962082883249
      ],
      [
        "передает",
        -8.907475243156735
      ],
      [
        "газ",
        -8.908896062512596
      ],
      [
        "тонн",
        -8.910202651786474
      ],
      [
        "com",
        -8.91071649325404
      ],
      [
        "reu",
        -8.912118598793256
      ],
      [
        "ters",
        -8.912322431900565
      ],
      [
        "эс",
        -8.912611880220247
      ],
      [
        "поэтому",
        -8.913305962287875
      ],
      [
        "метров",
        -8.913779615532947
      ],
      [
        "нефть",
        -8.91657371017931
      ],
      [
        "списка",
        -8.917053575817327
      ],
      [
        "ост",
        -8.919420040601572
      ],
      [
        "официальны",
        -8.922412780029427
      ],
      [
        "политическо",
        -8.923579239210081
      ],
      [
        "северо",
        -8.924105081426442
      ],
      [
        "участник",
        -8.924167552827363
      ],
      [
        "права",
        -8.924520759774337
      ],
      [
        "же",
        -8.927392687291551
      ],
      [
        "авари",
        -8.928866475426773
      ],
      [
        "казахстан",
        -8.929969407157802
      ],
      [
        "выразил",
        -8.931420789399468
      ],
      [
        "топлив",
        -8.934305226141605
      ],
      [
        "ения",
        -8.93457243839251
      ],
      [
        "евро",
        -8.935027555689668
      ],
      [
        "прошл",
        -8.935056031240904
      ],
      [
        "состоя",
        -8.938676799794756
      ],
      [
        "закона",
        -8.938864519874384
      ],
      [
        "период",
        -8.939170222635184
      ],
      [
        "характер",
        -8.939680458746611
      ],
      [
        "недавн",
        -8.940757892970046
      ],
      [
        "micro",
        -8.94187277517047
      ],
      [
        "комитет",
        -8.942668677443447
      ],
      [
        "вооруженных",
        -8.943170648648364
      ],
      [
        "выставк",
        -8.943747607030076
      ],
      [
        "созда",
        -8.945242691426017
      ],
      [
        "использование",
        -8.947554775971597
      ],
      [
        "бюджета",
        -8.948609489483044
      ],
      [
        "составил",
        -8.950199988714127
      ],
      [
        "регион",
        -8.950836494367032
      ],
      [
        "конституци",
        -8.952415487700152
      ],
      [
        "f",
        -8.955421860457538
      ],
      [
        "де",
        -8.959009150660398
      ],
      [
        "национальной",
        -8.96016246516595
      ],
      [
        "сообщения",
        -8.960259407348719
      ],
      [
        "адрес",
        -8.960291623785407
      ],
      [
        "бин",
        -8.960876023678011
      ],
      [
        "предприяти",
        -8.963892209932796
      ],
      [
        "штаба",
        -8.964887045768794
      ],
      [
        "александра",
        -8.965006075025597
      ],
      [
        "площад",
        -8.965038982261873
      ],
      [
        "рушайло",
        -8.966910200762435
      ],
      [
        "аэрофлот",
        -8.966915230972543
      ],
      [
        "промышленност",
        -8.968144738206298
      ],
      [
        "ново",
        -8.969268651658325
      ],
      [
        "московском",
        -8.970818374338315
      ],
      [
        "две",
        -8.971087559460454
      ],
      [
        "ночь",
        -8.972064901711681
      ],
      [
        "ингушетии",
        -8.97218530514489
      ],
      [
        "ась",
        -8.974217542999673
      ],
      [
        ";",
        -8.975054240951678
      ],
      [
        "трое",
        -8.976433668124953
      ],
      [
        "бизнес",
        -8.979969611995418
      ],
      [
        "b",
        -8.980004973021973
      ],
      [
        "соглашение",
        -8.98184208669994
      ],
      [
        "школ",
        -8.98258827384474
      ],
      [
        "тысячи",
        -8.982769680839993
      ],
      [
        "буйнакск",
        -8.983551837207937
      ],
      [
        "попытк",
        -8.985911034035425
      ],
      [
        "пожар",
        -8.987575934675409
      ],
      [
        "g",
        -8.988904631083242
      ],
      [
        "всей",
        -8.989293502486941
      ],
      [
        "выход",
        -8.989442100406606
      ],
      [
        "контроль",
        -8.990749375889127
      ],
      [
        "миссии",
        -8.991572223116533
      ],
      [
        "нам",
        -8.994095633565955
      ],
      [
        "пиночет",
        -8.995482195301257
      ],
      [
        "телевидени",
        -8.995483681350114
      ],
      [
        "кампани",
        -8.997067932892637
      ],
      [
        "терроризмом",
        -8.997685645796858
      ],
      [
        "пять",
        -8.99932407560383
      ],
      [
        "белоруссии",
        -9.000738681894603
      ],
      [
        "спецслужб",
        -9.000922720997696
      ],
      [
        "руководства",
        -9.001304308671871
      ],
      [
        "союз",
        -9.001696232958894
      ],
      [
        "своим",
        -9.002608108436192
      ],
      [
        "гражданин",
        -9.002682093763823
      ],
      [
        "associate",
        -9.007271301617573
      ],
      [
        "другим",
        -9.007306867931407
      ],
      [
        "эхо",
        -9.009785265620582
      ],
      [
        "инди",
        -9.010046607859746
      ],
      [
        "сих",
        -9.011957235223267
      ],
      [
        "подразделения",
        -9.012993924083688
      ],
      [
        "больниц",
        -9.01510004893928
      ],
      [
        "отношения",
        -9.016540649569682
      ],
      [
        "налогов",
        -9.017812581910528
      ],
      [
        "k",
        -9.018820598290073
      ],
      [
        "четыре",
        -9.019021490270482
      ],
      [
        "горбачев",
        -9.020096832208065
      ],
      [
        "фирм",
        -9.02031237694959
      ],
      [
        "махи",
        -9.020392181967997
      ],
      [
        "транспорт",
        -9.021427326620273
      ],
      [
        "аэропорт",
        -9.022019396848105
      ],
      [
        "остальны",
        -9.022050684252088
      ],
      [
        "имя",
        -9.022863775096297
      ],
      [
        "органам",
        -9.025256985152417
      ],
      [
        "было",
        -9.025555096568471
      ],
      [
        "арест",
        -9.025884599595916
      ],
      [
        "километров",
        -9.02625701458346
      ],
      [
        "ских",
        -9.026412372570933
      ],
      [
        "поводу",
        -9.026626146750338
      ],
      [
        "со",
        -9.027179360179888
      ],
      [
        "уровне",
        -9.027232958927932
      ],
      [
        "государств",
        -9.028391457286135
      ],
      [
        "семенов",
        -9.028430604786898
      ],
      [
        "кредита",
        -9.029024251579065
      ],
      [
        "принят",
        -9.029150925640149
      ],
      [
        "задач",
        -9.02930076047189
      ],
      [
        "боевых",
        -9.030549923995661
      ],
      [
        "условиях",
        -9.031596901222523
      ],
      [
        "специально",
        -9.032299900646219
      ],
      [
        "проекта",
        -9.033488857312584
      ],
      [
        "назначени",
        -9.034289007682181
      ],
      [
        "восточном",
        -9.03495729555971
      ],
      [
        "собира",
        -9.03580448830456
      ],
      [
        "культур",
        -9.035933059440218
      ],
      [
        "москву",
        -9.036604883079418
      ],
      [
        "совместно",
        -9.03725662311936
      ],
      [
        "прокурор",
        -9.03728993889645
      ],
      [
        "свой",
        -9.037392314093882
      ],
      [
        "разработк",
        -9.038090286290345
      ],
      [
        "им",
        -9.038521572830533
      ],
      [
        "порядка",
        -9.041834143291434
      ],
      [
        "связь",
        -9.042299755619933
      ],
      [
        "ников",
        -9.043485099577762
      ],
      [
        "законопроект",
        -9.045600527724654
      ],
      [
        "санк",
        -9.04622556184961
      ],
      [
        "конкретны",
        -9.047342807577953
      ],
      [
        "ению",
        -9.049256765122301
      ],
      [
        "система",
        -9.049780307106696
      ],
      [
        "встрече",
        -9.052351300261474
      ],
      [
        "признал",
        -9.054998041619944
      ],
      [
        "?",
        -9.055196420323044
      ],
      [
        "ссср",
        -9.055304553741706
      ],
      [
        "пояснил",
        -9.05677310246713
      ],
      [
        "согласи",
        -9.05826357799182
      ],
      [
        "выпуск",
        -9.058802057912475
      ],
      [
        "основном",
        -9.059424639682515
      ],
      [
        "ночью",
        -9.060054230026557
      ],
      [
        "мере",
        -9.06013391246168
      ],
      [
        "расследования",
        -9.061285919120511
      ],
      [
        "государственного",
        -9.062413707873734
      ],
      [
        "продолжают",
        -9.06244327093837
      ],
      [
        "выступа",
        -9.062706939672651
      ],
      [
        "края",
        -9.06354595373727
      ],
      [
        "ответственност",
        -9.06410604834338
      ],
      [
        "серьезно",
        -9.06566486436633
      ],
      [
        "следствие",
        -9.068452212023294
      ],
      [
        "союза",
        -9.068495100534665
      ],
      [
        "федеральной",
        -9.069491318258752
      ],
      [
        "этом",
        -9.069606130668184
      ],
      [
        "компани",
        -9.069934963454552
      ],
      [
        "for",
        -9.069936436242237
      ],
      [
        "прокуратуры",
        -9.071402339222486
      ],
      [
        "экспорт",
        -9.072841958486123
      ],
      [
        "заложник",
        -9.073257019516614
      ],
      [
        "пред",
        -9.073503546719323
      ],
      [
        "которую",
        -9.073709408271654
      ],
      [
        "месяца",
        -9.07734739667586
      ],
      [
        "землетрясени",
        -9.077800456527097
      ],
      [
        "рубеж",
        -9.079247325582699
      ],
      [
        "представителя",
        -9.079892344451709
      ],
      [
        "самом",
        -9.08037114866761
      ],
      [
        "серьезны",
        -9.082639909071887
      ],
      [
        "думы",
        -9.082681144982091
      ],
      [
        "ают",
        -9.083358653521103
      ],
      [
        "введен",
        -9.08367470634052
      ],
      [
        "шоссе",
        -9.086449466871697
      ],
      [
        "mab",
        -9.086547998200738
      ],
      [
        "ожидается",
        -9.08764723867259
      ],
      [
        "чечн",
        -9.090337726683686
      ],
      [
        "ец",
        -9.090796159294372
      ],
      [
        "ыми",
        -9.091415107313683
      ],
      [
        "само",
        -9.091526344323942
      ],
      [
        "стици",
        -9.091919590341
      ],
      [
        "одновременно",
        -9.093342622080819
      ],
      [
        "наш",
        -9.094602876887894
      ],
      [
        "военного",
        -9.094814234513834
      ],
      [
        "защиты",
        -9.095538955956126
      ],
      [
        "министерств",
        -9.09593563693485
      ],
      [
        "ст",
        -9.095968820484794
      ],
      [
        "автомобиле",
        -9.097757848491604
      ],
      [
        "голосов",
        -9.099829633891977
      ],
      [
        "общественно",
        -9.101101973002653
      ],
      [
        "московской",
        -9.104699676032274
      ],
      [
        "охран",
        -9.104896698276102
      ],
      [
        "енег",
        -9.105028722146281
      ],
      [
        "гося",
        -9.109620938285238
      ],
      [
        "делегаци",
        -9.109982890515653
      ],
      [
        "положение",
        -9.110505877587418
      ],
      [
        "германи",
        -9.11177524672142
      ],
      [
        "ракет",
        -9.114781797283964
      ],
      [
        "слова",
        -9.115021475892235
      ],
      [
        "ось",
        -9.11620619287693
      ],
      [
        "обвинения",
        -9.118131417072687
      ],
      [
        "экс",
        -9.119233822406066
      ],
      [
        "восток",
        -9.121019236482008
      ],
      [
        "зад",
        -9.121641780363504
      ],
      [
        "bb",
        -9.122596550815592
      ],
      [
        "декабря",
        -9.123189646197076
      ],
      [
        "финансовых",
        -9.124215710062812
      ],
      [
        "россией",
        -9.126069265379773
      ],
      [
        "разговор",
        -9.127868583013157
      ],
      [
        "шаг",
        -9.129840568762685
      ],
      [
        "автобус",
        -9.129922912647718
      ],
      [
        "провел",
        -9.130122427826766
      ],
      [
        "особо",
        -9.130738300282585
      ],
      [
        "уничтожен",
        -9.131690762413319
      ],
      [
        "источников",
        -9.131969350478673
      ],
      [
        "состоянии",
        -9.132051079474174
      ],
      [
        "l",
        -9.132341008175247
      ],
      [
        "ие",
        -9.132482384710976
      ],
      [
        "группировк",
        -9.133032905455417
      ],
      [
        "пострадавшим",
        -9.133483982219305
      ],
      [
        "телекомпани",
        -9.133867360093372
      ],
      [
        "крайне",
        -9.13474465050695
      ],
      [
        "незаконно",
        -9.134854809565114
      ],
      [
        "вод",
        -9.135051090268057
      ],
      [
        "европе",
        -9.135358615781655
      ],
      [
        "связанны",
        -9.136267600140377
      ],
      [
        "журналист",
        -9.138266172334227
      ],
      [
        "направил",
        -9.13949380925227
      ],
      [
        "иться",
        -9.140418053702694
      ],
      [
        "тяжело",
        -9.14064959279269
      ],
      [
        "ри",
        -9.141036243832689
      ],
      [
        "основ",
        -9.143186868179084
      ],
      [
        "информация",
        -9.14474954497187
      ],
      [
        "кажды",
        -9.145586769852477
      ],
      [
        "рынка",
        -9.145946418280447
      ],
      [
        "предприятия",
        -9.147309530926792
      ],
      [
        "найден",
        -9.147422548155285
      ],
      [
        "утра",
        -9.14799402744585
      ],
      [
        ">:",
        -9.14839754378755
      ],
      [
        "бензин",
        -9.15031024425351
      ],
      [
        "сведения",
        -9.15035860828838
      ],
      [
        "минувш",
        -9.15142455215303
      ],
      [
        "находился",
        -9.152290591187786
      ],
      [
        "подписан",
        -9.152742585039887
      ],
      [
        "совещани",
        -9.152843739959495
      ],
      [
        "необходимости",
        -9.153741909145207
      ],
      [
        "али",
        -9.153842712975772
      ],
      [
        "основани",
        -9.153964536907159
      ],
      [
        "ятся",
        -9.154814216431525
      ],
      [
        "сам",
        -9.155510288111799
      ],
      [
        "чеченской",
        -9.155563001913336
      ],
      [
        "достаточно",
        -9.155655259560529
      ],
      [
        "внимание",
        -9.157041257202405
      ],
      [
        "билл",
        -9.157400168759954
      ],
      [
        "первого",
        -9.157402971800293
      ],
      [
        "да",
        -9.158091047904197
      ],
      [
        "вызвал",
        -9.158355236982143
      ],
      [
        "занима",
        -9.159268706423614
      ],
      [
        "агентств",
        -9.159274438192018
      ],
      [
        "северном",
        -9.160150920873935
      ],
      [
        "ии",
        -9.16019879134125
      ],
      [
        "турции",
        -9.160500223817607
      ],
      [
        "свобод",
        -9.160786176148099
      ],
      [
        "кита",
        -9.161083527965836
      ],
      [
        "ит",
        -9.161481420219923
      ],
      [
        "британски",
        -9.163253194007174
      ],
      [
        "самым",
        -9.164516318276114
      ],
      [
        "аться",
        -9.16643449137602
      ],
      [
        "генеральны",
        -9.170569444778701
      ],
      [
        "вывод",
        -9.170927104792755
      ],
      [
        "большой",
        -9.171109693047597
      ],
      [
        "ation",
        -9.172836017234545
      ],
      [
        "поиск",
        -9.173391776599091
      ],
      [
        "приняли",
        -9.17375844405508
      ],
      [
        "ными",
        -9.174100328163219
      ],
      [
        "половин",
        -9.175793889342547
      ],
      [
        "обрати",
        -9.176822559015891
      ],
      [
        "ре",
        -9.178654257587135
      ],
      [
        "оружие",
        -9.179401269466032
      ],
      [
        "фонд",
        -9.179598587020847
      ],
      [
        "ранения",
        -9.182594663565538
      ],
      [
        "нем",
        -9.18395054294999
      ],
      [
        "институт",
        -9.184229245644087
      ],
      [
        "ты",
        -9.184359550201599
      ],
      [
        "отчет",
        -9.18445325036208
      ],
      [
        "способ",
        -9.18471646468235
      ],
      [
        "радио",
        -9.184813169642819
      ],
      [
        "имеют",
        -9.185378224848039
      ],
      [
        "международным",
        -9.186873013096491
      ],
      [
        "зарплат",
        -9.187184314382641
      ],
      [
        "солдат",
        -9.187333661413914
      ],
      [
        "включая",
        -9.18763911673556
      ],
      [
        "села",
        -9.187956682413159
      ],
      [
        "происшествия",
        -9.188971188710767
      ],
      [
        "ядерных",
        -9.18934428572735
      ],
      [
        "зон",
        -9.18966924014165
      ],
      [
        "различных",
        -9.189755006685349
      ],
      [
        "николай",
        -9.190880385717598
      ],
      [
        "поступил",
        -9.191037341127501
      ],
      [
        "летний",
        -9.19228815174366
      ],
      [
        "оперативно",
        -9.192981313115371
      ],
      [
        "корпораци",
        -9.193453021855797
      ],
      [
        "сумма",
        -9.194035099481221
      ],
      [
        "уверен",
        -9.194337574957903
      ],
      [
        "жители",
        -9.194359595430813
      ],
      [
        "позволит",
        -9.19527804882339
      ],
      [
        "баз",
        -9.195334635325997
      ],
      [
        "избирательн",
        -9.195435856095829
      ],
      [
        "оно",
        -9.195823517847963
      ],
      [
        "одна",
        -9.196011511730372
      ],
      [
        "врач",
        -9.1968287833915
      ],
      [
        "выборы",
        -9.196994999234862
      ],
      [
        "продолжает",
        -9.197147203378693
      ],
      [
        "кредит",
        -9.197595120115565
      ],
      [
        "предполага",
        -9.197634020225713
      ],
      [
        "доллара",
        -9.199594697560656
      ],
      [
        "европ",
        -9.20091359203873
      ],
      [
        "рост",
        -9.202857500907406
      ],
      [
        "событи",
        -9.203636975612959
      ],
      [
        "парламента",
        -9.204933692072444
      ],
      [
        "овать",
        -9.205260434420508
      ],
      [
        "газа",
        -9.205575801095971
      ],
      [
        "разу",
        -9.206324231626175
      ],
      [
        "службе",
        -9.209747890234363
      ],
      [
        "пользовател",
        -9.21082065691576
      ],
      [
        "республике",
        -9.211031006132046
      ],
      [
        "ности",
        -9.21185566975183
      ],
      [
        "катастроф",
        -9.21278357109775
      ],
      [
        "женщин",
        -9.212811094362634
      ],
      [
        "наза",
        -9.214385110018924
      ],
      [
        "техник",
        -9.214814285553517
      ],
      [
        "ирак",
        -9.215135033929354
      ],
      [
        "публикаци",
        -9.217014148886054
      ],
      [
        "сильно",
        -9.218034231261663
      ],
      [
        "восточн",
        -9.219950191795215
      ],
      [
        "угроз",
        -9.221175560605392
      ],
      [
        "защит",
        -9.221258959012081
      ],
      [
        "$",
        -9.22223486250748
      ],
      [
        "генпрокурор",
        -9.22227018452152
      ],
      [
        "ен",
        -9.222275133191784
      ],
      [
        "нескольких",
        -9.222408609047394
      ],
      [
        "in",
        -9.222598338971773
      ],
      [
        "борту",
        -9.222742852429672
      ],
      [
        "комбинат",
        -9.223613038911944
      ],
      [
        "положения",
        -9.223870809676685
      ],
      [
        "ндр",
        -9.224674375367258
      ],
      [
        "центральной",
        -9.225548381748963
      ],
      [
        "доклад",
        -9.227764380620966
      ],
      [
        "парламент",
        -9.227847738019493
      ],
      [
        "представляет",
        -9.22829345670528
      ],
      [
        "самолета",
        -9.22903869988264
      ],
      [
        "информационно",
        -9.230745097691255
      ],
      [
        "сообщают",
        -9.23133531259793
      ],
      [
        "учены",
        -9.231679635761871
      ],
      [
        "указал",
        -9.231721309202188
      ],
      [
        "американским",
        -9.231843649577243
      ],
      [
        "основе",
        -9.23233121305066
      ],
      [
        "операция",
        -9.232434311093025
      ],
      [
        "освобождени",
        -9.234350604177658
      ],
      [
        "ошибк",
        -9.234778365485663
      ],
      [
        "пер",
        -9.236120777899874
      ],
      [
        "виде",
        -9.23699333180345
      ],
      [
        "первом",
        -9.237138592737246
      ],
      [
        "be",
        -9.241911916198655
      ],
      [
        "запрет",
        -9.242428097008249
      ],
      [
        "швейцари",
        -9.242502327574254
      ],
      [
        "недели",
        -9.244284792978716
      ],
      [
        "региона",
        -9.244744413332107
      ],
      [
        "руководителе",
        -9.245649365369436
      ],
      [
        "сегодняшне",
        -9.245959893619956
      ],
      [
        "действительно",
        -9.249911981240384
      ],
      [
        "сообщение",
        -9.250086844136826
      ],
      [
        "спасател",
        -9.25217980118135
      ],
      [
        "больш",
        -9.252902642925548
      ],
      [
        "новы",
        -9.254281831135767
      ],
      [
        "значительно",
        -9.255729937393951
      ],
      [
        "для",
        -9.255901157822672
      ],
      [
        "штата",
        -9.255933947651595
      ],
      [
        "использовать",
        -9.256075303128789
      ],
      [
        "терроризм",
        -9.256673496700055
      ],
      [
        "печат",
        -9.259032385398752
      ],
      [
        "—",
        -9.259271899544519
      ],
      [
        "подписал",
        -9.26088400953266
      ],
      [
        "напомнил",
        -9.261617627911821
      ],
      [
        "ник",
        -9.263073292276076
      ],
      [
        "такое",
        -9.263617125750802
      ],
      [
        "проведения",
        -9.26570425592646
      ],
      [
        "ведется",
        -9.268511660725235
      ],
      [
        "вс",
        -9.268552324838831
      ],
      [
        "бориса",
        -9.270997464674993
      ],
      [
        "непосредственно",
        -9.27210242465999
      ],
      [
        "передач",
        -9.272924279838284
      ],
      [
        "розыск",
        -9.27584164946391
      ],
      [
        "порядк",
        -9.277367918343137
      ],
      [
        "коре",
        -9.277830345112557
      ],
      [
        "австрали",
        -9.278384806694994
      ],
      [
        "банки",
        -9.279177389495173
      ],
      [
        "весь",
        -9.282622464227693
      ],
      [
        "акционер",
        -9.28316185218686
      ],
      [
        "лиш",
        -9.28392462666371
      ],
      [
        "басаев",
        -9.284146410870292
      ],
      [
        "ма",
        -9.286378210521772
      ],
      [
        "часа",
        -9.286462131173352
      ],
      [
        "есть",
        -9.286807222799823
      ],
      [
        "встреча",
        -9.286935224827165
      ],
      [
        "особенно",
        -9.28719072251421
      ],
      [
        "ает",
        -9.287227526598016
      ],
      [
        "вопросам",
        -9.287507833264566
      ],
      [
        "проведен",
        -9.288612795020201
      ],
      [
        "вирус",
        -9.290102817181376
      ],
      [
        "раис",
        -9.290668032214052
      ],
      [
        "нынешне",
        -9.29140681780244
      ],
      [
        "орбит",
        -9.293902241061932
      ],
      [
        "европейски",
        -9.293943105334714
      ],
      [
        "условия",
        -9.295807848533684
      ],
      [
        "вся",
        -9.296698369964552
      ],
      [
        "снова",
        -9.296793408668531
      ],
      [
        "доставлен",
        -9.297011287213643
      ],
      [
        "йти",
        -9.297449799479907
      ],
      [
        "селезнев",
        -9.297733450659653
      ],
      [
        "пентагон",
        -9.297733467500734
      ],
      [
        "степашин",
        -9.297734003184386
      ],
      [
        "обстановк",
        -9.297739331288598
      ],
      [
        "the",
        -9.297758966882812
      ],
      [
        "чабан",
        -9.297768274218782
      ],
      [
        "примаков",
        -9.297948924856772
      ],
      [
        "избирателей",
        -9.298072402924006
      ],
      [
        "оборудования",
        -9.298373591864824
      ],
      [
        "месяц",
        -9.298411429698028
      ],
      [
        "совершен",
        -9.29841333078496
      ],
      [
        "нефтепродукт",
        -9.298621302270725
      ],
      [
        "следствия",
        -9.298940612066179
      ],
      [
        "киргизии",
        -9.299101023427355
      ],
      [
        "главно",
        -9.299246714052462
      ],
      [
        "выступил",
        -9.30085163643814
      ],
      [
        "крупнейших",
        -9.301011568268997
      ],
      [
        "ноября",
        -9.30112459192743
      ],
      [
        "офис",
        -9.302753084625452
      ],
      [
        "линии",
        -9.303493764714784
      ],
      [
        "кого",
        -9.30455284723255
      ],
      [
        "западны",
        -9.304658551793283
      ],
      [
        "если",
        -9.305466182877744
      ],
      [
        "самых",
        -9.306083411284563
      ],
      [
        "валют",
        -9.30614739043611
      ],
      [
        "бы",
        -9.306279161392814
      ],
      [
        "создание",
        -9.30628191015228
      ],
      [
        "потер",
        -9.308477649326841
      ],
      [
        "обсуждени",
        -9.308908083234023
      ],
      [
        "четырех",
        -9.309230758678435
      ],
      [
        "рабочи",
        -9.310824358525938
      ],
      [
        "поддержку",
        -9.311139701546427
      ],
      [
        "провинци",
        -9.31139418549308
      ],
      [
        "указ",
        -9.31169131978204
      ],
      [
        "u",
        -9.311828913143566
      ],
      [
        "v",
        -9.312015834607962
      ],
      [
        "боев",
        -9.31210422455151
      ],
      [
        "исключен",
        -9.312377764249907
      ],
      [
        "вклад",
        -9.313156837042524
      ],
      [
        "днем",
        -9.313520408263223
      ],
      [
        "жив",
        -9.313772318503034
      ],
      [
        "люб",
        -9.314645820158269
      ],
      [
        "доступ",
        -9.314655401119005
      ],
      [
        "ались",
        -9.314981741773611
      ],
      [
        "соответствующи",
        -9.315013922867891
      ],
      [
        "перво",
        -9.31574054647847
      ],
      [
        "правительственны",
        -9.31586438004481
      ],
      [
        "прошлом",
        -9.316629827190848
      ],
      [
        "текуще",
        -9.316832205386268
      ],
      [
        "позици",
        -9.318746395201124
      ],
      [
        "банковски",
        -9.318812588460114
      ],
      [
        "запуск",
        -9.319580747616719
      ],
      [
        "голосовани",
        -9.319734657223862
      ],
      [
        "конфликт",
        -9.320160323657728
      ],
      [
        "должности",
        -9.322463726307486
      ],
      [
        "политическ",
        -9.323221529966345
      ],
      [
        "первым",
        -9.3263310308425
      ],
      [
        "боевик",
        -9.326347193961464
      ],
      [
        "ru",
        -9.327542649971692
      ],
      [
        "вший",
        -9.327776366631289
      ],
      [
        "белград",
        -9.328043902169524
      ],
      [
        "обыск",
        -9.328846396668512
      ],
      [
        "тонну",
        -9.329910719784952
      ],
      [
        "метро",
        -9.331748042384845
      ],
      [
        "шой",
        -9.332127322500288
      ],
      [
        "част",
        -9.332521325079313
      ],
      [
        "су",
        -9.333048443198717
      ],
      [
        "друг",
        -9.335130161005509
      ],
      [
        "ряда",
        -9.3354957564686
      ],
      [
        "постоянно",
        -9.335659412773392
      ],
      [
        "интерес",
        -9.335689407166056
      ],
      [
        "команд",
        -9.336709963611819
      ],
      [
        "трагеди",
        -9.337733508511885
      ],
      [
        "флорид",
        -9.337748838643575
      ],
      [
        "добавил",
        -9.338505403287257
      ],
      [
        "прежнему",
        -9.338825824823253
      ],
      [
        "ими",
        -9.339478309173211
      ],
      [
        "уточнил",
        -9.339500838549759
      ],
      [
        "ность",
        -9.339529847801655
      ],
      [
        "предел",
        -9.339563609692213
      ],
      [
        "массово",
        -9.339759395846762
      ],
      [
        "контракт",
        -9.339958886654601
      ],
      [
        "торговл",
        -9.340487014235048
      ],
      [
        "фактически",
        -9.340587356647747
      ],
      [
        "компьютерны",
        -9.341040483117917
      ],
      [
        "сесси",
        -9.34127284591835
      ],
      [
        "сегодняшний",
        -9.34162836962912
      ],
      [
        "nas",
        -9.341808741882234
      ],
      [
        "американские",
        -9.343352964365149
      ],
      [
        "никак",
        -9.34349884226782
      ],
      [
        "делам",
        -9.343773297972541
      ],
      [
        "жил",
        -9.34404878590995
      ],
      [
        "таможенны",
        -9.344538729840409
      ],
      [
        "ос",
        -9.344947865946157
      ],
      [
        "преми",
        -9.345146007419864
      ],
      [
        "w",
        -9.346324686159866
      ],
      [
        "аппарат",
        -9.346328979620875
      ],
      [
        "готовности",
        -9.34660012754605
      ],
      [
        "визит",
        -9.346725592946811
      ],
      [
        "обнаружили",
        -9.346916844913768
      ],
      [
        "берлин",
        -9.347001093611318
      ],
      [
        "наук",
        -9.348001253073212
      ],
      [
        "дет",
        -9.348339896549009
      ],
      [
        "заседание",
        -9.349515638885295
      ],
      [
        "услуг",
        -9.349861906146712
      ],
      [
        "вашингтон",
        -9.349974025959018
      ],
      [
        "север",
        -9.35041070910007
      ],
      [
        "строительств",
        -9.351910601216623
      ],
      [
        "москв",
        -9.352854141945986
      ],
      [
        "границе",
        -9.352921429887868
      ],
      [
        "комиссия",
        -9.354872014729311
      ],
      [
        "финансовой",
        -9.354974834975753
      ],
      [
        "сдела",
        -9.355110226910012
      ],
      [
        "восточной",
        -9.355471722427197
      ],
      [
        "труд",
        -9.357043057637618
      ],
      [
        "содержит",
        -9.35815338942891
      ],
      [
        "конце",
        -9.358580372369454
      ],
      [
        "конца",
        -9.358619065971848
      ],
      [
        "подземны",
        -9.358997946734725
      ],
      [
        "дать",
        -9.359277256171321
      ],
      [
        "бумаг",
        -9.35969686928359
      ],
      [
        "суммы",
        -9.359730075568171
      ],
      [
        "ракеты",
        -9.359982391950629
      ],
      [
        "возможны",
        -9.360933961625676
      ],
      [
        "американск",
        -9.360938619105157
      ],
      [
        "станци",
        -9.361685886125743
      ],
      [
        "побед",
        -9.361853394502269
      ],
      [
        "решил",
        -9.362486328497814
      ],
      [
        "ладен",
        -9.362537609902851
      ],
      [
        "обмен",
        -9.363858988289715
      ],
      [
        "индонезии",
        -9.363988129355917
      ],
      [
        "клиент",
        -9.368994016525013
      ],
      [
        "ша",
        -9.37100465366553
      ],
      [
        "деятельность",
        -9.373020412635679
      ],
      [
        "убит",
        -9.37327034811705
      ],
      [
        "журнал",
        -9.374346998933072
      ],
      [
        "ден",
        -9.374368679792934
      ],
      [
        "погибл",
        -9.376028600397179
      ],
      [
        "готовы",
        -9.376279638329978
      ],
      [
        "курс",
        -9.377129130946496
      ],
      [
        "тел",
        -9.378507869582753
      ],
      [
        "отряд",
        -9.379032960225505
      ],
      [
        "якушкин",
        -9.379400486174179
      ],
      [
        "тюрьм",
        -9.379400592559865
      ],
      [
        "феврал",
        -9.379400719068231
      ],
      [
        "китай",
        -9.379527300886632
      ],
      [
        "березовский",
        -9.380403865351264
      ],
      [
        "госдепартамент",
        -9.38087448686755
      ],
      [
        "анатолий",
        -9.381293060251071
      ],
      [
        "освобожден",
        -9.38169959154785
      ],
      [
        "анти",
        -9.381733468280927
      ],
      [
        "приказ",
        -9.381782973893504
      ],
      [
        "крупных",
        -9.38287015777402
      ],
      [
        "co",
        -9.383278416879108
      ],
      [
        "террористических",
        -9.383281362480922
      ],
      [
        "московско",
        -9.383523936961927
      ],
      [
        "финансировани",
        -9.38391640931287
      ],
      [
        "будет",
        -9.38395889611373
      ],
      [
        "властям",
        -9.38413965646287
      ],
      [
        "страна",
        -9.38438605954111
      ],
      [
        "объект",
        -9.384571033915815
      ],
      [
        "организация",
        -9.38496445020791
      ],
      [
        "возбуждено",
        -9.38626467655066
      ],
      [
        "изменения",
        -9.386341349275215
      ],
      [
        "склад",
        -9.386504473155506
      ],
      [
        "развитие",
        -9.386892161966776
      ],
      [
        "net",
        -9.387608137264976
      ],
      [
        "представительств",
        -9.3877286620416
      ],
      [
        "всего",
        -9.388029843182194
      ],
      [
        "сокращени",
        -9.388665101318132
      ],
      [
        "остров",
        -9.389953012586394
      ],
      [
        "исключает",
        -9.390087423718832
      ],
      [
        "количеств",
        -9.39060776941188
      ],
      [
        "коммерчески",
        -9.391000952656583
      ],
      [
        "разведк",
        -9.391791961850284
      ],
      [
        "последне",
        -9.392384518630777
      ],
      [
        "протеста",
        -9.392523655506878
      ],
      [
        "американской",
        -9.392925327391868
      ],
      [
        "разрушен",
        -9.393370047407725
      ],
      [
        "восстановлени",
        -9.39357306610205
      ],
      [
        "решени",
        -9.394570267844141
      ],
      [
        "рубля",
        -9.394986135909333
      ],
      [
        "цифр",
        -9.39637993490772
      ],
      [
        "реакци",
        -9.396880038365037
      ],
      [
        "нарушения",
        -9.396990067852794
      ],
      [
        "управление",
        -9.397072839970818
      ],
      [
        "мексик",
        -9.398366198179282
      ],
      [
        "холер",
        -9.398617888786962
      ],
      [
        "переход",
        -9.399494064376377
      ],
      [
        "информационны",
        -9.399726617929138
      ],
      [
        "служба",
        -9.400029892682884
      ],
      [
        "рассмотрени",
        -9.400659756546188
      ],
      [
        "хакер",
        -9.401040563839876
      ],
      [
        "деле",
        -9.402668569949096
      ],
      [
        "известны",
        -9.402805226671642
      ],
      [
        "тора",
        -9.403296285470319
      ],
      [
        "северн",
        -9.403981341903261
      ],
      [
        "европейск",
        -9.404008589557423
      ],
      [
        "имени",
        -9.404376181386827
      ],
      [
        "татарстан",
        -9.405370397763873
      ],
      [
        "необходимы",
        -9.40677921800355
      ],
      [
        "нг",
        -9.407198769015633
      ],
      [
        "азербайджан",
        -9.407468863173175
      ],
      [
        "сравн",
        -9.408717639261013
      ],
      [
        "вашингтоне",
        -9.409719422607655
      ],
      [
        "упал",
        -9.410514259009481
      ],
      [
        "вшего",
        -9.411311097587664
      ],
      [
        "получен",
        -9.412076829296884
      ],
      [
        "числа",
        -9.41253300838634
      ],
      [
        "чрезвычайно",
        -9.412711942677406
      ],
      [
        "нных",
        -9.41301308902817
      ],
      [
        "лично",
        -9.413090450660999
      ],
      [
        "отказал",
        -9.413244979634275
      ],
      [
        "террористам",
        -9.413439591614232
      ],
      [
        "проходит",
        -9.413489781871466
      ],
      [
        "вертолет",
        -9.414912687639308
      ],
      [
        "черкесск",
        -9.415048046056564
      ],
      [
        "транснефт",
        -9.417856293161886
      ],
      [
        "неизвестны",
        -9.418275233980395
      ],
      [
        "ведут",
        -9.419259018486922
      ],
      [
        "зам",
        -9.419524369382247
      ],
      [
        "силам",
        -9.419564408187016
      ],
      [
        "рек",
        -9.419761857524865
      ],
      [
        "сфер",
        -9.420129605831852
      ],
      [
        "илась",
        -9.420825032214697
      ],
      [
        "цб",
        -9.421143832269586
      ],
      [
        "борьбы",
        -9.42119819810628
      ],
      [
        "секретаря",
        -9.421275295523891
      ],
      [
        "городско",
        -9.42185782024872
      ],
      [
        "подозреваемы",
        -9.422780811536445
      ],
      [
        "'",
        -9.42287836554229
      ],
      [
        "процедур",
        -9.422878636425079
      ],
      [
        "минимум",
        -9.422880635202109
      ],
      [
        "майор",
        -9.423224651987248
      ],
      [
        "корпус",
        -9.423295694561716
      ],
      [
        "сергея",
        -9.424602006976233
      ],
      [
        "ж",
        -9.424902582685698
      ],
      [
        "прекращени",
        -9.425589056143176
      ],
      [
        "заместителя",
        -9.425740938269996
      ],
      [
        "военнослужащих",
        -9.426052757589009
      ],
      [
        "тариф",
        -9.426495205872392
      ],
      [
        "без",
        -9.427323195474695
      ],
      [
        "может",
        -9.427440121792305
      ],
      [
        "миротворц",
        -9.428018376951064
      ],
      [
        "сможет",
        -9.429269272773627
      ],
      [
        "каких",
        -9.429425430124937
      ],
      [
        "бирже",
        -9.431235943430861
      ],
      [
        "сообщени",
        -9.431800475558232
      ],
      [
        "могли",
        -9.432094152323634
      ],
      [
        "ликвидации",
        -9.432390596825531
      ],
      [
        "ан",
        -9.433133446968373
      ],
      [
        "направлени",
        -9.433627264624308
      ],
      [
        "работает",
        -9.435807298255352
      ],
      [
        "привел",
        -9.436300546278673
      ],
      [
        "итог",
        -9.436338867520782
      ],
      [
        "неизвестно",
        -9.436472457283491
      ],
      [
        "эфире",
        -9.43664823076585
      ],
      [
        "напомни",
        -9.437054039820199
      ],
      [
        "ском",
        -9.437611281321605
      ],
      [
        "бен",
        -9.439571818034935
      ],
      [
        "общества",
        -9.440074876045445
      ],
      [
        "отвеча",
        -9.442984023765263
      ],
      [
        "dow",
        -9.444726792467165
      ],
      [
        "телекоммуникаци",
        -9.444898868416715
      ],
      [
        "силу",
        -9.44577798368577
      ],
      [
        "погиб",
        -9.446122777275637
      ],
      [
        "независимост",
        -9.447967819320954
      ],
      [
        "долга",
        -9.448161610096784
      ],
      [
        "передал",
        -9.448333505023406
      ],
      [
        "успешно",
        -9.448923003091604
      ],
      [
        "израил",
        -9.449150225604772
      ],
      [
        "цело",
        -9.449833932670165
      ],
      [
        "причастност",
        -9.450134299940288
      ],
      [
        "h",
        -9.4502161762216
      ],
      [
        "руководителя",
        -9.451594936593095
      ],
      [
        "испани",
        -9.452364212587916
      ],
      [
        "форм",
        -9.452594660835818
      ],
      [
        "резко",
        -9.45375243163395
      ],
      [
        "получени",
        -9.454128580987309
      ],
      [
        "конференци",
        -9.454280002247707
      ],
      [
        "сайта",
        -9.454375010914509
      ],
      [
        "следующе",
        -9.455544260529146
      ],
      [
        "лидера",
        -9.456534556038305
      ],
      [
        "новом",
        -9.458147401484078
      ],
      [
        "геннади",
        -9.458218844357011
      ],
      [
        "подразделени",
        -9.458361142372054
      ],
      [
        "цена",
        -9.458750613138399
      ],
      [
        "региональны",
        -9.459393276622542
      ],
      [
        "быстро",
        -9.459401168578543
      ],
      [
        "арестован",
        -9.460534029714475
      ],
      [
        "требует",
        -9.461678723066115
      ],
      [
        "наде",
        -9.461714321002482
      ],
      [
        "спутник",
        -9.464099281828569
      ],
      [
        "продукци",
        -9.464422179783863
      ],
      [
        "обратил",
        -9.464779897290562
      ],
      [
        "завода",
        -9.466132260574192
      ],
      [
        "обвинени",
        -9.466709948869639
      ],
      [
        "политических",
        -9.467235224794859
      ],
      [
        "ходят",
        -9.467621707623877
      ],
      [
        "основны",
        -9.468167289456847
      ],
      [
        "позволя",
        -9.468226411275946
      ],
      [
        "батурин",
        -9.46833385003509
      ],
      [
        "кризис",
        -9.468334111922207
      ],
      [
        "суббот",
        -9.46833653459258
      ],
      [
        "переведен",
        -9.468446579909767
      ],
      [
        "сейчас",
        -9.468453435882054
      ],
      [
        "заметил",
        -9.46853829472402
      ],
      [
        "бородин",
        -9.46862746396753
      ],
      [
        "отмеча",
        -9.469122606577939
      ],
      [
        "запас",
        -9.470036667035634
      ],
      [
        "здоровь",
        -9.470044516001305
      ],
      [
        "состоится",
        -9.470173723863914
      ],
      [
        "работают",
        -9.470654481761333
      ],
      [
        "быков",
        -9.470674087314626
      ],
      [
        "окончани",
        -9.470706582783901
      ],
      [
        "авиаци",
        -9.471087416549832
      ],
      [
        "оказать",
        -9.471278536874465
      ],
      [
        "центробанк",
        -9.471580479050498
      ],
      [
        "валерий",
        -9.471973486889992
      ],
      [
        "иванов",
        -9.472860996811656
      ],
      [
        "канала",
        -9.473215794230327
      ],
      [
        "временно",
        -9.473426971807816
      ],
      [
        "заседания",
        -9.473609277505785
      ],
      [
        "точк",
        -9.473675738888218
      ],
      [
        "пришл",
        -9.47444713975929
      ],
      [
        "заказ",
        -9.474675191475505
      ],
      [
        "слушания",
        -9.475143016743791
      ],
      [
        "андрей",
        -9.475449157656133
      ],
      [
        "алексе",
        -9.475813465859117
      ],
      [
        "компенсаци",
        -9.476344875881017
      ],
      [
        "объединения",
        -9.476387942222102
      ],
      [
        "дума",
        -9.4767242112802
      ],
      [
        "предусматривает",
        -9.478902157196892
      ],
      [
        "хся",
        -9.480564788921072
      ],
      [
        "землетрясение",
        -9.481136070629852
      ],
      [
        "стала",
        -9.481223753882519
      ],
      [
        "миротворчески",
        -9.481424398492507
      ],
      [
        "предоставлени",
        -9.481585287505137
      ],
      [
        "энергетик",
        -9.481851475279049
      ],
      [
        "посольства",
        -9.481943361427154
      ],
      [
        "предложение",
        -9.482451937943178
      ],
      [
        "ent",
        -9.482473171392277
      ],
      [
        "преступления",
        -9.482992627621261
      ],
      [
        "ро",
        -9.484268799342232
      ],
      [
        "боевикам",
        -9.484498024824415
      ],
      [
        "поздн",
        -9.4847946065791
      ],
      [
        "режима",
        -9.485224180191185
      ],
      [
        "иск",
        -9.487100799198572
      ],
      [
        "устройство",
        -9.488124143715162
      ],
      [
        "зарегистрирован",
        -9.490519211823772
      ],
      [
        "высоко",
        -9.490678258882227
      ],
      [
        "ью",
        -9.491013981443023
      ],
      [
        "отказа",
        -9.492001434335293
      ],
      [
        "последнее",
        -9.492129417705415
      ],
      [
        "усилия",
        -9.492165524668332
      ],
      [
        "полно",
        -9.49217396445756
      ],
      [
        "кремл",
        -9.493652576617318
      ],
      [
        "ил",
        -9.495030111235918
      ],
      [
        "товар",
        -9.49560913538401
      ],
      [
        "полицейски",
        -9.495984883373588
      ],
      [
        "европейско",
        -9.496298340459795
      ],
      [
        "сел",
        -9.497117592335478
      ],
      [
        "обязанност",
        -9.497721650643717
      ],
      [
        "образовани",
        -9.497829552263415
      ],
      [
        "пошлин",
        -9.499759099208985
      ],
      [
        "главн",
        -9.50066745012347
      ],
      [
        "появи",
        -9.501032254563224
      ],
      [
        "сахалинск",
        -9.501640783298026
      ],
      [
        "пенси",
        -9.50298355731709
      ],
      [
        "большо",
        -9.50320537648095
      ],
      [
        "топ",
        -9.5041892265293
      ],
      [
        "экономически",
        -9.504907220279394
      ],
      [
        "актов",
        -9.505970093122059
      ],
      [
        "подпис",
        -9.506522045556267
      ],
      [
        "люд",
        -9.507595839581391
      ],
      [
        "северно",
        -9.507915123582755
      ],
      [
        "прямо",
        -9.508970556565648
      ],
      [
        "назван",
        -9.50990545321892
      ],
      [
        "самы",
        -9.51081734592058
      ],
      [
        "отделени",
        -9.511217848317495
      ],
      [
        "канал",
        -9.511278875295336
      ],
      [
        "сами",
        -9.511813870095661
      ],
      [
        "енных",
        -9.512235383218579
      ],
      [
        "отказыва",
        -9.512249351148473
      ],
      [
        "дали",
        -9.512319549088085
      ],
      [
        "золото",
        -9.512553903004504
      ],
      [
        "ихся",
        -9.512937978284894
      ],
      [
        "соединенны",
        -9.513069632979281
      ],
      [
        "крупнейше",
        -9.514303074124093
      ],
      [
        "сколько",
        -9.515583739827097
      ],
      [
        "черномырдин",
        -9.515951958629799
      ],
      [
        "референдум",
        -9.515951960064157
      ],
      [
        "волгодонск",
        -9.515952513710968
      ],
      [
        "касьянов",
        -9.51596935873166
      ],
      [
        "нарушени",
        -9.516237129679775
      ],
      [
        "альянс",
        -9.516533083465763
      ],
      [
        "r",
        -9.516783745191823
      ],
      [
        "телеканал",
        -9.517010959168747
      ],
      [
        "административно",
        -9.51819961709084
      ],
      [
        "происходит",
        -9.518480916055449
      ],
      [
        "получит",
        -9.519153566513998
      ],
      [
        "архив",
        -9.519859049970501
      ],
      [
        "исследования",
        -9.520948018098512
      ],
      [
        "запрос",
        -9.522513845707877
      ],
      [
        "ту",
        -9.522823620402907
      ],
      [
        "кар",
        -9.524206476756358
      ],
      [
        "бедстви",
        -9.524386232606568
      ],
      [
        "должност",
        -9.524687885319441
      ],
      [
        "дерев",
        -9.525389353698849
      ],
      [
        "московских",
        -9.526019547981724
      ],
      [
        "сведени",
        -9.527023959613672
      ],
      [
        "суде",
        -9.527350697998546
      ],
      [
        "дни",
        -9.527452906237762
      ],
      [
        "повышение",
        -9.529031631115515
      ],
      [
        "летне",
        -9.530464010304854
      ],
      [
        "нарушение",
        -9.531321514882078
      ],
      [
        "представлен",
        -9.531524202829987
      ],
      [
        "пакистан",
        -9.531870423524358
      ],
      [
        "пяти",
        -9.532541219325305
      ],
      [
        "сеть",
        -9.533098435769928
      ],
      [
        "ста",
        -9.533190455415534
      ],
      [
        "ировать",
        -9.533354211095645
      ],
      [
        "сторонник",
        -9.535113664383495
      ],
      [
        "рыно",
        -9.53527594271743
      ],
      [
        "скую",
        -9.53570654286845
      ],
      [
        "албанц",
        -9.535749700539856
      ],
      [
        "соглашения",
        -9.53615072755473
      ],
      [
        "департамента",
        -9.537144197736797
      ],
      [
        "веществ",
        -9.538253299487469
      ],
      [
        "ip",
        -9.538307612059155
      ],
      [
        "мост",
        -9.538715866146301
      ],
      [
        "дете",
        -9.539547590059525
      ],
      [
        "данном",
        -9.540371587031114
      ],
      [
        "наличи",
        -9.540688485779906
      ],
      [
        "составит",
        -9.542172050515207
      ],
      [
        "ции",
        -9.542192819174593
      ],
      [
        "партия",
        -9.542910306899648
      ],
      [
        "ут",
        -9.543181550807526
      ],
      [
        "утро",
        -9.54322761528272
      ],
      [
        "столь",
        -9.544747276354544
      ],
      [
        "московски",
        -9.545867229800404
      ],
      [
        "вернуть",
        -9.54591903984883
      ],
      [
        "говорить",
        -9.547565059039691
      ],
      [
        "верну",
        -9.547862241282981
      ],
      [
        "очередно",
        -9.548612870743153
      ],
      [
        "здани",
        -9.548678307533509
      ],
      [
        "российско",
        -9.549043668638973
      ],
      [
        "тр",
        -9.5502886874889
      ],
      [
        "существу",
        -9.551158470328144
      ],
      [
        "предотвращени",
        -9.55128449971559
      ],
      [
        "проверк",
        -9.55148074967155
      ],
      [
        "назначен",
        -9.551639736265534
      ],
      [
        "валентин",
        -9.552126233934313
      ],
      [
        "ва",
        -9.552289970617268
      ],
      [
        "er",
        -9.552408772716248
      ],
      [
        "массовы",
        -9.553070592288655
      ],
      [
        "нужно",
        -9.553691449551504
      ],
      [
        "июн",
        -9.555008066655752
      ],
      [
        "ался",
        -9.555025684567937
      ],
      [
        "вышл",
        -9.555135134180208
      ],
      [
        "восточно",
        -9.555616566992985
      ],
      [
        "вызван",
        -9.556288406660485
      ],
      [
        "уничтожени",
        -9.556307203955583
      ],
      [
        "продолжа",
        -9.556613446603377
      ],
      [
        "западно",
        -9.556701279988909
      ],
      [
        "христ",
        -9.557264834457811
      ],
      [
        "минск",
        -9.558152988027764
      ],
      [
        "митинга",
        -9.55996032587874
      ],
      [
        "тому",
        -9.560421079064435
      ],
      [
        "рас",
        -9.561165768708646
      ],
      [
        "национальн",
        -9.561568890036877
      ],
      [
        "необходимость",
        -9.562373111688993
      ],
      [
        "любо",
        -9.563912637915003
      ],
      [
        "производство",
        -9.564745761938376
      ],
      [
        "ход",
        -9.565317396169734
      ],
      [
        "сервер",
        -9.565505335906463
      ],
      [
        "облигаци",
        -9.565796719947624
      ],
      [
        "№",
        -9.565951958615884
      ],
      [
        "реструктуризаци",
        -9.56595297283485
      ],
      [
        "столкновени",
        -9.565956919113919
      ],
      [
        "чиновник",
        -9.5659697000853
      ],
      [
        "апрел",
        -9.566549864859274
      ],
      [
        "контакт",
        -9.566657279649709
      ],
      [
        "океан",
        -9.567141262398625
      ],
      [
        "тюмен",
        -9.567495828870118
      ],
      [
        "станция",
        -9.567711631874298
      ],
      [
        "центрального",
        -9.568061292859428
      ],
      [
        "начинает",
        -9.568972809219886
      ],
      [
        "утечк",
        -9.569115215521418
      ],
      [
        "когда",
        -9.570417727842889
      ],
      [
        "января",
        -9.570549740650026
      ],
      [
        "выдач",
        -9.57103889092504
      ],
      [
        "избран",
        -9.571327531324599
      ],
      [
        "квартире",
        -9.571823027603589
      ],
      [
        "названием",
        -9.573683262603115
      ],
      [
        "большинств",
        -9.574730337067521
      ],
      [
        "состоявше",
        -9.575059059515414
      ],
      [
        "ресурс",
        -9.575668118684252
      ],
      [
        "налоговой",
        -9.575910049967908
      ],
      [
        "кам",
        -9.576023064571336
      ],
      [
        "кфор",
        -9.576241333131055
      ],
      [
        "отделения",
        -9.576922307278409
      ],
      [
        "абсолютно",
        -9.577708068965242
      ],
      [
        "клуб",
        -9.57826975895028
      ],
      [
        "америк",
        -9.578421438673294
      ],
      [
        "населенны",
        -9.578571745718122
      ],
      [
        "гор",
        -9.578776047792582
      ],
      [
        "каса",
        -9.579908552114912
      ],
      [
        "алось",
        -9.580141025951097
      ],
      [
        "туда",
        -9.580310665200496
      ],
      [
        "марк",
        -9.580348358028898
      ],
      [
        "сотн",
        -9.58100339610207
      ],
      [
        "прожива",
        -9.581434107706965
      ],
      [
        "районов",
        -9.581537063146136
      ],
      [
        "ско",
        -9.581908321918585
      ],
      [
        "национальны",
        -9.583678083979688
      ],
      [
        "управлении",
        -9.584281249071534
      ],
      [
        "учреждения",
        -9.584693726380538
      ],
      [
        "дор",
        -9.585492262180878
      ],
      [
        "win",
        -9.585612785976508
      ],
      [
        "сложност",
        -9.58651663391926
      ],
      [
        "платы",
        -9.586747686937759
      ],
      [
        "этого",
        -9.587030610424131
      ],
      [
        "встреч",
        -9.587860510531323
      ],
      [
        "объединение",
        -9.587931697589143
      ],
      [
        "зоне",
        -9.588161387369205
      ],
      [
        "целя",
        -9.58935370802914
      ],
      [
        "предложил",
        -9.590135385643823
      ],
      [
        "убиты",
        -9.59015789000003
      ],
      [
        "подготовлен",
        -9.590510809826455
      ],
      [
        "ладена",
        -9.590986067985279
      ],
      [
        ">)",
        -9.59215235172606
      ],
      [
        "полагаю",
        -9.59257616927123
      ],
      [
        "ази",
        -9.593001217712509
      ],
      [
        "версия",
        -9.593207666838932
      ],
      [
        "активно",
        -9.59341416795566
      ],
      [
        "дьяч",
        -9.594193989370698
      ],
      [
        "закрыты",
        -9.594412077988329
      ],
      [
        "ке",
        -9.596606970822418
      ],
      [
        "доступа",
        -9.59699406332145
      ],
      [
        "сотрудникам",
        -9.598823846771527
      ],
      [
        "настоящи",
        -9.598973614654174
      ],
      [
        "общественны",
        -9.599318877488752
      ],
      [
        "администрация",
        -9.59936615295805
      ],
      [
        "чем",
        -9.6034136287608
      ],
      [
        "открыто",
        -9.603783072717498
      ],
      [
        "ведет",
        -9.60469556502837
      ],
      [
        "полн",
        -9.604875111907205
      ],
      [
        "округ",
        -9.605215717894927
      ],
      [
        "наказани",
        -9.605285341727141
      ],
      [
        "больше",
        -9.605982993784712
      ],
      [
        "председател",
        -9.607166940730108
      ],
      [
        "правления",
        -9.607569453981817
      ],
      [
        "роль",
        -9.607744142726899
      ],
      [
        "текст",
        -9.607767675886706
      ],
      [
        "цел",
        -9.60795027129067
      ],
      [
        "падение",
        -9.608149954766587
      ],
      [
        "/",
        -9.6086299548779
      ],
      [
        "кандидат",
        -9.60981148639339
      ],
      [
        "ссыл",
        -9.60985371952849
      ],
      [
        "обы",
        -9.609858734534253
      ],
      [
        "проголосовал",
        -9.61112885433872
      ],
      [
        "порнографи",
        -9.611851037729586
      ],
      [
        "серб",
        -9.61223721258653
      ],
      [
        "превыша",
        -9.612826713167422
      ],
      [
        "приняла",
        -9.613731392097648
      ],
      [
        "прежде",
        -9.61535427900901
      ],
      [
        "оппозици",
        -9.616207606748581
      ],
      [
        "област",
        -9.61629465567859
      ],
      [
        "перевод",
        -9.617287486215572
      ],
      [
        "случай",
        -9.618540072727559
      ],
      [
        "станислав",
        -9.618584385880446
      ],
      [
        "флойд",
        -9.61858555420639
      ],
      [
        "воздух",
        -9.618590651701945
      ],
      [
        "середин",
        -9.618762339298446
      ],
      [
        "безопасность",
        -9.619893675663285
      ],
      [
        "каширском",
        -9.620257582446216
      ],
      [
        "призвал",
        -9.62034480263489
      ],
      [
        "памят",
        -9.620439653188251
      ],
      [
        "хочет",
        -9.621303774152274
      ],
      [
        "подчеркивает",
        -9.621803839051735
      ],
      [
        "опроверг",
        -9.622341864665806
      ],
      [
        "надежд",
        -9.622444409446121
      ],
      [
        "чтени",
        -9.623359334319002
      ],
      [
        "един",
        -9.623660426112222
      ],
      [
        "обе",
        -9.624128893973834
      ],
      [
        "on",
        -9.624193984580394
      ],
      [
        "лаборатори",
        -9.624234578747563
      ],
      [
        "нефтяной",
        -9.624346420024018
      ],
      [
        "порядо",
        -9.625239708127653
      ],
      [
        "кири",
        -9.625411621586398
      ],
      [
        "ющихся",
        -9.625475847593876
      ],
      [
        "чеченских",
        -9.625846849031996
      ],
      [
        "высказал",
        -9.626502415688403
      ],
      [
        "представителями",
        -9.62694397582468
      ],
      [
        "присутстви",
        -9.627473019090804
      ],
      [
        "мероприятия",
        -9.6278897291585
      ],
      [
        "ое",
        -9.62866445618058
      ],
      [
        "ясно",
        -9.628783213464432
      ],
      [
        "наших",
        -9.628901281650506
      ],
      [
        "торгово",
        -9.62900020044396
      ],
      [
        "экономики",
        -9.629556913779062
      ],
      [
        "опек",
        -9.630471023077384
      ],
      [
        "военным",
        -9.631902342484784
      ],
      [
        "восточны",
        -9.63251688705652
      ],
      [
        "русско",
        -9.63266012096522
      ],
      [
        "след",
        -9.633242641727438
      ],
      [
        "лицензи",
        -9.633745631506022
      ],
      [
        "аслан",
        -9.634997394353118
      ],
      [
        "оценк",
        -9.635130349069946
      ],
      [
        "резерв",
        -9.635286291013742
      ],
      [
        "зрения",
        -9.635296882006335
      ],
      [
        "выполнени",
        -9.635823664234811
      ],
      [
        "завтра",
        -9.636776257141426
      ],
      [
        "здании",
        -9.641329628260378
      ],
      [
        "власть",
        -9.64162953230809
      ],
      [
        "начнет",
        -9.642764376461463
      ],
      [
        "потерял",
        -9.64312015696793
      ],
      [
        "государственны",
        -9.643904302238498
      ],
      [
        "следовател",
        -9.645556252291758
      ],
      [
        "невозможно",
        -9.645921273227007
      ],
      [
        "этап",
        -9.645959385301818
      ],
      [
        "события",
        -9.647288649773971
      ],
      [
        "направления",
        -9.649643460904171
      ],
      [
        "скоро",
        -9.651135322990651
      ],
      [
        "отрица",
        -9.651593362957914
      ],
      [
        "дополнительны",
        -9.651896145506306
      ],
      [
        "проведение",
        -9.652067028347268
      ],
      [
        "платеж",
        -9.65218263927011
      ],
      [
        "курса",
        -9.65388042585712
      ],
      [
        "um",
        -9.653968492760198
      ],
      [
        "нобелевск",
        -9.654644444573112
      ],
      [
        "омон",
        -9.654716924526507
      ],
      [
        "имел",
        -9.65546513454097
      ],
      [
        "mar",
        -9.656053749119316
      ],
      [
        "предыдущи",
        -9.65650138632345
      ],
      [
        "gr",
        -9.657734105760793
      ],
      [
        "одно",
        -9.657950147778028
      ],
      [
        "снижени",
        -9.658485086002711
      ],
      [
        "дан",
        -9.65862223609029
      ],
      [
        "re",
        -9.658690997668604
      ],
      [
        "отдел",
        -9.660537954705026
      ],
      [
        "приняты",
        -9.660934247192333
      ],
      [
        "конц",
        -9.661033964807244
      ],
      [
        "смерт",
        -9.661290453306174
      ],
      [
        "талиб",
        -9.662122790602906
      ],
      [
        "жилых",
        -9.66325013719906
      ],
      [
        "американско",
        -9.663420212569104
      ],
      [
        "находящи",
        -9.663696821481823
      ],
      [
        "мероприяти",
        -9.664394831185257
      ],
      [
        "евгени",
        -9.664887837197423
      ],
      [
        "предложен",
        -9.666272554843625
      ],
      [
        "виз",
        -9.667559316819077
      ],
      [
        "международн",
        -9.668166811654144
      ],
      [
        "народ",
        -9.669773217475306
      ],
      [
        "сахар",
        -9.66991084612108
      ],
      [
        "далек",
        -9.6714134621917
      ],
      [
        "японски",
        -9.672744445541321
      ],
      [
        "госпитализирован",
        -9.674142206045826
      ],
      [
        "space",
        -9.674142909729419
      ],
      [
        "спикер",
        -9.674143337879412
      ],
      [
        "космодром",
        -9.674157980504047
      ],
      [
        "газпром",
        -9.674164014701281
      ],
      [
        "подобн",
        -9.674225362005764
      ],
      [
        "преступностью",
        -9.674289771726897
      ],
      [
        "космос",
        -9.674529762511373
      ],
      [
        "статус",
        -9.674732083609143
      ],
      [
        "открыти",
        -9.674840752124423
      ],
      [
        "боевы",
        -9.67513938698342
      ],
      [
        "сигнал",
        -9.675221788837144
      ],
      [
        "военную",
        -9.675448763449618
      ],
      [
        "нынешни",
        -9.675599425053775
      ],
      [
        "греци",
        -9.675619835147844
      ],
      [
        "ведущих",
        -9.676419385227724
      ],
      [
        "строев",
        -9.676566370043737
      ],
      [
        "восьми",
        -9.676998045243632
      ],
      [
        "устройств",
        -9.677227328893267
      ],
      [
        "российск",
        -9.677921050216321
      ],
      [
        "шенко",
        -9.678445879491846
      ],
      [
        "судьб",
        -9.67868032277402
      ],
      [
        "увеличи",
        -9.67892823719578
      ],
      [
        "оценка",
        -9.678967626458917
      ],
      [
        "десят",
        -9.67917061083651
      ],
      [
        "предложения",
        -9.679293358358436
      ],
      [
        "представител",
        -9.679691447009068
      ],
      [
        "деятельностью",
        -9.680285043448308
      ],
      [
        "генпрокуратуры",
        -9.680401795939636
      ],
      [
        "последним",
        -9.680643570943205
      ],
      [
        "транснефть",
        -9.680699725853128
      ],
      [
        "соглашени",
        -9.68198714611871
      ],
      [
        "уда",
        -9.682029960089961
      ],
      [
        "абхази",
        -9.682390504457391
      ],
      [
        "премию",
        -9.684226334067866
      ],
      [
        "ведомств",
        -9.684416854215899
      ],
      [
        "перед",
        -9.68448419859272
      ],
      [
        "бандформировани",
        -9.6845936897487
      ],
      [
        "юго",
        -9.6851492458001
      ],
      [
        "террористы",
        -9.685502063556486
      ],
      [
        "федеральным",
        -9.685513537885093
      ],
      [
        "международны",
        -9.686380439765081
      ],
      [
        "ран",
        -9.687205813257117
      ],
      [
        "британских",
        -9.687227412222509
      ],
      [
        "автомашин",
        -9.687252821864973
      ],
      [
        "июл",
        -9.687535291211542
      ],
      [
        "экономическ",
        -9.689164877387492
      ],
      [
        "слух",
        -9.689374556668845
      ],
      [
        "опубликован",
        -9.689945321888626
      ],
      [
        "срока",
        -9.690207421462505
      ],
      [
        "распоряжение",
        -9.69030003913468
      ],
      [
        "пути",
        -9.690565321474233
      ],
      [
        "бо",
        -9.690771343441504
      ],
      [
        "заключение",
        -9.691091871662046
      ],
      [
        "существующи",
        -9.692288058394913
      ],
      [
        "британск",
        -9.692472561430318
      ],
      [
        "международный",
        -9.692487672315597
      ],
      [
        "индонези",
        -9.692714929216448
      ],
      [
        "специальн",
        -9.693763923161207
      ],
      [
        "говорят",
        -9.693999389459448
      ],
      [
        "июле",
        -9.69461457837603
      ],
      [
        "выявлен",
        -9.695018018363418
      ],
      [
        "предоставлен",
        -9.695070074224486
      ],
      [
        "дорог",
        -9.695485625417469
      ],
      [
        "судом",
        -9.695966378192642
      ],
      [
        "ак",
        -9.697267461685112
      ],
      [
        "ин",
        -9.698392994284873
      ],
      [
        "добыч",
        -9.698500755455546
      ],
      [
        "август",
        -9.70068651873525
      ],
      [
        "ль",
        -9.701106209556109
      ],
      [
        "самой",
        -9.701134257726673
      ],
      [
        "ег",
        -9.701277663033341
      ],
      [
        "сообщениям",
        -9.701569769434501
      ],
      [
        "кредитов",
        -9.703145608482725
      ],
      [
        "процента",
        -9.703271509577302
      ],
      [
        "учет",
        -9.703532914545002
      ],
      [
        "транша",
        -9.703608309164734
      ],
      [
        "вокзал",
        -9.704416069677144
      ],
      [
        "радиостанции",
        -9.704742078785525
      ],
      [
        "департамент",
        -9.705203405482173
      ],
      [
        "университета",
        -9.706327541776602
      ],
      [
        "ле",
        -9.707194779033664
      ],
      [
        "секретны",
        -9.70839766493421
      ],
      [
        "организован",
        -9.708768088529297
      ],
      [
        "членам",
        -9.71007670261356
      ],
      [
        "икто",
        -9.710247040347785
      ],
      [
        "дает",
        -9.710596527148859
      ],
      [
        "льгот",
        -9.710957791616032
      ],
      [
        "организатор",
        -9.711800329336702
      ],
      [
        "ба",
        -9.711963642131181
      ],
      [
        "раза",
        -9.712816697613015
      ],
      [
        "сама",
        -9.715678319915225
      ],
      [
        "ранен",
        -9.716181916745443
      ],
      [
        "организациям",
        -9.71654242204632
      ],
      [
        "руб",
        -9.718211232362584
      ],
      [
        "законодательство",
        -9.718729901640579
      ],
      [
        "требования",
        -9.719370593594906
      ],
      [
        "друго",
        -9.71991945793064
      ],
      [
        "домен",
        -9.720926692022449
      ],
      [
        "пар",
        -9.721110346696454
      ],
      [
        "соседни",
        -9.7215983045463
      ],
      [
        "определен",
        -9.722023813910852
      ],
      [
        "хорош",
        -9.725138837744282
      ],
      [
        "тв",
        -9.726688823296595
      ],
      [
        "преступлениям",
        -9.727481892911022
      ],
      [
        "войскам",
        -9.72760813151653
      ],
      [
        "информационн",
        -9.727956079087674
      ],
      [
        "ньше",
        -9.72803104394971
      ],
      [
        "эт",
        -9.728211956859322
      ],
      [
        "некоторы",
        -9.730095930712974
      ],
      [
        "вой",
        -9.730241960593936
      ],
      [
        "думаю",
        -9.730280423443283
      ],
      [
        "требуют",
        -9.732001206615665
      ],
      [
        "источника",
        -9.73248950337755
      ],
      [
        "савельев",
        -9.732963797250644
      ],
      [
        "афганистан",
        -9.732964202560204
      ],
      [
        "эвакуаци",
        -9.732984562047777
      ],
      [
        "протокол",
        -9.732992788075682
      ],
      [
        "мазут",
        -9.733044239183549
      ],
      [
        "ства",
        -9.733112600571204
      ],
      [
        "реализаци",
        -9.733240143065153
      ],
      [
        "находились",
        -9.733287074752159
      ],
      [
        "дети",
        -9.733522532830573
      ],
      [
        "шел",
        -9.73370796567419
      ],
      [
        "книг",
        -9.73434021557128
      ],
      [
        "игорь",
        -9.734638682706821
      ],
      [
        "командование",
        -9.7347676160495
      ],
      [
        "проводится",
        -9.734824918517218
      ],
      [
        "двигателя",
        -9.735707089849807
      ],
      [
        "лука",
        -9.736299505011253
      ],
      [
        "неоднократно",
        -9.736427239602257
      ],
      [
        "людя",
        -9.73648685055462
      ],
      [
        "использования",
        -9.736643910228088
      ],
      [
        "иметь",
        -9.737384699954065
      ],
      [
        "оборот",
        -9.73756403829878
      ],
      [
        "преступлени",
        -9.738114623345634
      ],
      [
        "руководству",
        -9.73843007735859
      ],
      [
        "фирма",
        -9.738504124556707
      ],
      [
        "заключения",
        -9.738912611782464
      ],
      [
        "треть",
        -9.738938317687918
      ],
      [
        "чрезвычайным",
        -9.738945278166508
      ],
      [
        "чеченски",
        -9.739942506077085
      ],
      [
        "высокопоставленн",
        -9.74017564817928
      ],
      [
        "меди",
        -9.740907578498469
      ],
      [
        "мид",
        -9.741516100835938
      ],
      [
        "меньшей",
        -9.742184948483846
      ],
      [
        "югослави",
        -9.742514598261975
      ],
      [
        "убежден",
        -9.743249341239766
      ],
      [
        "рос",
        -9.743462067629842
      ],
      [
        "соответствующе",
        -9.743555946851636
      ],
      [
        "значает",
        -9.74427048094442
      ],
      [
        "сери",
        -9.744397432968961
      ],
      [
        "взрывное",
        -9.744455911896265
      ],
      [
        "беженцам",
        -9.745092904842313
      ],
      [
        "скорость",
        -9.745730444384582
      ],
      [
        "мая",
        -9.745991045593039
      ],
      [
        "планет",
        -9.746492403415925
      ],
      [
        "полковник",
        -9.747364293608191
      ],
      [
        "фунт",
        -9.747591477205981
      ],
      [
        "благодар",
        -9.74760173357588
      ],
      [
        "сильны",
        -9.748517692338865
      ],
      [
        "наши",
        -9.74876941916819
      ],
      [
        "разрешени",
        -9.749153471663975
      ],
      [
        "независимо",
        -9.750403093542415
      ],
      [
        "округа",
        -9.750690483927643
      ],
      [
        "ограничени",
        -9.750775762694504
      ],
      [
        "дальнейше",
        -9.750780023078327
      ],
      [
        "приводит",
        -9.75224978247235
      ],
      [
        "ежегодно",
        -9.7524835118833
      ],
      [
        "шести",
        -9.752864637748235
      ],
      [
        "ноч",
        -9.754652721382435
      ],
      [
        "представил",
        -9.754801814900935
      ],
      [
        "российском",
        -9.757659013694688
      ],
      [
        "электронно",
        -9.758241133534538
      ],
      [
        "подписали",
        -9.758432485022453
      ],
      [
        "пришло",
        -9.758608591076346
      ],
      [
        "разработан",
        -9.759282720996215
      ],
      [
        "базе",
        -9.75955864393077
      ],
      [
        "входит",
        -9.760012226629044
      ],
      [
        "участнико",
        -9.760329497374487
      ],
      [
        "семи",
        -9.760827766421919
      ],
      [
        "брай",
        -9.761938118313186
      ],
      [
        "достигл",
        -9.763077044090458
      ],
      [
        "золота",
        -9.763396500441566
      ],
      [
        "пакет",
        -9.763671991303376
      ],
      [
        "станут",
        -9.76369447143439
      ],
      [
        "ers",
        -9.764475059980734
      ],
      [
        "она",
        -9.766158532206962
      ],
      [
        "кредитны",
        -9.76701171568143
      ],
      [
        "угроза",
        -9.767055361523568
      ],
      [
        "паник",
        -9.767082351637036
      ],
      [
        "полученны",
        -9.767131989279898
      ],
      [
        "госпитал",
        -9.767453876927545
      ],
      [
        "экстремист",
        -9.767611491328633
      ],
      [
        "гражданско",
        -9.767623161147856
      ],
      [
        "собственны",
        -9.767856408829148
      ],
      [
        "de",
        -9.768044901557394
      ],
      [
        "сбор",
        -9.768482728861672
      ],
      [
        "пыта",
        -9.769065621923257
      ],
      [
        "\")",
        -9.769398656725421
      ],
      [
        "семей",
        -9.770723944364121
      ],
      [
        "кара",
        -9.770917307718479
      ],
      [
        "странам",
        -9.771819659775929
      ],
      [
        "конфликта",
        -9.77214971108513
      ],
      [
        "общ",
        -9.772696948639716
      ],
      [
        "vi",
        -9.772718773326266
      ],
      [
        "важны",
        -9.772719774456109
      ],
      [
        "радиостанци",
        -9.773217566290015
      ],
      [
        "возможным",
        -9.773347726577367
      ],
      [
        "хозяйств",
        -9.773602021852072
      ],
      [
        "увеличени",
        -9.773800763586435
      ],
      [
        "проведени",
        -9.774225078508461
      ],
      [
        "официальным",
        -9.77739603005643
      ],
      [
        "вещани",
        -9.778033601199045
      ],
      [
        "йдет",
        -9.77862512882265
      ],
      [
        "руки",
        -9.77932206473378
      ],
      [
        "...",
        -9.779892660962854
      ],
      [
        "предлагает",
        -9.780696577817976
      ],
      [
        "тром",
        -9.78126936638919
      ],
      [
        "dell",
        -9.782250661108387
      ],
      [
        "полет",
        -9.782548093849867
      ],
      [
        "наше",
        -9.782651268329506
      ],
      [
        "автор",
        -9.78327281749103
      ],
      [
        "ешня",
        -9.783364975331509
      ],
      [
        "судь",
        -9.784769715018053
      ],
      [
        "принимают",
        -9.784872890356535
      ],
      [
        "лев",
        -9.785240500428516
      ],
      [
        "давление",
        -9.785363203983511
      ],
      [
        "федерально",
        -9.78562908798207
      ],
      [
        "китайско",
        -9.78666161174317
      ],
      [
        "предмет",
        -9.786714684617447
      ],
      [
        "изменени",
        -9.78728266293012
      ],
      [
        "выполнен",
        -9.787764417138252
      ],
      [
        "декабр",
        -9.787933467094707
      ],
      [
        "ное",
        -9.789665176625116
      ],
      [
        "оборудование",
        -9.790420058675469
      ],
      [
        "кому",
        -9.790737278643965
      ],
      [
        "последн",
        -9.793466966646804
      ],
      [
        "итали",
        -9.793683439083607
      ],
      [
        "телерадиокомпани",
        -9.7946908687124
      ],
      [
        "мировой",
        -9.79494147924138
      ],
      [
        "L",
        -9.79546262253058
      ],
      [
        "боеприпас",
        -9.795462623752893
      ],
      [
        "махачкал",
        -9.795462654124718
      ],
      [
        "corrier",
        -9.79546281051235
      ],
      [
        "джеймс",
        -9.795463162087216
      ],
      [
        "депортаци",
        -9.795464569006702
      ],
      [
        "лагеря",
        -9.795464925994345
      ],
      [
        "хаттаб",
        -9.795473652047448
      ],
      [
        "помимо",
        -9.79561479823181
      ],
      [
        "ii",
        -9.7959170645809
      ],
      [
        "поставил",
        -9.795973137697267
      ],
      [
        "персонал",
        -9.796234993239096
      ],
      [
        "придется",
        -9.7964304469113
      ],
      [
        "прай",
        -9.796602936359736
      ],
      [
        "капитал",
        -9.796916486903573
      ],
      [
        "объяснил",
        -9.7972854590782
      ],
      [
        "осуществлять",
        -9.798111362816918
      ],
      [
        "бизнесмен",
        -9.798195938122076
      ],
      [
        "полномочи",
        -9.798278253567135
      ],
      [
        "призна",
        -9.798356717646286
      ],
      [
        "совершенно",
        -9.798528755140007
      ],
      [
        "земли",
        -9.798757126214984
      ],
      [
        "долго",
        -9.799349874462798
      ],
      [
        "прекратить",
        -9.799471609395288
      ],
      [
        "лебедь",
        -9.799551368465846
      ],
      [
        "собрания",
        -9.799593057432713
      ],
      [
        "института",
        -9.799688509659767
      ],
      [
        "степен",
        -9.800031104909522
      ],
      [
        "них",
        -9.80003583978538
      ],
      [
        "бес",
        -9.80028934532825
      ],
      [
        "баррел",
        -9.801226750538648
      ],
      [
        "имеются",
        -9.801495184608996
      ],
      [
        "зафиксирован",
        -9.801765038660989
      ],
      [
        "аэропорта",
        -9.80215023183972
      ],
      [
        "кандидата",
        -9.802617685825497
      ],
      [
        "медик",
        -9.802748686436093
      ],
      [
        "шкал",
        -9.803141391106896
      ],
      [
        "son",
        -9.80389650767191
      ],
      [
        "обеспечению",
        -9.803991186772796
      ],
      [
        "дал",
        -9.804571074358611
      ],
      [
        "урегулировани",
        -9.804587596063135
      ],
      [
        "вынуждены",
        -9.804994291684983
      ],
      [
        "жителям",
        -9.805344843947905
      ],
      [
        "помощник",
        -9.805356761534792
      ],
      [
        "письмо",
        -9.805609585493794
      ],
      [
        "авиа",
        -9.805628856738585
      ],
      [
        "использовании",
        -9.805744112608355
      ],
      [
        "марте",
        -9.805983850764235
      ],
      [
        "новым",
        -9.806630378328208
      ],
      [
        "рода",
        -9.806906709309558
      ],
      [
        "няя",
        -9.808610748948258
      ],
      [
        "избирательно",
        -9.809125010965314
      ],
      [
        "финансовые",
        -9.809312633302172
      ],
      [
        "наступлени",
        -9.809634842934624
      ],
      [
        "доказательств",
        -9.80995315263443
      ],
      [
        "перерегистраци",
        -9.809975256512859
      ],
      [
        "сект",
        -9.810142035866743
      ],
      [
        "прошлого",
        -9.810637167361135
      ],
      [
        "ость",
        -9.811608819806631
      ],
      [
        "объединенно",
        -9.812843395936232
      ],
      [
        "идут",
        -9.812975897769409
      ],
      [
        "спец",
        -9.81375590488409
      ],
      [
        "el",
        -9.813883481956614
      ],
      [
        "годов",
        -9.814129612955885
      ],
      [
        "имеющих",
        -9.814823764692123
      ],
      [
        "содержани",
        -9.815217439759259
      ],
      [
        "теле",
        -9.81599775601113
      ],
      [
        "технически",
        -9.816228077311479
      ],
      [
        "связ",
        -9.816463483155186
      ],
      [
        "ввоз",
        -9.8164925164711
      ],
      [
        "сделано",
        -9.816727068461047
      ],
      [
        "сот",
        -9.817328836157891
      ],
      [
        "вне",
        -9.818060477272025
      ],
      [
        "поста",
        -9.818088081012558
      ],
      [
        "передан",
        -9.818594296482608
      ],
      [
        "действова",
        -9.818671237149617
      ],
      [
        "ядерн",
        -9.818965964734623
      ],
      [
        "программа",
        -9.820101826411427
      ],
      [
        "основн",
        -9.820323821171078
      ],
      [
        "подал",
        -9.82055702412018
      ],
      [
        "теракта",
        -9.82064074991004
      ],
      [
        "директоро",
        -9.820896089551763
      ],
      [
        "производителе",
        -9.821485348387784
      ],
      [
        "делами",
        -9.821675546108091
      ],
      [
        "обычно",
        -9.822184376078507
      ],
      [
        "переселенц",
        -9.822894677265895
      ],
      [
        "автомобиль",
        -9.823506898643556
      ],
      [
        "падения",
        -9.823690275667216
      ],
      [
        "мера",
        -9.823750848337456
      ],
      [
        "него",
        -9.824467763562971
      ],
      [
        "митинг",
        -9.824589980122544
      ],
      [
        "ситуациям",
        -9.824706100006608
      ],
      [
        "мужчин",
        -9.82538590830107
      ],
      [
        "осети",
        -9.82544800071791
      ],
      [
        "втором",
        -9.826000802461403
      ],
      [
        "автомобил",
        -9.82722064121162
      ],
      [
        "многочисленны",
        -9.827235203655949
      ],
      [
        "нефте",
        -9.82805834492597
      ],
      [
        "драк",
        -9.82820671555957
      ],
      [
        "достиг",
        -9.82839743698005
      ],
      [
        "эпидеми",
        -9.828820244645737
      ],
      [
        "открыт",
        -9.829544898104428
      ],
      [
        "космически",
        -9.829593083522209
      ],
      [
        "найт",
        -9.829793992792169
      ],
      [
        "устройства",
        -9.829893275988077
      ],
      [
        "индонезийски",
        -9.83025383834052
      ],
      [
        "называемы",
        -9.83047057952474
      ],
      [
        "мог",
        -9.83104982899253
      ],
      [
        "подозрительны",
        -9.831197566004885
      ],
      [
        "массов",
        -9.831277385359671
      ],
      [
        "лидеро",
        -9.83260251577777
      ],
      [
        "опасени",
        -9.834430830540088
      ],
      [
        "побережь",
        -9.834936940836647
      ],
      [
        "противник",
        -9.835145639229827
      ],
      [
        "олег",
        -9.835149630103727
      ],
      [
        "ними",
        -9.83527200657618
      ],
      [
        "запис",
        -9.835571160927554
      ],
      [
        "съезд",
        -9.836005765663604
      ],
      [
        "up",
        -9.836051771436303
      ],
      [
        "вооруженны",
        -9.837379586300925
      ],
      [
        "па",
        -9.837758076064977
      ],
      [
        "южн",
        -9.838018978638194
      ],
      [
        "шего",
        -9.840490770802704
      ],
      [
        "эвакуирован",
        -9.840770239819905
      ],
      [
        "подобно",
        -9.841893176359896
      ],
      [
        "ат",
        -9.842121439919396
      ],
      [
        "стар",
        -9.84234470303231
      ],
      [
        "ному",
        -9.84322096681126
      ],
      [
        "товаро",
        -9.843235155330316
      ],
      [
        "su",
        -9.843835991571872
      ],
      [
        "попал",
        -9.8440823787358
      ],
      [
        "генерально",
        -9.844233697575584
      ],
      [
        "легко",
        -9.845685277261621
      ],
      [
        "жириновски",
        -9.846014795860071
      ],
      [
        "проблема",
        -9.84615505753009
      ],
      [
        "турист",
        -9.84750334810456
      ],
      [
        "гур",
        -9.848595482557283
      ],
      [
        "миссия",
        -9.84897029221675
      ],
      [
        "ваться",
        -9.849449443650695
      ],
      [
        "экономическим",
        -9.84970395291068
      ],
      [
        "десяти",
        -9.850204509069329
      ],
      [
        "университет",
        -9.851761030210849
      ],
      [
        "кро",
        -9.852345008046306
      ],
      [
        "прошлы",
        -9.852782297978802
      ],
      [
        "решить",
        -9.853487573498622
      ],
      [
        "ние",
        -9.853838725155212
      ],
      [
        "исполнительн",
        -9.854523041458398
      ],
      [
        "инициатив",
        -9.854908213989699
      ],
      [
        "буде",
        -9.855126575310551
      ],
      [
        "нного",
        -9.85627119206228
      ],
      [
        "название",
        -9.857028746558788
      ],
      [
        "подверг",
        -9.857586413227363
      ],
      [
        "ации",
        -9.857681168556823
      ],
      [
        "опас",
        -9.857730563879754
      ],
      [
        "сенат",
        -9.859373746060088
      ],
      [
        "состоит",
        -9.86000460948212
      ],
      [
        "родственник",
        -9.860570100759308
      ],
      [
        "вид",
        -9.86126957867569
      ],
      [
        "договоренност",
        -9.861645167722243
      ],
      [
        "R",
        -9.862129289197256
      ],
      [
        "контингент",
        -9.862129289911906
      ],
      [
        "network",
        -9.862129344529071
      ],
      [
        "задорнов",
        -9.862130630436745
      ],
      [
        "оджалан",
        -9.862132549563725
      ],
      [
        "вариант",
        -9.862132806941409
      ],
      [
        "гейтс",
        -9.862136988811857
      ],
      [
        "собинбанк",
        -9.86213704659152
      ],
      [
        "резолюци",
        -9.862144432634391
      ],
      [
        "возникновени",
        -9.862181775395374
      ],
      [
        "откуда",
        -9.862198111332637
      ],
      [
        "находиться",
        -9.862461985547972
      ],
      [
        "саммерс",
        -9.862504721764036
      ],
      [
        "швейцарски",
        -9.862542397274265
      ],
      [
        "правила",
        -9.863108158010569
      ],
      [
        "пытались",
        -9.8631647411094
      ],
      [
        "спас",
        -9.8633158784528
      ],
      [
        "минфин",
        -9.863664715700132
      ],
      [
        "юрт",
        -9.86382078528148
      ],
      [
        "зарубежных",
        -9.863864036340178
      ],
      [
        "англи",
        -9.864007870953913
      ],
      [
        "звонк",
        -9.864039387313046
      ],
      [
        "комментируя",
        -9.864313593015774
      ],
      [
        "кладбище",
        -9.864602906089951
      ],
      [
        "вступил",
        -9.864829092526065
      ],
      [
        "таможенного",
        -9.864906553565138
      ],
      [
        "стро",
        -9.864929774651792
      ],
      [
        "посту",
        -9.865115622353722
      ],
      [
        "составляют",
        -9.86571916804894
      ],
      [
        "двумя",
        -9.866232923224477
      ],
      [
        "недел",
        -9.866829796766105
      ],
      [
        "войну",
        -9.866847379355356
      ],
      [
        "покупк",
        -9.867068338874216
      ],
      [
        "обеспечит",
        -9.867294868125263
      ],
      [
        "шесть",
        -9.86869241023635
      ],
      [
        "осуществля",
        -9.869487297097487
      ],
      [
        "кас",
        -9.87127612257659
      ],
      [
        "минувшие",
        -9.871366934427144
      ],
      [
        "финансовыми",
        -9.871756490155391
      ],
      [
        "вес",
        -9.872296957122845
      ],
      [
        "взаимодействи",
        -9.872604446734002
      ],
      [
        "прогноз",
        -9.873141196650813
      ],
      [
        "британской",
        -9.874454155200997
      ],
      [
        "наблюдател",
        -9.87478387936664
      ],
      [
        "карточк",
        -9.874817862311096
      ],
      [
        "нападения",
        -9.875113163574449
      ],
      [
        "подъезд",
        -9.876053565451057
      ],
      [
        "хотят",
        -9.876926263660575
      ],
      [
        "цели",
        -9.877277837718191
      ],
      [
        "обеспечение",
        -9.877339713316918
      ],
      [
        "фотографи",
        -9.877443314319102
      ],
      [
        "местном",
        -9.877757715849693
      ],
      [
        "опубликовал",
        -9.8781754741438
      ],
      [
        "значительны",
        -9.878302838416568
      ],
      [
        "минго",
        -9.879004483171059
      ],
      [
        "будущем",
        -9.879092243983024
      ],
      [
        "высоки",
        -9.879450105801087
      ],
      [
        "специалисто",
        -9.879454262761806
      ],
      [
        "иде",
        -9.880039377981047
      ],
      [
        "штраф",
        -9.880923331960686
      ],
      [
        "близки",
        -9.881007899840354
      ],
      [
        "получ",
        -9.88106234743932
      ],
      [
        "расположенны",
        -9.882749430574655
      ],
      [
        "откры",
        -9.883275720272138
      ],
      [
        "российска",
        -9.883657503392516
      ],
      [
        "редактор",
        -9.883914879645676
      ],
      [
        "распространение",
        -9.884118653471521
      ],
      [
        "расход",
        -9.884261005511478
      ],
      [
        "столичн",
        -9.884319189462692
      ],
      [
        "экипажа",
        -9.88481127538034
      ],
      [
        "возвращени",
        -9.885391632264863
      ],
      [
        "избирательны",
        -9.88559877731751
      ],
      [
        "чили",
        -9.886330149379232
      ],
      [
        "каким",
        -9.886513719064261
      ],
      [
        "будуще",
        -9.886537241345764
      ],
      [
        "уголовно",
        -9.886820081381297
      ],
      [
        "единство",
        -9.886872598856769
      ],
      [
        "закрыт",
        -9.886933783499318
      ],
      [
        "главны",
        -9.886973757313918
      ],
      [
        "взят",
        -9.88705133572303
      ],
      [
        "лазар",
        -9.88784709881716
      ],
      [
        "подозрени",
        -9.888696510408415
      ],
      [
        "судно",
        -9.889018491347763
      ],
      [
        "заявления",
        -9.889491977652835
      ],
      [
        "ол",
        -9.88980561097221
      ],
      [
        "налогам",
        -9.889827862301845
      ],
      [
        "la",
        -9.889858876812875
      ],
      [
        "мся",
        -9.89046788684402
      ],
      [
        "спрос",
        -9.89073104271475
      ],
      [
        "ует",
        -9.89148216958053
      ],
      [
        "усилени",
        -9.891495898952208
      ],
      [
        "объема",
        -9.891725665142049
      ],
      [
        "досрочно",
        -9.89259063713988
      ],
      [
        "мало",
        -9.892855913505358
      ],
      [
        "космическ",
        -9.892913092254389
      ],
      [
        "кон",
        -9.893205553055672
      ],
      [
        "старши",
        -9.893711429260708
      ],
      [
        "поездк",
        -9.894120703084859
      ],
      [
        "брат",
        -9.894429607800015
      ],
      [
        "бандит",
        -9.89700566982595
      ],
      [
        "очевид",
        -9.897092646095144
      ],
      [
        "принадлежащи",
        -9.89711153162242
      ],
      [
        "балл",
        -9.898207872852806
      ],
      [
        "выведен",
        -9.898554211688845
      ],
      [
        "сын",
        -9.899233120842492
      ],
      [
        "нефтяны",
        -9.899420958307825
      ],
      [
        "da",
        -9.9007038263537
      ],
      [
        "обвиняемы",
        -9.900797403190403
      ],
      [
        "топливо",
        -9.901225720033038
      ],
      [
        "нь",
        -9.902153749085418
      ],
      [
        "размера",
        -9.903832827332096
      ],
      [
        "потребовал",
        -9.90429809368629
      ],
      [
        "российское",
        -9.904843892690783
      ],
      [
        "чечней",
        -9.904973786317608
      ],
      [
        "статье",
        -9.905161566890595
      ],
      [
        "политически",
        -9.906472379200283
      ],
      [
        "взяты",
        -9.907314183558928
      ],
      [
        "пиш",
        -9.907469512550296
      ],
      [
        "афин",
        -9.907651012405667
      ],
      [
        "работал",
        -9.90781233240588
      ],
      [
        "современны",
        -9.909456598978032
      ],
      [
        "народа",
        -9.911454981290284
      ],
      [
        "документа",
        -9.912161827581578
      ],
      [
        "услови",
        -9.912637121763826
      ],
      [
        "случая",
        -9.912785834583211
      ],
      [
        "вшись",
        -9.912849004943006
      ],
      [
        "тройк",
        -9.9140232715442
      ],
      [
        "te",
        -9.914408379319715
      ],
      [
        "деклараци",
        -9.91541312807625
      ],
      [
        "русск",
        -9.915426965972674
      ],
      [
        "тщательно",
        -9.916320360973213
      ],
      [
        "прибыль",
        -9.916794074522057
      ],
      [
        "возник",
        -9.917040195300116
      ],
      [
        "нные",
        -9.917655138549105
      ],
      [
        "поток",
        -9.918398669103807
      ],
      [
        "партий",
        -9.91931363330075
      ],
      [
        "медицинск",
        -9.919462131617145
      ],
      [
        "бел",
        -9.920234194128735
      ],
      [
        "санкци",
        -9.921022676775397
      ],
      [
        "защите",
        -9.921280766653735
      ],
      [
        "бесед",
        -9.921625799198463
      ],
      [
        "вто",
        -9.921969512597611
      ],
      [
        "нашли",
        -9.922235969980647
      ],
      [
        "потеря",
        -9.922445784974677
      ],
      [
        "отказ",
        -9.923231384833393
      ],
      [
        "сделк",
        -9.92330032774822
      ],
      [
        "москвич",
        -9.923445602830666
      ],
      [
        "обязательства",
        -9.923895345984866
      ],
      [
        "иран",
        -9.924616721210302
      ],
      [
        "пользу",
        -9.925547832111592
      ],
      [
        "круг",
        -9.92558943435754
      ],
      [
        "алмаз",
        -9.926805529154738
      ],
      [
        "жена",
        -9.928180193036003
      ],
      [
        "оценивает",
        -9.92837200420141
      ],
      [
        "ракетно",
        -9.928473287103213
      ],
      [
        "карт",
        -9.92853321076105
      ],
      [
        "лебед",
        -9.928994550684353
      ],
      [
        "законо",
        -9.929295407276994
      ],
      [
        "1",
        -9.930067846767567
      ],
      [
        "избежа",
        -9.93059054047567
      ],
      [
        "ал",
        -9.930594653091218
      ],
      [
        "жириновск",
        -9.930849741009075
      ],
      [
        "другом",
        -9.93280946017768
      ],
      [
        "каки",
        -9.933369712720557
      ],
      [
        "индустри",
        -9.933557945311065
      ],
      [
        "эдвард",
        -9.933557945558812
      ],
      [
        "таджикистан",
        -9.933558164073677
      ],
      [
        "пистолет",
        -9.933563013817814
      ],
      [
        "леонид",
        -9.9335875902412
      ],
      [
        "каролин",
        -9.933589052874597
      ],
      [
        "приштин",
        -9.933624567620413
      ],
      [
        "internet",
        -9.933700135920066
      ],
      [
        "ассоциаци",
        -9.933703348770445
      ],
      [
        "раунд",
        -9.933926068591505
      ],
      [
        "здравоохранения",
        -9.934010250969958
      ],
      [
        "прошел",
        -9.934446061108961
      ],
      [
        "емся",
        -9.934877338503828
      ],
      [
        "мировом",
        -9.934975792618946
      ],
      [
        "машина",
        -9.935189951976632
      ],
      [
        "проверя",
        -9.935917227029492
      ],
      [
        "внутри",
        -9.936736972716789
      ],
      [
        "имущества",
        -9.936935188366064
      ],
      [
        "woo",
        -9.936984034930726
      ],
      [
        "протест",
        -9.937205557081274
      ],
      [
        "американская",
        -9.937244816105476
      ],
      [
        "обязанностей",
        -9.9376127724898
      ],
      [
        "международная",
        -9.938015305478782
      ],
      [
        "остановить",
        -9.938050998936731
      ],
      [
        "расположенном",
        -9.93857511988103
      ],
      [
        ">.",
        -9.939029052839231
      ],
      [
        "ведомства",
        -9.939055587305752
      ],
      [
        "покинул",
        -9.939113178961952
      ],
      [
        "се",
        -9.939149759887773
      ],
      [
        "серьезн",
        -9.939718257038226
      ],
      [
        "нобелевской",
        -9.939832712261117
      ],
      [
        "американский",
        -9.940073234291955
      ],
      [
        "берегов",
        -9.940336674464156
      ],
      [
        "наступление",
        -9.940505801951424
      ],
      [
        "изации",
        -9.94056653097236
      ],
      [
        "продукты",
        -9.941603208131877
      ],
      [
        "разоружени",
        -9.941867459258653
      ],
      [
        "полном",
        -9.942363776595084
      ],
      [
        "стихи",
        -9.942461456704898
      ],
      [
        "очь",
        -9.943209834783152
      ],
      [
        "один",
        -9.944221526040806
      ],
      [
        "состояни",
        -9.94479037530918
      ],
      [
        "общи",
        -9.946556239661403
      ],
      [
        "дзе",
        -9.947404426035218
      ],
      [
        "говоря",
        -9.947458576275226
      ],
      [
        "сделал",
        -9.947996295592642
      ],
      [
        "отсутстви",
        -9.949418390545802
      ],
      [
        "молоды",
        -9.949469947686344
      ],
      [
        "избирательный",
        -9.949611587752232
      ],
      [
        "называют",
        -9.949795875134177
      ],
      [
        "селения",
        -9.950511975716395
      ],
      [
        "чь",
        -9.950745667626403
      ],
      [
        "бомбовы",
        -9.950825138504525
      ],
      [
        "2",
        -9.950851907627602
      ],
      [
        "представит",
        -9.95137832623708
      ],
      [
        "ве",
        -9.951429847064
      ],
      [
        "боя",
        -9.952128440658907
      ],
      [
        "пытаются",
        -9.952243440891714
      ],
      [
        "оплаты",
        -9.952249363920975
      ],
      [
        "норм",
        -9.952434252893639
      ],
      [
        "отдельны",
        -9.953127688447688
      ],
      [
        "десятки",
        -9.953915976785458
      ],
      [
        "специалист",
        -9.954022574906102
      ],
      [
        "делегация",
        -9.954349936023325
      ],
      [
        "обломк",
        -9.95445023224207
      ],
      [
        "официальный",
        -9.954870351167951
      ],
      [
        "колокола",
        -9.955050420607236
      ],
      [
        "представленны",
        -9.955235358379014
      ],
      [
        "прямом",
        -9.955236512084863
      ],
      [
        "западн",
        -9.956292008542512
      ],
      [
        "свет",
        -9.957635618579662
      ],
      [
        "to",
        -9.95777149387681
      ],
      [
        "крупнейш",
        -9.958459418355316
      ],
      [
        "and",
        -9.958775369163732
      ],
      [
        "конечно",
        -9.959080043376115
      ],
      [
        "man",
        -9.959555649216435
      ],
      [
        "вин",
        -9.959583463795811
      ],
      [
        "нападени",
        -9.959588863892792
      ],
      [
        "оставить",
        -9.959616159858044
      ],
      [
        "поставк",
        -9.959658483920114
      ],
      [
        "гаранти",
        -9.959716281316677
      ],
      [
        "были",
        -9.960003160173981
      ],
      [
        "похити",
        -9.960397614307926
      ],
      [
        "утверждаю",
        -9.96072323462906
      ],
      [
        "погашени",
        -9.960796016340886
      ],
      [
        "жалоб",
        -9.961947034939062
      ],
      [
        "изъято",
        -9.96248372000769
      ],
      [
        "it",
        -9.962996365519887
      ],
      [
        "милиционер",
        -9.96318288097725
      ],
      [
        "органа",
        -9.963741475237487
      ],
      [
        "введение",
        -9.963896013468199
      ],
      [
        "обязан",
        -9.96407835041273
      ],
      [
        "израиль",
        -9.964297369748053
      ],
      [
        "палестинц",
        -9.965475166942102
      ],
      [
        "дальнейшем",
        -9.965721505911048
      ],
      [
        "указывает",
        -9.96574496242361
      ],
      [
        "концерн",
        -9.96583436945482
      ],
      [
        "обстоятельств",
        -9.966368717182664
      ],
      [
        "тайване",
        -9.966732692049455
      ],
      [
        "где",
        -9.966811619268148
      ],
      [
        "орган",
        -9.966834677051498
      ],
      [
        "полне",
        -9.96794691602348
      ],
      [
        "народного",
        -9.968625594326177
      ],
      [
        "еще",
        -9.968883267508554
      ],
      [
        "демократи",
        -9.968909031805392
      ],
      [
        "телефону",
        -9.969475696121673
      ],
      [
        "lim",
        -9.969753402212847
      ],
      [
        "воздушны",
        -9.969850280190212
      ],
      [
        "предусмотрен",
        -9.970019157435845
      ],
      [
        "пакистана",
        -9.97012903850432
      ],
      [
        "дили",
        -9.97157280987648
      ],
      [
        "сторона",
        -9.971711744571651
      ],
      [
        "ойдет",
        -9.971882229971346
      ],
      [
        "3",
        -9.97198068443036
      ],
      [
        "чеченским",
        -9.972558656681972
      ],
      [
        "поле",
        -9.973121595443239
      ],
      [
        "вооружени",
        -9.973582222617111
      ],
      [
        "мо",
        -9.974321640397296
      ],
      [
        "преступник",
        -9.974376014941496
      ],
      [
        "ведения",
        -9.974694558920962
      ],
      [
        "доллар",
        -9.974951029172882
      ],
      [
        "or",
        -9.975127484880439
      ],
      [
        "парти",
        -9.975702790176303
      ],
      [
        "рабоч",
        -9.977474641619835
      ],
      [
        "оба",
        -9.977907040610095
      ],
      [
        "произведен",
        -9.977917510561491
      ],
      [
        "давно",
        -9.979023199334861
      ],
      [
        "признан",
        -9.979503913850673
      ],
      [
        "административн",
        -9.979571162305358
      ],
      [
        "кабинет",
        -9.97974913675608
      ],
      [
        "нт",
        -9.979846682526972
      ],
      [
        "освобождение",
        -9.98131934240215
      ],
      [
        "дороги",
        -9.98158703981403
      ],
      [
        "выпуска",
        -9.982120162098425
      ],
      [
        "лен",
        -9.982278673964903
      ],
      [
        "связаны",
        -9.982480331892093
      ],
      [
        "согласован",
        -9.98253785460107
      ],
      [
        "четверт",
        -9.98319447200355
      ],
      [
        "эффективно",
        -9.98343054829615
      ],
      [
        "автобуса",
        -9.98345551189518
      ],
      [
        "яко",
        -9.983455568852932
      ],
      [
        "лицам",
        -9.984001462990873
      ],
      [
        "национальност",
        -9.98429078848779
      ],
      [
        "автомат",
        -9.984341343383566
      ],
      [
        "экипаж",
        -9.984815470076764
      ],
      [
        "офицер",
        -9.984819921733799
      ],
      [
        "сб",
        -9.985433989073478
      ],
      [
        "принимал",
        -9.985480299382523
      ],
      [
        "похищен",
        -9.98553022862555
      ],
      [
        "коммуникаци",
        -9.986496608912361
      ],
      [
        "открыл",
        -9.988134288887004
      ],
      [
        "nt",
        -9.989536941824362
      ],
      [
        "выделен",
        -9.989636109196397
      ],
      [
        "спасательны",
        -9.990196737780256
      ],
      [
        "случа",
        -9.990708101839004
      ],
      [
        "z",
        -9.992943725785889
      ],
      [
        "установил",
        -9.993006758934794
      ],
      [
        "президентски",
        -9.993538582410078
      ],
      [
        "вопросов",
        -9.993906504144393
      ],
      [
        "автомобиля",
        -9.995917446623197
      ],
      [
        "кто",
        -9.997200467409197
      ],
      [
        "специальны",
        -9.997216560232793
      ],
      [
        "медицинско",
        -9.997427438177194
      ],
      [
        "страниц",
        -9.997868283793562
      ],
      [
        "чеченц",
        -9.997912041324694
      ],
      [
        "вероятно",
        -9.99842745045208
      ],
      [
        "казывать",
        -9.999350981585525
      ],
      [
        "исполнени",
        -9.999488463615386
      ],
      [
        "французски",
        -9.999545584688668
      ],
      [
        "центральны",
        -10.000233701675102
      ],
      [
        "городского",
        -10.000526799111112
      ],
      [
        "четвер",
        -10.000916948048774
      ],
      [
        "nn",
        -10.00158487447377
      ],
      [
        "проверка",
        -10.002376414225665
      ],
      [
        "news",
        -10.002629586622938
      ],
      [
        "вать",
        -10.003274167383244
      ],
      [
        "большие",
        -10.003314229274393
      ],
      [
        "красноярск",
        -10.004483577299753
      ],
      [
        "груз",
        -10.005329569185783
      ],
      [
        "момента",
        -10.005345190492246
      ],
      [
        "категори",
        -10.00543085030557
      ],
      [
        "находящ",
        -10.00565242904456
      ],
      [
        "казать",
        -10.006420250279385
      ],
      [
        "инвестици",
        -10.006552717388336
      ],
      [
        "продукт",
        -10.006593582497427
      ],
      [
        "был",
        -10.006671790220517
      ],
      [
        "использован",
        -10.006691863536087
      ],
      [
        "класс",
        -10.006791279756374
      ],
      [
        "ур",
        -10.007072029962147
      ],
      [
        "снят",
        -10.00783859925453
      ],
      [
        "правил",
        -10.009255581703934
      ],
      [
        "беспорядк",
        -10.00942956728427
      ],
      [
        "brit",
        -10.009601477396876
      ],
      [
        "террор",
        -10.009716431660575
      ],
      [
        "событиям",
        -10.00990975952315
      ],
      [
        "ish",
        -10.010082447880992
      ],
      [
        "роберт",
        -10.01046384603747
      ],
      [
        "эдуард",
        -10.01048097920876
      ],
      [
        "озабочен",
        -10.010481017629509
      ],
      [
        "лауреат",
        -10.010481414615576
      ],
      [
        "зданович",
        -10.01048457197654
      ],
      [
        "относительно",
        -10.010491814901037
      ],
      [
        "компакт",
        -10.010511371855536
      ],
      [
        "баллотироваться",
        -10.010513507720102
      ],
      [
        "стерлинг",
        -10.010516074926983
      ],
      [
        "расстояни",
        -10.010518271199578
      ],
      [
        "дальше",
        -10.010555821409673
      ],
      [
        "платформ",
        -10.010795857347604
      ],
      [
        "гражданам",
        -10.0109906459662
      ],
      [
        "эксплуатаци",
        -10.01099229069912
      ],
      [
        "вывоз",
        -10.01105574757135
      ],
      [
        "опасности",
        -10.011187422179345
      ],
      [
        "покинуть",
        -10.011202471120335
      ],
      [
        "судя",
        -10.01122664363092
      ],
      [
        "исключил",
        -10.011374770616898
      ],
      [
        "хотел",
        -10.011394844966867
      ],
      [
        "нанесен",
        -10.011537633489809
      ],
      [
        "кубически",
        -10.011563502641941
      ],
      [
        "умер",
        -10.011584690971482
      ],
      [
        "коммерци",
        -10.011647831062445
      ],
      [
        "осуществлен",
        -10.0120003328087
      ],
      [
        "волков",
        -10.012040041393165
      ],
      [
        "немецки",
        -10.012072918075742
      ],
      [
        "взрывчатых",
        -10.01231001546089
      ],
      [
        "приостановлен",
        -10.012474573759118
      ],
      [
        "комментари",
        -10.012637976341487
      ],
      [
        "турци",
        -10.013109177388742
      ],
      [
        "верховного",
        -10.013377342807606
      ],
      [
        "заключил",
        -10.013492635094075
      ],
      [
        "близ",
        -10.013730079590111
      ],
      [
        "немедленно",
        -10.013772445861
      ],
      [
        "исламист",
        -10.013796108775733
      ],
      [
        "сопротивлени",
        -10.014737727498012
      ],
      [
        "ее",
        -10.015029256416804
      ],
      [
        "среднем",
        -10.015519111896698
      ],
      [
        "us",
        -10.01579831183133
      ],
      [
        "ер",
        -10.01603003136495
      ],
      [
        "принимать",
        -10.01658179275785
      ],
      [
        "лучше",
        -10.01671503088621
      ],
      [
        "возросл",
        -10.017067891146397
      ],
      [
        "национально",
        -10.017624151480975
      ],
      [
        "обращения",
        -10.01782146486977
      ],
      [
        "дым",
        -10.0179006279065
      ],
      [
        "постановления",
        -10.017949710450663
      ],
      [
        "электроэнергии",
        -10.018213491049073
      ],
      [
        "передвижени",
        -10.01853962385028
      ],
      [
        "нести",
        -10.018697336733783
      ],
      [
        "начина",
        -10.018789703415703
      ],
      [
        "отмыванием",
        -10.018847315856402
      ],
      [
        "сенатор",
        -10.018950073720053
      ],
      [
        "крови",
        -10.019226483934503
      ],
      [
        "начать",
        -10.019294723131583
      ],
      [
        "перешл",
        -10.019912698406168
      ],
      [
        "местного",
        -10.020223198169019
      ],
      [
        "нной",
        -10.02082517387956
      ],
      [
        "проходил",
        -10.020992846283452
      ],
      [
        "изъяты",
        -10.021234930763136
      ],
      [
        "бандиты",
        -10.021293578313857
      ],
      [
        "выбор",
        -10.02130761582698
      ],
      [
        "посадк",
        -10.021982357812881
      ],
      [
        "утверждения",
        -10.022170549682873
      ],
      [
        "провод",
        -10.022302534805707
      ],
      [
        "квартал",
        -10.02246477405308
      ],
      [
        "включает",
        -10.022844193140644
      ],
      [
        "военный",
        -10.023334852712342
      ],
      [
        "десс",
        -10.02433302457823
      ],
      [
        "ющих",
        -10.024890993153043
      ],
      [
        "толчк",
        -10.025775438463363
      ],
      [
        "вошл",
        -10.026468348500417
      ],
      [
        "вшие",
        -10.026472706965281
      ],
      [
        "категорическ",
        -10.026477031995942
      ],
      [
        "nta",
        -10.027204321403122
      ],
      [
        "заболевания",
        -10.02962882636421
      ],
      [
        "мафи",
        -10.029918333260252
      ],
      [
        "извест",
        -10.030029389323767
      ],
      [
        "незаконным",
        -10.030395622945665
      ],
      [
        "вечер",
        -10.030660119932119
      ],
      [
        "порт",
        -10.031038450378126
      ],
      [
        "транш",
        -10.031227657983031
      ],
      [
        "asa",
        -10.032391989196103
      ],
      [
        "oda",
        -10.032894818419116
      ],
      [
        "ится",
        -10.034789353862223
      ],
      [
        "вслед",
        -10.034792847205315
      ],
      [
        "правительственно",
        -10.034861735722885
      ],
      [
        "следственны",
        -10.034908414050147
      ],
      [
        "равно",
        -10.034985542021182
      ],
      [
        "свободы",
        -10.035833245766913
      ],
      [
        ">%)",
        -10.036097542206136
      ],
      [
        "иностранным",
        -10.03726237768109
      ],
      [
        "ры",
        -10.037699594820737
      ],
      [
        "демократ",
        -10.038443859228389
      ],
      [
        "дат",
        -10.038907504583129
      ],
      [
        "выда",
        -10.038939150793762
      ],
      [
        "ель",
        -10.039414772749472
      ],
      [
        "пункта",
        -10.040767951319758
      ],
      [
        "использу",
        -10.041161779786574
      ],
      [
        "война",
        -10.041519391861769
      ],
      [
        "сотрудничестве",
        -10.041586046145799
      ],
      [
        "семья",
        -10.042520687164327
      ],
      [
        "генеральн",
        -10.043954432619373
      ],
      [
        "работник",
        -10.044429578937368
      ],
      [
        "проводить",
        -10.044931256554358
      ],
      [
        "долг",
        -10.04505890058194
      ],
      [
        "запрещен",
        -10.045176829600035
      ],
      [
        "опасны",
        -10.046408176958902
      ],
      [
        "быть",
        -10.04713025165649
      ],
      [
        "обращение",
        -10.048001385335855
      ],
      [
        "вер",
        -10.048865913687248
      ],
      [
        "активны",
        -10.049614489763943
      ],
      [
        "овых",
        -10.049625485462077
      ],
      [
        "ены",
        -10.049768952434489
      ],
      [
        "жертвам",
        -10.049962482288738
      ],
      [
        "техническо",
        -10.050229157467331
      ],
      [
        "водится",
        -10.050243502568854
      ],
      [
        "намечен",
        -10.050846182314942
      ],
      [
        "республик",
        -10.05105285836711
      ],
      [
        "мар",
        -10.052265270076731
      ],
      [
        "верховны",
        -10.052614823402386
      ],
      [
        "тайван",
        -10.052754213479478
      ],
      [
        "хлеб",
        -10.052768739258305
      ],
      [
        "лондонск",
        -10.05277550212703
      ],
      [
        "вынужден",
        -10.053208501070618
      ],
      [
        "жестки",
        -10.05354020835908
      ],
      [
        "утверждени",
        -10.053828624552288
      ],
      [
        "hil",
        -10.054012492411225
      ],
      [
        "березовск",
        -10.05508737736672
      ],
      [
        "денежны",
        -10.0556375319503
      ],
      [
        "пребывани",
        -10.055708749412537
      ],
      [
        "страховани",
        -10.055837740159802
      ],
      [
        "государственным",
        -10.055919617845952
      ],
      [
        "наводнени",
        -10.056694001762281
      ],
      [
        "лей",
        -10.05798102631045
      ],
      [
        "первое",
        -10.058297147396717
      ],
      [
        "манежн",
        -10.058471379603485
      ],
      [
        "na",
        -10.05893051094492
      ],
      [
        "возникл",
        -10.059461555998482
      ],
      [
        "возглавляе",
        -10.059512610365575
      ],
      [
        "птиц",
        -10.05984986889857
      ],
      [
        "рассматрива",
        -10.061028382395197
      ],
      [
        "территори",
        -10.061204226420239
      ],
      [
        "увеличить",
        -10.061579318706436
      ],
      [
        "атак",
        -10.063029164933264
      ],
      [
        "ойдут",
        -10.063209112450604
      ],
      [
        "лице",
        -10.063899033502027
      ],
      [
        "ля",
        -10.064564864325373
      ],
      [
        "открытие",
        -10.065038014875283
      ],
      [
        "прич",
        -10.065391016953333
      ],
      [
        "повреждени",
        -10.065658300469993
      ],
      [
        "проводят",
        -10.065783524465363
      ],
      [
        "советски",
        -10.06605489843497
      ],
      [
        "оказал",
        -10.067025631870187
      ],
      [
        "алась",
        -10.069061115906774
      ],
      [
        "эр",
        -10.06919243119787
      ],
      [
        "рассмотре",
        -10.069797778223936
      ],
      [
        "недель",
        -10.07034965615535
      ],
      [
        "бывши",
        -10.07053052662636
      ],
      [
        "консультаци",
        -10.071375787207902
      ],
      [
        "предъявлен",
        -10.071612095338406
      ],
      [
        "заинтересован",
        -10.072670588405273
      ],
      [
        "положени",
        -10.0726993234383
      ],
      [
        "торг",
        -10.07325249245347
      ],
      [
        "нять",
        -10.073779960066393
      ],
      [
        "общин",
        -10.073988539792193
      ],
      [
        "нефтян",
        -10.074539883650594
      ],
      [
        "дожд",
        -10.074936511539494
      ],
      [
        "рубл",
        -10.07497038743633
      ],
      [
        "контрольно",
        -10.075448407649615
      ],
      [
        "начали",
        -10.075495518309793
      ],
      [
        "слияни",
        -10.075781722684894
      ],
      [
        "федераль",
        -10.076103582482457
      ],
      [
        "испытани",
        -10.07615636302031
      ],
      [
        "век",
        -10.076160151180336
      ],
      [
        "обеща",
        -10.076952602765905
      ],
      [
        "гигант",
        -10.077119901445828
      ],
      [
        "каждо",
        -10.078229982326931
      ],
      [
        "илось",
        -10.078640834479927
      ],
      [
        "существенно",
        -10.078675963109701
      ],
      [
        "4",
        -10.08050632043973
      ],
      [
        "ливан",
        -10.081011362736668
      ],
      [
        "унци",
        -10.081067193088543
      ],
      [
        "более",
        -10.081205556773105
      ],
      [
        "ис",
        -10.081784035265311
      ],
      [
        "рук",
        -10.082099393597678
      ],
      [
        "наряд",
        -10.082160273308554
      ],
      [
        "предотвратит",
        -10.082171851548093
      ],
      [
        "площадь",
        -10.082302380832681
      ],
      [
        "коллег",
        -10.082351501109477
      ],
      [
        "дочер",
        -10.082678805423384
      ],
      [
        "зале",
        -10.082841850227828
      ],
      [
        "ходить",
        -10.083241550394192
      ],
      [
        "введени",
        -10.083901313339306
      ],
      [
        "настояще",
        -10.08441556664195
      ],
      [
        "micros",
        -10.085173305865325
      ],
      [
        "рия",
        -10.085335844290961
      ],
      [
        "задачи",
        -10.085672207511202
      ],
      [
        "расположен",
        -10.086384393931608
      ],
      [
        "./",
        -10.086446394359372
      ],
      [
        "причастны",
        -10.087179674262668
      ],
      [
        "вещ",
        -10.088137589818977
      ],
      [
        "граждански",
        -10.088262388401043
      ],
      [
        "акция",
        -10.088476427617683
      ],
      [
        "sa",
        -10.08880118342735
      ],
      [
        "нижне",
        -10.089956611999213
      ],
      [
        "захват",
        -10.090312363642422
      ],
      [
        "операционн",
        -10.09045947135261
      ],
      [
        "ес",
        -10.090515874415306
      ],
      [
        "иков",
        -10.0908834672883
      ],
      [
        "срочно",
        -10.09131477549241
      ],
      [
        "оборон",
        -10.091592123444796
      ],
      [
        "артиллери",
        -10.09160375439849
      ],
      [
        "общественн",
        -10.091723515838918
      ],
      [
        "чи",
        -10.092171116710292
      ],
      [
        "пожарны",
        -10.092722317521538
      ],
      [
        "ton",
        -10.093639477723341
      ],
      [
        "милошевич",
        -10.093814271992299
      ],
      [
        "мушарраф",
        -10.093814272874312
      ],
      [
        "константин",
        -10.093814337922007
      ],
      [
        "холдинг",
        -10.093814653873526
      ],
      [
        "лукойл",
        -10.093829481015051
      ],
      [
        "инкомбанк",
        -10.093852581186775
      ],
      [
        "газопровод",
        -10.093916068378114
      ],
      [
        "гостелеком",
        -10.093979799980778
      ],
      [
        "сантиметр",
        -10.093986683277802
      ],
      [
        "модернизаци",
        -10.094006958414619
      ],
      [
        "минюст",
        -10.094046673396665
      ],
      [
        "людмил",
        -10.094058337947423
      ],
      [
        "corp",
        -10.094067462768582
      ],
      [
        "коммунист",
        -10.094387142947898
      ],
      [
        "jo",
        -10.094665453426144
      ],
      [
        "допустить",
        -10.094762980033611
      ],
      [
        "распространенном",
        -10.094906504345877
      ],
      [
        "ство",
        -10.094929072788634
      ],
      [
        "приморь",
        -10.094976739602624
      ],
      [
        "мальчик",
        -10.094988583402893
      ],
      [
        "бдительност",
        -10.095008695597132
      ],
      [
        "грузовик",
        -10.095440450111383
      ],
      [
        "тера",
        -10.095551381885823
      ],
      [
        "восемь",
        -10.095580727092951
      ],
      [
        "усиленны",
        -10.095610856654359
      ],
      [
        "ально",
        -10.095803429756327
      ],
      [
        "жительства",
        -10.095872617636124
      ],
      [
        "будь",
        -10.095894357592911
      ],
      [
        "вызов",
        -10.09592975018022
      ],
      [
        "столкну",
        -10.095952473327525
      ],
      [
        "оставил",
        -10.096081337120278
      ],
      [
        "комиссию",
        -10.096249770397025
      ],
      [
        "центов",
        -10.096648250089073
      ],
      [
        "памятник",
        -10.096926584290275
      ],
      [
        "депутато",
        -10.097210278335584
      ],
      [
        "индекс",
        -10.097591875634265
      ],
      [
        "исключают",
        -10.097891851090655
      ],
      [
        "чехии",
        -10.098170659661506
      ],
      [
        "кандидатур",
        -10.098344344816756
      ],
      [
        "итогам",
        -10.098481732900286
      ],
      [
        "ообще",
        -10.098992101572628
      ],
      [
        "участвова",
        -10.099028659432369
      ],
      [
        "принятия",
        -10.099042315238984
      ],
      [
        "внешне",
        -10.09963785538665
      ],
      [
        "типа",
        -10.099761985217818
      ],
      [
        "цы",
        -10.099835790608072
      ],
      [
        "направить",
        -10.10003178031521
      ],
      [
        "каждого",
        -10.100210124496659
      ],
      [
        "запланирован",
        -10.100230233206812
      ],
      [
        "доходах",
        -10.100576581949216
      ],
      [
        "последствий",
        -10.100717428328174
      ],
      [
        "овой",
        -10.100847006751152
      ],
      [
        "напоминает",
        -10.101026600071563
      ],
      [
        "сербов",
        -10.10145587234459
      ],
      [
        "подозревают",
        -10.101520445612492
      ],
      [
        "сентябре",
        -10.101564493002513
      ],
      [
        "ками",
        -10.101769574642676
      ],
      [
        "террористическо",
        -10.10223121114876
      ],
      [
        "противоречи",
        -10.102312413778751
      ],
      [
        "мирны",
        -10.102987476269426
      ],
      [
        "соблюдени",
        -10.103001378916094
      ],
      [
        "основно",
        -10.103144146655982
      ],
      [
        "городск",
        -10.10411294211069
      ],
      [
        "фла",
        -10.104208325186125
      ],
      [
        "помещений",
        -10.104836481933924
      ],
      [
        "име",
        -10.105197008871004
      ],
      [
        "поддержал",
        -10.105407437175447
      ],
      [
        "следует",
        -10.10672783560657
      ],
      [
        "усилен",
        -10.106944565374658
      ],
      [
        "земле",
        -10.107819546248987
      ],
      [
        "относит",
        -10.107891826749995
      ],
      [
        "одну",
        -10.1080963845741
      ],
      [
        "сть",
        -10.108411117788735
      ],
      [
        "втор",
        -10.10883757993582
      ],
      [
        "степень",
        -10.108906627544776
      ],
      [
        "уголовны",
        -10.10897825372964
      ],
      [
        "вел",
        -10.109005432651701
      ],
      [
        "осуществлени",
        -10.109146604279307
      ],
      [
        "покушение",
        -10.110098601103717
      ],
      [
        "закрыти",
        -10.110387821096943
      ],
      [
        "ракета",
        -10.110834726596117
      ],
      [
        "массовых",
        -10.11139023307603
      ],
      [
        "демонстрации",
        -10.111635736458211
      ],
      [
        "террорист",
        -10.111839097262195
      ],
      [
        "дель",
        -10.111849534977956
      ],
      [
        "це",
        -10.111897271509616
      ],
      [
        "са",
        -10.112420447859872
      ],
      [
        "третьем",
        -10.113029898118677
      ],
      [
        "прибыти",
        -10.113387955715554
      ],
      [
        "соответственн",
        -10.1134474540808
      ],
      [
        "испытания",
        -10.1139694498096
      ],
      [
        "сан",
        -10.114223516556297
      ],
      [
        "communicat",
        -10.114848802269625
      ],
      [
        "главным",
        -10.115180339890827
      ],
      [
        "приговор",
        -10.115253421278519
      ],
      [
        "сн",
        -10.115409156846859
      ],
      [
        "выполня",
        -10.11604825930036
      ],
      [
        "прибывши",
        -10.116218420835175
      ],
      [
        "единиц",
        -10.116996825585987
      ],
      [
        "повыси",
        -10.117185907408512
      ],
      [
        "поврежден",
        -10.117376175811046
      ],
      [
        "покида",
        -10.117791187486597
      ],
      [
        "поддерживает",
        -10.118077198242466
      ],
      [
        "выкупа",
        -10.11808420286377
      ],
      [
        "конкретно",
        -10.11827559366715
      ],
      [
        "валютны",
        -10.11939748327054
      ],
      [
        "академии",
        -10.11967657312457
      ],
      [
        "бригад",
        -10.119680599682525
      ],
      [
        "случивше",
        -10.119779875896116
      ],
      [
        "владивосток",
        -10.12160234585345
      ],
      [
        "ограничения",
        -10.12180619284278
      ],
      [
        "насили",
        -10.121864583871416
      ],
      [
        "провер",
        -10.123044396890917
      ],
      [
        "си",
        -10.124211842414894
      ],
      [
        "последствия",
        -10.124318933999877
      ],
      [
        "участк",
        -10.124711146043241
      ],
      [
        "управляющи",
        -10.12583010540669
      ],
      [
        "нс",
        -10.125863731637368
      ],
      [
        "писател",
        -10.126077070861667
      ],
      [
        "васили",
        -10.12620310507933
      ],
      [
        "высок",
        -10.12685531376557
      ],
      [
        "овский",
        -10.127125946542142
      ],
      [
        "присутствова",
        -10.12720711868208
      ],
      [
        "убийства",
        -10.128089204560489
      ],
      [
        "кпр",
        -10.129033083221396
      ],
      [
        "пре",
        -10.129071796071647
      ],
      [
        "кур",
        -10.12924781763317
      ],
      [
        "ад",
        -10.129347652824391
      ],
      [
        "вчерашне",
        -10.129922029110705
      ],
      [
        "гиб",
        -10.130236849655287
      ],
      [
        "пят",
        -10.13076070533307
      ],
      [
        "инициативе",
        -10.131448786124968
      ],
      [
        "корея",
        -10.13156106624079
      ],
      [
        "аяся",
        -10.131964967527189
      ],
      [
        "ряде",
        -10.132098599575059
      ],
      [
        "практик",
        -10.132674571575336
      ],
      [
        "коллеги",
        -10.133908394764722
      ],
      [
        "ons",
        -10.134202335472752
      ],
      [
        "белорусск",
        -10.135504683920658
      ],
      [
        "полномочия",
        -10.136193951712158
      ],
      [
        "организованн",
        -10.136654303936638
      ],
      [
        "кор",
        -10.137464920242786
      ],
      [
        "аналитик",
        -10.13746764606169
      ],
      [
        "поз",
        -10.13779342502783
      ],
      [
        "путе",
        -10.13816985586207
      ],
      [
        "увеличен",
        -10.138372593227867
      ],
      [
        "утвержден",
        -10.138511572855045
      ],
      [
        "агент",
        -10.138932066286763
      ],
      [
        "ров",
        -10.139425129435745
      ],
      [
        "исламски",
        -10.139546511624754
      ],
      [
        "фракци",
        -10.140460185055685
      ],
      [
        "ys",
        -10.14138946630401
      ],
      [
        "госсекретар",
        -10.1417475608465
      ],
      [
        "администраци",
        -10.14195752246495
      ],
      [
        "чер",
        -10.142556903114013
      ],
      [
        "включен",
        -10.14277683028582
      ],
      [
        "взрыво",
        -10.14396046891528
      ],
      [
        "концерна",
        -10.144361577669207
      ],
      [
        "ирует",
        -10.144755269423642
      ],
      [
        "щего",
        -10.145505190157706
      ],
      [
        "силовы",
        -10.146055991468238
      ],
      [
        "отменен",
        -10.146245526086677
      ],
      [
        "ди",
        -10.1464312864297
      ],
      [
        "вероятност",
        -10.146770313400909
      ],
      [
        "острова",
        -10.146786505164538
      ],
      [
        "!",
        -10.147823298898121
      ],
      [
        "причинам",
        -10.148617368647798
      ],
      [
        "наличие",
        -10.14938367004168
      ],
      [
        "социально",
        -10.15002813484098
      ],
      [
        "at",
        -10.150161914024434
      ],
      [
        "участ",
        -10.15022617679417
      ],
      [
        "аль",
        -10.150257021924194
      ],
      [
        "зна",
        -10.150799771044273
      ],
      [
        "дополнительно",
        -10.151040450105754
      ],
      [
        "сотрудник",
        -10.151792234199334
      ],
      [
        "следующи",
        -10.153852772259157
      ],
      [
        "ющего",
        -10.153900642231303
      ],
      [
        "предназначен",
        -10.15407585143619
      ],
      [
        "перевоз",
        -10.154259492428277
      ],
      [
        "окончательно",
        -10.154396297068256
      ],
      [
        "ман",
        -10.154500776019042
      ],
      [
        "бар",
        -10.155238023038363
      ],
      [
        "объединени",
        -10.155667237671981
      ],
      [
        "эфир",
        -10.155933418746795
      ],
      [
        "андре",
        -10.156639914800039
      ],
      [
        "намерения",
        -10.156818200885445
      ],
      [
        "вячеслав",
        -10.157043883932658
      ],
      [
        "пилот",
        -10.157251079946052
      ],
      [
        "тонны",
        -10.15752871648963
      ],
      [
        "всеми",
        -10.157757688372193
      ],
      [
        "би",
        -10.158735837564745
      ],
      [
        "посольств",
        -10.159756043645935
      ],
      [
        "африк",
        -10.160047208790035
      ],
      [
        "расходов",
        -10.160054719232289
      ],
      [
        "механизм",
        -10.160215307967109
      ],
      [
        "продолж",
        -10.16029361907317
      ],
      [
        "гроз",
        -10.161154645989711
      ],
      [
        "решении",
        -10.162204681125688
      ],
      [
        "теракто",
        -10.162688693186796
      ],
      [
        "реагирова",
        -10.1635745273726
      ],
      [
        "нему",
        -10.164146198694944
      ],
      [
        "плохо",
        -10.164431831912863
      ],
      [
        "государство",
        -10.164506651772793
      ],
      [
        "швейцарск",
        -10.16542719807175
      ],
      [
        "учения",
        -10.165800930723787
      ],
      [
        "боро",
        -10.166880572946429
      ],
      [
        "разрушения",
        -10.167183790144774
      ],
      [
        "после",
        -10.170146805554097
      ],
      [
        "меньше",
        -10.171451819822558
      ],
      [
        "следственн",
        -10.172728481782515
      ],
      [
        "енной",
        -10.172759207510698
      ],
      [
        "ень",
        -10.173005337739497
      ],
      [
        "дальне",
        -10.173056583784058
      ],
      [
        "ющий",
        -10.173948082595201
      ],
      [
        "ар",
        -10.17406301231383
      ],
      [
        "строя",
        -10.174644776759362
      ],
      [
        "поезд",
        -10.17524487802687
      ],
      [
        "экономик",
        -10.176335705214818
      ],
      [
        "миг",
        -10.176554735821947
      ],
      [
        "атмосфер",
        -10.176911551620108
      ],
      [
        "много",
        -10.177031524527662
      ],
      [
        "ate",
        -10.177315642279963
      ],
      [
        "обвиняет",
        -10.177366524183027
      ],
      [
        "литв",
        -10.17754840831337
      ],
      [
        "тк",
        -10.177850502016632
      ],
      [
        "космическо",
        -10.178340634398108
      ],
      [
        "ходорковск",
        -10.178367068748521
      ],
      [
        "террористическ",
        -10.178535445718627
      ],
      [
        "агресси",
        -10.180781774100254
      ],
      [
        "сбо",
        -10.181140135056385
      ],
      [
        "овые",
        -10.182098136545402
      ],
      [
        "ожидает",
        -10.18268470030251
      ],
      [
        "ении",
        -10.182844615388305
      ],
      [
        "ойти",
        -10.18367877046888
      ],
      [
        "ошибка",
        -10.183838663251766
      ],
      [
        "зависимост",
        -10.184097398482841
      ],
      [
        "делом",
        -10.184200502629885
      ],
      [
        "расследовани",
        -10.184545200265466
      ],
      [
        "intern",
        -10.184660518907915
      ],
      [
        "6",
        -10.184664552579882
      ],
      [
        "«",
        -10.184723361791763
      ],
      [
        "»",
        -10.184723361791763
      ],
      [
        "налогоплательщик",
        -10.184723361793317
      ],
      [
        "хачилаев",
        -10.184723384251527
      ],
      [
        "ботлихско",
        -10.184723419746183
      ],
      [
        "патрушев",
        -10.18472350150607
      ],
      [
        "world",
        -10.184723511124451
      ],
      [
        "соболезновани",
        -10.184723888417832
      ],
      [
        "эксперимент",
        -10.18472589379179
      ],
      [
        "таиланд",
        -10.18472632754436
      ],
      [
        "диктатор",
        -10.184726398219372
      ],
      [
        "одномандатн",
        -10.18472930932018
      ],
      [
        "транзакци",
        -10.184744660075463
      ],
      [
        "протяжен",
        -10.18475572424309
      ],
      [
        "полу",
        -10.184772478424504
      ],
      [
        "br",
        -10.184795459305725
      ],
      [
        "лучши",
        -10.184808691318022
      ],
      [
        "полутора",
        -10.184828954608136
      ],
      [
        "павел",
        -10.18482921967514
      ],
      [
        "блэр",
        -10.18485418893107
      ],
      [
        "противоракетн",
        -10.184901940531985
      ],
      [
        "прогремел",
        -10.185024910716326
      ],
      [
        "поручил",
        -10.185075042447604
      ],
      [
        "летчик",
        -10.185227041484577
      ],
      [
        "заверил",
        -10.185266232810001
      ],
      [
        "пенсионер",
        -10.185847362060118
      ],
      [
        "шаттл",
        -10.185963824552314
      ],
      [
        "обеспечивающи",
        -10.186149712815437
      ],
      [
        "убийств",
        -10.186167440397256
      ],
      [
        "повестк",
        -10.186241577405731
      ],
      [
        "основатель",
        -10.186804559364525
      ],
      [
        "вторжения",
        -10.186917320169847
      ],
      [
        "налога",
        -10.186930320920528
      ],
      [
        "нача",
        -10.187385398750482
      ],
      [
        "писатель",
        -10.187520881018695
      ],
      [
        "пекин",
        -10.187586808052076
      ],
      [
        "предложению",
        -10.187662919892142
      ],
      [
        "существовани",
        -10.18787015555977
      ],
      [
        "продолжать",
        -10.187986350310435
      ],
      [
        "сергеев",
        -10.18972881379128
      ],
      [
        "численность",
        -10.189764654771574
      ],
      [
        "вания",
        -10.189838580854438
      ],
      [
        "выиграл",
        -10.190208553554239
      ],
      [
        "общая",
        -10.190377625041654
      ],
      [
        "пройде",
        -10.190434432642766
      ],
      [
        "томас",
        -10.19099167324206
      ],
      [
        "подход",
        -10.191202869999914
      ],
      [
        "преступников",
        -10.191361930122712
      ],
      [
        "иностран",
        -10.191674433792604
      ],
      [
        "повышения",
        -10.192009896799467
      ],
      [
        "российскую",
        -10.192064136426811
      ],
      [
        "шеф",
        -10.192128925518338
      ],
      [
        "позволил",
        -10.19221116126852
      ],
      [
        "третий",
        -10.192347736178426
      ],
      [
        "судебны",
        -10.192881639232704
      ],
      [
        "подготовить",
        -10.192967554745112
      ],
      [
        "связям",
        -10.193147905235337
      ],
      [
        "пропал",
        -10.19345100289883
      ],
      [
        "совместны",
        -10.193587775402865
      ],
      [
        "болезнь",
        -10.193612250816994
      ],
      [
        "san",
        -10.1936650713505
      ],
      [
        "ина",
        -10.193951377967199
      ],
      [
        "исключительно",
        -10.194058012368792
      ],
      [
        "интересам",
        -10.19412142634627
      ],
      [
        "килограммов",
        -10.194238417359154
      ],
      [
        "командир",
        -10.19450795700272
      ],
      [
        "зона",
        -10.194552970193767
      ],
      [
        "значение",
        -10.19473891179548
      ],
      [
        "потом",
        -10.194935303484382
      ],
      [
        "рейс",
        -10.19511067433152
      ],
      [
        "проче",
        -10.195303473039939
      ],
      [
        "вред",
        -10.19545810402952
      ],
      [
        "верх",
        -10.195768681683047
      ],
      [
        "третье",
        -10.196037269022852
      ],
      [
        "думу",
        -10.196652460386325
      ],
      [
        "литератур",
        -10.196758043114563
      ],
      [
        "выдвижени",
        -10.196967361819718
      ],
      [
        "захватил",
        -10.197470527213806
      ],
      [
        "авиакомпании",
        -10.198025521053411
      ],
      [
        "ды",
        -10.198049496688917
      ],
      [
        "ms",
        -10.198169205970965
      ],
      [
        "изменить",
        -10.198285916482053
      ],
      [
        "блокирован",
        -10.198600225641126
      ],
      [
        "укреплени",
        -10.198665769973498
      ],
      [
        "отметк",
        -10.199221626976676
      ],
      [
        "билет",
        -10.199371949572566
      ],
      [
        "виктора",
        -10.19953182756708
      ],
      [
        "собственност",
        -10.199697693853459
      ],
      [
        "публикация",
        -10.199999615185074
      ],
      [
        "специального",
        -10.200035451877895
      ],
      [
        "прекращен",
        -10.20059040793828
      ],
      [
        "путей",
        -10.200741684666802
      ],
      [
        "содействие",
        -10.20114283827413
      ],
      [
        "принятие",
        -10.201162927983258
      ],
      [
        "джордж",
        -10.201993033424653
      ],
      [
        "министров",
        -10.202323303462505
      ],
      [
        "ro",
        -10.202579573252489
      ],
      [
        "собственно",
        -10.204133184067214
      ],
      [
        "усили",
        -10.204229843345132
      ],
      [
        "мощны",
        -10.204557426468059
      ],
      [
        "общество",
        -10.20483168152631
      ],
      [
        "арестовал",
        -10.204866742750369
      ],
      [
        "примет",
        -10.205191081612801
      ],
      [
        "появление",
        -10.205415657059016
      ],
      [
        "oft",
        -10.205703043500364
      ],
      [
        "открыты",
        -10.205934713519332
      ],
      [
        "применени",
        -10.205998578420676
      ],
      [
        "камн",
        -10.206962971989253
      ],
      [
        "стен",
        -10.207615865248217
      ],
      [
        "яблоко",
        -10.208144993603081
      ],
      [
        "китае",
        -10.208663614427268
      ],
      [
        "остью",
        -10.208690147033398
      ],
      [
        "выступлени",
        -10.208974417655284
      ],
      [
        "проблемам",
        -10.210242582164732
      ],
      [
        "обеспокоен",
        -10.210315043050384
      ],
      [
        "bi",
        -10.210735833005717
      ],
      [
        "глаз",
        -10.210804655526651
      ],
      [
        "находк",
        -10.211282768984836
      ],
      [
        "выясни",
        -10.211569002032244
      ],
      [
        "овень",
        -10.211681281118205
      ],
      [
        "польш",
        -10.211954445038891
      ],
      [
        "вынужденны",
        -10.211963962352058
      ],
[...]
