{
  "version": "1.0",
  "truncation": null,
  "padding": null,
  "added_tokens": [],
  "normalizer": null,
  "pre_tokenizer": {
    "type": "Whitespace"
  },
  "post_processor": null,
  "decoder": null,
  "model": {
    "type": "Unigram",
    "unk_id": 0,
    "vocab": [
      [
        "[UNK]",
        0.0
      ],
      [
        ",",
        -3.012384993637067
      ],
      [
        ".",
        -3.423254103716122
      ],
      [
        "и",
        -3.442808410995351
      ],
      [
        "е",
        -3.5333786465932917
      ],
      [
        "а",
        -3.812285470099143
      ],
      [
        "\"",
        -3.912678088292333
      ],
      [
        "й",
        -3.9511908271050284
      ],
      [
        "<",
        -4.166058800607091
      ],
      [
        "U",
        -4.167910010198426
      ],
      [
        "M",
        -4.171157896115165
      ],
      [
        "N",
        -4.1713902921179535
      ],
      [
        "-",
        -4.283707367289464
      ],
      [
        ">",
        -4.301501030628005
      ],
      [
        "ы",
        -4.308745583438151
      ],
      [
        "х",
        -4.3164702421393475
      ],
      [
        "у",
        -4.508139746346991
      ],
      [
        "я",
        -4.510960497974235
      ],
      [
        "м",
        -4.583170739576119
      ],
      [
        "ов",
        -4.7884277234173505
      ],
      [
        "о",
        -4.983546173702025
      ],
      [
        "ся",
        -5.162856079311785
      ],
      [
        "го",
        -5.24584525806077
      ],
      [
        "ю",
        -5.246472012089826
      ],
      [
        "ой",
        -5.377550428448876
      ],
      [
        "ом",
        -5.451401290957909
      ],
      [
        "в",
        -5.508598025738677
      ],
      [
        "ь",
        -5.678573959171968
      ],
      [
        "ть",
        -5.7736977963426845
      ],
      [
        "\".",
        -5.791881953360208
      ],
      [
        "ого",
        -5.818805088379727
      ],
      [
        "с",
        -5.8685896118909735
      ],
      [
        "ая",
        -5.891610638846836
      ],
      [
        "россии",
        -6.035332623914721
      ],
      [
        "т",
        -6.082225050186414
      ],
      [
        "ую",
        -6.093169796369018
      ],
      [
        "\",",
        -6.149852180696471
      ],
      [
        "ей",
        -6.181840484873973
      ],
      [
        "также",
        -6.403893543910933
      ],
      [
        "(",
        -6.416945904932329
      ],
      [
        "года",
        -6.421760579637083
      ],
      [
        "ми",
        -6.457588409330325
      ],
      [
        "сша",
        -6.461738007550528
      ],
      [
        "ет",
        -6.511404594496814
      ],
      [
        "это",
        -6.517475256363442
      ],
      [
        "заявил",
        -6.525867022243579
      ],
      [
        ")",
        -6.543446749977501
      ],
      [
        "сообщает",
        -6.548340151468251
      ],
      [
        "к",
        -6.561018806286928
      ],
      [
        ":",
        -6.567893517765803
      ],
      [
        "на",
        -6.595561679424421
      ],
      [
        "человек",
        -6.596911133068483
      ],
      [
        "не",
        -6.63941392526648
      ],
      [
        "время",
        -6.639575193197457
      ],
      [
        "ных",
        -6.7076709601383575
      ],
      [
        "словам",
        -6.708883643392985
      ],
      [
        "сегодня",
        -6.737695448372407
      ],
      [
        "ется",
        -6.740606188575954
      ],
      [
        "новост",
        -6.757707815918735
      ],
      [
        "ами",
        -6.769333178670165
      ],
      [
        "лись",
        -6.796840800432885
      ],
      [
        "риа",
        -6.801676426189209
      ],
      [
        "по",
        -6.869755561758535
      ],
      [
        "сообщил",
        -6.870537704654073
      ],
      [
        "рф",
        -6.884013566747983
      ],
      [
        "ок",
        -6.8987594332299045
      ],
      [
        "за",
        -6.905127531768888
      ],
      [
        "ного",
        -6.910398823481806
      ],
      [
        "долларов",
        -6.920136576793572
      ],
      [
        "тасс",
        -6.923424599424511
      ],
      [
        "однако",
        -6.930747135233299
      ],
      [
        "пресс",
        -6.964277859283707
      ],
      [
        "итар",
        -6.973912723604302
      ],
      [
        "будут",
        -6.99518922157885
      ],
      [
        "тысяч",
        -7.010360859639277
      ],
      [
        ">-",
        -7.014506818458338
      ],
      [
        "которые",
        -7.05016663402227
      ],
      [
        "ф",
        -7.057376569872582
      ],
      [
        "министр",
        -7.060708989230801
      ],
      [
        "л",
        -7.065584342600159
      ],
      [
        ">%",
        -7.092298379707833
      ],
      [
        "того",
        -7.094883111220251
      ],
      [
        "д",
        -7.099422013772773
      ],
      [
        "ной",
        -7.102706664490247
      ],
      [
        "москве",
        -7.109839384146338
      ],
      [
        "сентября",
        -7.115596065408596
      ],
      [
        "данным",
        -7.121621793538348
      ],
      [
        "москвы",
        -7.130349383798835
      ],
      [
        "ых",
        -7.15332870688073
      ],
      [
        "н",
        -7.154999806943868
      ],
      [
        "около",
        -7.16550239779265
      ],
      [
        "миллион",
        -7.195611576534022
      ],
      [
        "году",
        -7.201468763433673
      ],
      [
        "информаци",
        -7.210090036595256
      ],
      [
        "s",
        -7.2170200677357155
      ],
      [
        "связи",
        -7.223528719436732
      ],
      [
        "ют",
        -7.227744643710128
      ],
      [
        "президент",
        -7.22988661346387
      ],
      [
        "но",
        -7.234633971033575
      ],
      [
        "октябр",
        -7.25311978325112
      ],
      [
        "работ",
        -7.260869958187454
      ],
      [
        "премьер",
        -7.289422422164603
      ],
      [
        "лось",
        -7.298412286743981
      ],
      [
        "лась",
        -7.302558602712295
      ],
      [
        "компании",
        -7.31450271822089
      ],
      [
        "решение",
        -7.321099762938037
      ],
      [
        "ться",
        -7.323942823224206
      ],
      [
        "ли",
        -7.326016098448738
      ],
      [
        "результат",
        -7.333289367107763
      ],
      [
        "дел",
        -7.333352362390798
      ],
      [
        "лет",
        -7.333494092437635
      ],
      [
        "президента",
        -7.339061158945138
      ],
      [
        "ах",
        -7.350798168187242
      ],
      [
        "пока",
        -7.3537129865626625
      ],
      [
        "правительства",
        -7.353964383443158
      ],
      [
        "против",
        -7.372332429469467
      ],
      [
        "г",
        -7.376524912425096
      ],
      [
        "из",
        -7.3848827355608755
      ],
      [
        "y",
        -7.391844898211229
      ],
      [
        "который",
        -7.405487558699515
      ],
      [
        "вопрос",
        -7.4308434013967375
      ],
      [
        "c",
        -7.435182261370617
      ],
      [
        "ем",
        -7.453809406174498
      ],
      [
        "он",
        -7.455384038837654
      ],
      [
        "то",
        -7.45920426308171
      ],
      [
        "проблем",
        -7.460545849251462
      ],
      [
        "мнению",
        -7.472846897015284
      ],
      [
        "интернет",
        -7.4765973360729845
      ],
      [
        "сь",
        -7.484970785361297
      ],
      [
        "безопасности",
        -7.485296148328681
      ],
      [
        "ым",
        -7.490522070571487
      ],
      [
        "чечни",
        -7.498185202519588
      ],
      [
        "сказал",
        -7.507904381108664
      ],
      [
        "ссылк",
        -7.507941249369192
      ],
      [
        "области",
        -7.508581385012451
      ],
      [
        "владимир",
        -7.515416345663527
      ],
      [
        "подчеркнул",
        -7.517754382254104
      ],
      [
        "отметил",
        -7.524554576470119
      ],
      [
        "про",
        -7.53150483569477
      ],
      [
        "том",
        -7.537318590755663
      ],
      [
        "сил",
        -7.54225689460391
      ],
      [
        "взрыв",
        -7.546158654396144
      ],
      [
        "территории",
        -7.546949439757953
      ],
      [
        "ельцин",
        -7.565060459710375
      ],
      [
        "документ",
        -7.5808668873831575
      ],
      [
        "пол",
        -7.586233439164725
      ],
      [
        "путин",
        -7.589466410383075
      ],
      [
        "п",
        -7.620667975949397
      ],
      [
        "времен",
        -7.629477037048007
      ],
      [
        "является",
        -7.629752597917994
      ],
      [
        "граждан",
        -7.636363005260012
      ],
      [
        "год",
        -7.638043276781952
      ],
      [
        "города",
        -7.638183058825535
      ],
      [
        "российски",
        -7.645139411231655
      ],
      [
        "d",
        -7.646515793074497
      ],
      [
        "ются",
        -7.651322977491416
      ],
      [
        "банка",
        -7.652151371096933
      ],
      [
        "депутат",
        -7.654169153269773
      ],
      [
        "рубле",
        -7.658371157668341
      ],
      [
        "несколько",
        -7.659544941092406
      ],
      [
        "которых",
        -7.659856859820759
      ],
      [
        "оон",
        -7.660270717040423
      ],
      [
        "российских",
        -7.664738143928416
      ],
      [
        "ки",
        -7.666474771824561
      ],
      [
        "закон",
        -7.673111547382092
      ],
      [
        "ить",
        -7.676151350747787
      ],
      [
        "стран",
        -7.681045115007656
      ],
      [
        "мэр",
        -7.6893754086958594
      ],
      [
        "енко",
        -7.691411079080417
      ],
      [
        "кром",
        -7.698562754090122
      ],
      [
        "суд",
        -7.701401129745948
      ],
      [
        "страны",
        -7.703963636484413
      ],
      [
        "тем",
        -7.731344765171206
      ],
      [
        "new",
        -7.738638927859158
      ],
      [
        "сред",
        -7.743523405312104
      ],
      [
        "ев",
        -7.756889259490245
      ],
      [
        "вторник",
        -7.763440006839133
      ],
      [
        "республики",
        -7.766348493175163
      ],
      [
        "милици",
        -7.780651902723918
      ],
      [
        "цен",
        -7.7850774208555995
      ],
      [
        "агентство",
        -7.785399541166675
      ],
      [
        "лидер",
        -7.786950904374512
      ],
      [
        "a",
        -7.790163154749348
      ],
      [
        "город",
        -7.791792483597805
      ],
      [
        "ской",
        -7.794771838601796
      ],
      [
        "российской",
        -7.796037523054559
      ],
      [
        "bank",
        -7.797763822124299
      ],
      [
        "мвд",
        -7.803623577149359
      ],
      [
        "федеральны",
        -7.803779267351555
      ],
      [
        "ные",
        -7.81723154838151
      ],
      [
        "сообщили",
        -7.817541518585822
      ],
      [
        "стороны",
        -7.821600306282676
      ],
      [
        "министра",
        -7.8223210147950475
      ],
      [
        "юри",
        -7.823574829890957
      ],
      [
        "частност",
        -7.824949349117671
      ],
      [
        "службы",
        -7.828581849358753
      ],
      [
        "правительство",
        -7.830532021488972
      ],
      [
        "правоохранительн",
        -7.833815802795048
      ],
      [
        "дело",
        -7.8355237057337055
      ],
      [
        "му",
        -7.837468339260494
      ],
      [
        "считает",
        -7.842575101136101
      ],
      [
        "власти",
        -7.844705204679199
      ],
      [
        "ная",
        -7.8448772281268715
      ],
      [
        "так",
        -7.855854675579886
      ],
      [
        "обороны",
        -7.857753661326511
      ],
      [
        "акци",
        -7.8590205570007665
      ],
      [
        "ork",
        -7.861009870664582
      ],
      [
        "вести",
        -7.875767348917477
      ],
      [
        "счет",
        -7.8762712313130345
      ],
      [
        "дагестан",
        -7.88427788562924
      ],
      [
        "операци",
        -7.895597809209071
      ],
      [
        "россия",
        -7.896391048743966
      ],
      [
        "дома",
        -7.900388741514897
      ],
      [
        "получил",
        -7.906222896047022
      ],
      [
        "четверг",
        -7.9085614945322265
      ],
      [
        "могут",
        -7.90895619820223
      ],
      [
        "согласно",
        -7.9090910871254465
      ],
      [
        "управления",
        -7.911244485704791
      ],
      [
        "директор",
        -7.918707714654142
      ],
      [
        "проект",
        -7.925139876132734
      ],
      [
        "двух",
        -7.9260966167316695
      ],
      [
        "которая",
        -7.928180796354072
      ],
      [
        "миллиард",
        -7.928336438244415
      ],
      [
        "ходе",
        -7.935723002168025
      ],
      [
        "пример",
        -7.938371529337402
      ],
      [
        "помощь",
        -7.948280979917793
      ],
      [
        "понедельник",
        -7.948280996987158
      ],
      [
        "мв",
        -7.948911509873127
      ],
      [
        "р",
        -7.951990181441501
      ],
      [
        "при",
        -7.968165331642957
      ],
      [
        "последни",
        -7.969597428408517
      ],
      [
        "представитель",
        -7.969907456127441
      ],
      [
        "самолет",
        -7.977632659601826
      ],
      [
        "лужков",
        -7.9792265409546905
      ],
      [
        "от",
        -7.980868198341978
      ],
      [
        "настоящее",
        -7.983182116366976
      ],
      [
        "александр",
        -7.988743490726138
      ],
      [
        "лся",
        -7.988977321180593
      ],
      [
        "других",
        -7.989954921131144
      ],
      [
        "ный",
        -7.995829608744044
      ],
      [
        "течение",
        -8.00163693701079
      ],
      [
        "совета",
        -8.002475543757793
      ],
      [
        "действия",
        -8.004216650931212
      ],
      [
        "of",
        -8.005160925253438
      ],
      [
        "российского",
        -8.006301470681088
      ],
      [
        "люде",
        -8.010687802412663
      ],
      [
        "что",
        -8.010745108558087
      ],
      [
        "ранее",
        -8.011301568992497
      ],
      [
        "ского",
        -8.01199684113302
      ],
      [
        "свое",
        -8.013201215143777
      ],
      [
        "эти",
        -8.014590290704025
      ],
      [
        "глава",
        -8.022307045499101
      ],
      [
        "банк",
        -8.0282038200859
      ],
      [
        "ную",
        -8.029281367036809
      ],
      [
        "случае",
        -8.030185512251743
      ],
      [
        "средств",
        -8.033141693048305
      ],
      [
        "ряд",
        -8.035185253518707
      ],
      [
        "гу",
        -8.036005871263756
      ],
      [
        "генерал",
        -8.040653561208007
      ],
      [
        "борьб",
        -8.041683221263387
      ],
      [
        "газет",
        -8.043894026808122
      ],
      [
        "фсб",
        -8.04430217266636
      ],
      [
        "полици",
        -8.044474196839253
      ],
      [
        "оста",
        -8.059992007132621
      ],
      [
        "систем",
        -8.061751737038971
      ],
      [
        "намерен",
        -8.0636763179225
      ],
      [
        "среди",
        -8.06435629746996
      ],
      [
        "компания",
        -8.066457941325531
      ],
      [
        "представители",
        -8.068844644713224
      ],
      [
        "отношени",
        -8.07715521993341
      ],
      [
        "поскольку",
        -8.078191839932638
      ],
      [
        "своих",
        -8.079343745054498
      ],
      [
        "дела",
        -8.08815147348583
      ],
      [
        "корреспондент",
        -8.089704793390784
      ],
      [
        "либо",
        -8.090586502440956
      ],
      [
        "боевиков",
        -8.09223857112513
      ],
      [
        "председатель",
        -8.09440113464851
      ],
      [
        "день",
        -8.100322495633984
      ],
      [
        "района",
        -8.101241435073486
      ],
      [
        "переговор",
        -8.102936790566842
      ],
      [
        "мин",
        -8.105376890059617
      ],
      [
        "первый",
        -8.105653559050207
      ],
      [
        "начал",
        -8.10895308944847
      ],
      [
        "вице",
        -8.113457450529943
      ],
      [
        "б",
        -8.116332218311104
      ],
      [
        "конференции",
        -8.122040792885926
      ],
      [
        "тимор",
        -8.125837575976634
      ],
      [
        "населени",
        -8.12587908353041
      ],
      [
        "тся",
        -8.136054432319677
      ],
      [
        "срок",
        -8.136225917752299
      ],
      [
        "пятниц",
        -8.137754414982137
      ],
      [
        "лишь",
        -8.138888060369325
      ],
      [
        "взрыва",
        -8.145460066490887
      ],
      [
        "мене",
        -8.149722503988894
      ],
      [
        "федерации",
        -8.150718342186435
      ],
      [
        "районе",
        -8.15419144925011
      ],
      [
        "котором",
        -8.15909897728319
      ],
      [
        "беженцев",
        -8.162635006713568
      ],
      [
        "жителей",
        -8.1647551506815
      ],
      [
        "дня",
        -8.166489523959363
      ],
      [
        "министерства",
        -8.17114153824965
      ],
      [
        "интерфакс",
        -8.175237941210224
      ],
      [
        "часов",
        -8.17679892558409
      ],
      [
        "участие",
        -8.17876485887778
      ],
      [
        "источник",
        -8.180111120653532
      ],
      [
        "ый",
        -8.186904225685346
      ],
      [
        "внутренних",
        -8.188665329771617
      ],
      [
        "руководство",
        -8.188815707017788
      ],
      [
        "центра",
        -8.193205416123188
      ],
      [
        "которой",
        -8.194881732464436
      ],
      [
        "деньг",
        -8.19558288095165
      ],
      [
        "числе",
        -8.200968472912614
      ],
      [
        "улиц",
        -8.203840671880544
      ],
      [
        "ко",
        -8.208541337523549
      ],
      [
        "пор",
        -8.210354307825593
      ],
      [
        "вмест",
        -8.21559346463048
      ],
      [
        "часть",
        -8.217402498062192
      ],
      [
        "свои",
        -8.224787339430751
      ],
      [
        "многи",
        -8.22487643202403
      ],
      [
        "должны",
        -8.22512450965339
      ],
      [
        "обнаружен",
        -8.233596933529455
      ],
      [
        "государства",
        -8.237903823853419
      ],
      [
        "которого",
        -8.24104880538046
      ],
      [
        "под",
        -8.244502427393366
      ],
      [
        "известно",
        -8.246945683458776
      ],
      [
        "вы",
        -8.250470177613515
      ],
      [
        "органов",
        -8.255826990109352
      ],
      [
        "глав",
        -8.261232043855259
      ],
      [
        "системы",
        -8.262670393509929
      ],
      [
        "данны",
        -8.263496072046221
      ],
      [
        "t",
        -8.264188917036869
      ],
      [
        "министерство",
        -8.264524840856708
      ],
      [
        "интервью",
        -8.268636290262585
      ],
      [
        "михаил",
        -8.268636972943888
      ],
      [
        "состав",
        -8.27016576371311
      ],
      [
        "всем",
        -8.278960334702658
      ],
      [
        "новый",
        -8.279129821773951
      ],
      [
        "ц",
        -8.286259531572902
      ],
      [
        "иностранны",
        -8.288162687527421
      ],
      [
        "нового",
        -8.290476914500204
      ],
      [
        "первы",
        -8.291935627751354
      ],
      [
        "финансов",
        -8.292084004089403
      ],
      [
        "должен",
        -8.295554210041205
      ],
      [
        "практическ",
        -8.297021833613982
      ],
      [
        "заместитель",
        -8.297043921030749
      ],
      [
        "военных",
        -8.297225388283023
      ],
      [
        "газета",
        -8.297603468581237
      ],
      [
        "оказа",
        -8.299465079230458
      ],
      [
        "размер",
        -8.300492268869847
      ],
      [
        "войск",
        -8.301121216426793
      ],
      [
        "центре",
        -8.306733269777915
      ],
      [
        "дом",
        -8.308144228652747
      ],
      [
        "столиц",
        -8.310026550367734
      ],
      [
        "нет",
        -8.313935154408966
      ],
      [
        "петербург",
        -8.316743870525393
      ],
      [
        "эксперт",
        -8.31852400152628
      ],
      [
        "компьютер",
        -8.320889101973348
      ],
      [
        "счета",
        -8.321585033459645
      ],
      [
        "погибли",
        -8.322971361659057
      ],
      [
        "регистрации",
        -8.324558167197296
      ],
      [
        "косово",
        -8.326207131222228
      ],
      [
        "другие",
        -8.326643972892374
      ],
      [
        "раз",
        -8.327336070690329
      ],
      [
        "политик",
        -8.330532813920126
      ],
      [
        "ать",
        -8.331362363979695
      ],
      [
        "имеет",
        -8.332026939715686
      ],
      [
        "месте",
        -8.339289831754378
      ],
      [
        "ка",
        -8.339418866569467
      ],
      [
        "удалось",
        -8.34120314653929
      ],
      [
        "находится",
        -8.341217584654482
      ],
      [
        "удар",
        -8.342382952511361
      ],
      [
        "дагестане",
        -8.349341771496292
      ],
      [
        "ках",
        -8.35040169391559
      ],
      [
        "бывший",
        -8.352894053869672
      ],
      [
        "произошл",
        -8.356320264555954
      ],
      [
        "эта",
        -8.3615544436337
      ],
      [
        "августа",
        -8.362071100201163
      ],
      [
        "стало",
        -8.367815282864488
      ],
      [
        "борис",
        -8.36930265293027
      ],
      [
        "великобритани",
        -8.37166677395085
      ],
      [
        "американских",
        -8.371931425883478
      ],
      [
        "пере",
        -8.372226432090022
      ],
      [
        "до",
        -8.376956184729769
      ],
      [
        "обще",
        -8.377383223771522
      ],
      [
        "суда",
        -8.378488964847335
      ],
      [
        "руководител",
        -8.381637348139774
      ],
      [
        "нью",
        -8.38306699435886
      ],
      [
        "теракт",
        -8.38560872538882
      ],
      [
        "главы",
        -8.387469006212193
      ],
      [
        "составляет",
        -8.387499025074584
      ],
      [
        "считают",
        -8.38826965673989
      ],
      [
        "арми",
        -8.388565018918136
      ],
      [
        "штат",
        -8.397219082046742
      ],
      [
        "как",
        -8.400990228172747
      ],
      [
        "жизн",
        -8.401709243570322
      ],
      [
        "сотрудников",
        -8.404548733426491
      ],
      [
        "совет",
        -8.40552367231908
      ],
      [
        "e",
        -8.405574083186565
      ],
      [
        "энерго",
        -8.405828272012517
      ],
      [
        "южно",
        -8.408442315758123
      ],
      [
        "спис",
        -8.409282654554525
      ],
      [
        "госдумы",
        -8.411804505155313
      ],
      [
        "украин",
        -8.412009079288323
      ],
      [
        "задержан",
        -8.41225399643949
      ],
      [
        "начальник",
        -8.413266073052739
      ],
      [
        "al",
        -8.41360813520378
      ],
      [
        "образо",
        -8.414142147153331
      ],
      [
        "возможно",
        -8.41475592980649
      ],
      [
        "место",
        -8.415034383028889
      ],
      [
        "сти",
        -8.415700183621258
      ],
      [
        "палат",
        -8.41772616362093
      ],
      [
        "воскресень",
        -8.419293871162541
      ],
      [
        "меры",
        -8.423015274942852
      ],
      [
        "программ",
        -8.430232031517981
      ],
      [
        "служб",
        -8.433657793622757
      ],
      [
        "миллиарда",
        -8.435371933618828
      ],
      [
        "деятельности",
        -8.435554681659376
      ],
      [
        "помощи",
        -8.435687090411804
      ],
      [
        "число",
        -8.435954445058808
      ],
      [
        "организаци",
        -8.43647027904111
      ],
      [
        "оружи",
        -8.437561490377412
      ],
      [
        "ранены",
        -8.437612574729233
      ],
      [
        "ят",
        -8.439446073551402
      ],
      [
        "рам",
        -8.44419963245566
      ],
      [
        "движени",
        -8.446416191417239
      ],
      [
        "именно",
        -8.452637983044005
      ],
      [
        "объявил",
        -8.452981613957999
      ],
      [
        "журналистам",
        -8.456942821501725
      ],
      [
        "сайт",
        -8.457439180899621
      ],
      [
        "центр",
        -8.458661977091769
      ],
      [
        "миллиона",
        -8.462746642233412
      ],
      [
        "тех",
        -8.463144871227115
      ],
      [
        "своей",
        -8.464668802145702
      ],
      [
        "ра",
        -8.465272279729795
      ],
      [
        "ч",
        -8.46528186158609
      ],
      [
        "предполагает",
        -8.46635846521022
      ],
      [
        "вд",
        -8.466462400212206
      ],
      [
        "новой",
        -8.466963788841142
      ],
      [
        "пункт",
        -8.469480459567784
      ],
      [
        "пост",
        -8.46949638087278
      ],
      [
        "мира",
        -8.471011535512815
      ],
      [
        "одного",
        -8.47147833027137
      ],
      [
        "перв",
        -8.471914974542468
      ],
      [
        "стал",
        -8.47295494129854
      ],
      [
        "необходимо",
        -8.47557551961491
      ],
      [
        "p",
        -8.480604182555865
      ],
      [
        "месяце",
        -8.480633587993104
      ],
      [
        "виктор",
        -8.480993852419921
      ],
      [
        "представителе",
        -8.48432922509916
      ],
      [
        "причин",
        -8.48862130059769
      ],
      [
        "сообщила",
        -8.495811837135541
      ],
      [
        "стране",
        -8.499384962053398
      ],
      [
        "говорит",
        -8.50074929798317
      ],
      [
        "фонда",
        -8.50257729695397
      ],
      [
        "клинтон",
        -8.504088134852205
      ],
      [
        "никаких",
        -8.505040298081592
      ],
      [
        "группа",
        -8.507834550511172
      ],
      [
        "сотрудники",
        -8.510115035104246
      ],
      [
        "член",
        -8.511243566991723
      ],
      [
        "люди",
        -8.511584877122473
      ],
      [
        "начала",
        -8.512002622502058
      ],
      [
        "военно",
        -8.513386940134293
      ],
      [
        "домов",
        -8.515667318628726
      ],
      [
        "нефт",
        -8.521282826844036
      ],
      [
        "очень",
        -8.521948184420275
      ],
      [
        "вечером",
        -8.522937705003201
      ],
      [
        "лиц",
        -8.524539454433047
      ],
      [
        "одной",
        -8.525089562501723
      ],
      [
        "групп",
        -8.526967977049209
      ],
      [
        "этим",
        -8.534495948320178
      ],
      [
        "очеред",
        -8.536440945641132
      ],
      [
        "сумм",
        -8.536989348467856
      ],
      [
        "нато",
        -8.537686517765682
      ],
      [
        "номер",
        -8.53964711154857
      ],
      [
        "силы",
        -8.539730721942618
      ],
      [
        "комплекс",
        -8.540128372668931
      ],
      [
        "во",
        -8.5403423700898
      ],
      [
        "франци",
        -8.540491902594098
      ],
      [
        "ями",
        -8.541455249837027
      ],
      [
        "кандидатов",
        -8.543732852135868
      ],
      [
        "цель",
        -8.546754636145835
      ],
      [
        "действи",
        -8.547356733443532
      ],
      [
        "объем",
        -8.548334140441394
      ],
      [
        "ностью",
        -8.548627140372481
      ],
      [
        "бр",
        -8.552097303910987
      ],
      [
        "блока",
        -8.55360398526458
      ],
      [
        "группы",
        -8.553758388805988
      ],
      [
        "их",
        -8.554032573586138
      ],
      [
        "организации",
        -8.555194939921389
      ],
      [
        "карачаев",
        -8.555292967464696
      ],
      [
        "план",
        -8.556576989439051
      ],
      [
        "которое",
        -8.558602703612573
      ],
      [
        "минут",
        -8.558794263650535
      ],
      [
        "средства",
        -8.559103022787072
      ],
      [
        "производств",
        -8.560602510466163
      ],
      [
        "материал",
        -8.56740414410482
      ],
      [
        "трех",
        -8.567415111862475
      ],
      [
        "блок",
        -8.573022028250705
      ],
      [
        "количество",
        -8.573234778807485
      ],
      [
        "машин",
        -8.573656125345979
      ],
      [
        "агентства",
        -8.575184872227023
      ],
      [
        "times",
        -8.57751353730901
      ],
      [
        "скуратов",
        -8.577545809184778
      ],
      [
        "места",
        -8.577903532109442
      ],
      [
        "сут",
        -8.57880109430976
      ],
      [
        "процентов",
        -8.578833921385945
      ],
      [
        "телефон",
        -8.579245530928784
      ],
      [
        "участник",
        -8.580057025122425
      ],
      [
        "владимира",
        -8.584291077934152
      ],
      [
        "расследование",
        -8.584615847969603
      ],
      [
        "сторон",
        -8.584925889243
      ],
      [
        "компаний",
        -8.58669456745038
      ],
      [
        "некоторые",
        -8.59285721423302
      ],
      [
        "скандал",
        -8.595047119212675
      ],
      [
        "дене",
        -8.59594714380832
      ],
      [
        "местны",
        -8.598714004252738
      ],
      [
        "террористов",
        -8.598870979677715
      ],
      [
        "органы",
        -8.59923173515119
      ],
      [
        "заседании",
        -8.599824801705275
      ],
      [
        "его",
        -8.601676914273035
      ],
      [
        "стать",
        -8.601984557954534
      ],
      [
        "режим",
        -8.602040976040005
      ],
      [
        "об",
        -8.602254070302568
      ],
      [
        "рынк",
        -8.603462031737408
      ],
      [
        "пострадавши",
        -8.606237008333633
      ],
      [
        "право",
        -8.610096025576254
      ],
      [
        "доход",
        -8.610226603236676
      ],
      [
        "здания",
        -8.612344063546265
      ],
      [
        "момент",
        -8.613395402194865
      ],
      [
        "части",
        -8.615788516002453
      ],
      [
        "soft",
        -8.616371753928037
      ],
      [
        "ния",
        -8.617668670762274
      ],
      [
        "контрол",
        -8.62052501952029
      ],
      [
        "московск",
        -8.620599609283234
      ],
      [
        "установлен",
        -8.622607267819152
      ],
      [
        "администрации",
        -8.623381190067095
      ],
      [
        "сми",
        -8.623707611574016
      ],
      [
        "комитета",
        -8.624026447578522
      ],
      [
        "жертв",
        -8.625852796266514
      ],
      [
        "ру",
        -8.632313855602145
      ],
      [
        "дмитри",
        -8.636352432064553
      ],
      [
        "погибши",
        -8.63638229570997
      ],
      [
        "смотря",
        -8.636508260980463
      ],
      [
        "соответстви",
        -8.638655882592094
      ],
      [
        "стоит",
        -8.63969768978361
      ],
      [
        "своем",
        -8.640074557063707
      ],
      [
        "бюджет",
        -8.64109036180006
      ],
      [
        "председателя",
        -8.641304727664071
      ],
      [
        "сотрудничеств",
        -8.642065451904488
      ],
      [
        "должно",
        -8.642929577976705
      ],
      [
        "должн",
        -8.646309777357986
      ],
      [
        "кавказ",
        -8.64811828684758
      ],
      [
        "таким",
        -8.652084497616057
      ],
      [
        "цев",
        -8.652672914392124
      ],
      [
        "x",
        -8.65585816626604
      ],
      [
        "выше",
        -8.656003513220355
      ],
      [
        "micro",
        -8.656760712587989
      ],
      [
        "press",
        -8.656834925415524
      ],
      [
        "двое",
        -8.657944192828062
      ],
      [
        "стали",
        -8.659304823791663
      ],
      [
        "мире",
        -8.660493687825994
      ],
      [
        "планирует",
        -8.660674956896054
      ],
      [
        "утверждает",
        -8.661323019558854
      ],
      [
        "ближайшее",
        -8.663090167631463
      ],
      [
        "работа",
        -8.66653072480274
      ],
      [
        "мч",
        -8.670222603840854
      ],
      [
        "секретарь",
        -8.670281706771398
      ],
      [
        "вших",
        -8.671335903955175
      ],
      [
        "идет",
        -8.675396669421168
      ],
      [
        "прав",
        -8.675566921879227
      ],
      [
        "договор",
        -8.67597119338231
      ],
      [
        "военные",
        -8.677698178277018
      ],
      [
        "минувший",
        -8.678551317311863
      ],
      [
        "сергей",
        -8.67872660123242
      ],
      [
        "войны",
        -8.679090524103081
      ],
      [
        "черкеси",
        -8.679633054958868
      ],
      [
        "официально",
        -8.680825379538536
      ],
      [
        "комиссии",
        -8.681679994628974
      ],
      [
        "технологи",
        -8.681893153219974
      ],
      [
        "мер",
        -8.683048633698409
      ],
      [
        "мы",
        -8.683741218238907
      ],
      [
        "собой",
        -8.684260175473984
      ],
      [
        "которым",
        -8.685164719524506
      ],
      [
        "прокуратур",
        -8.685254618982928
      ],
      [
        "международно",
        -8.685265386756974
      ],
      [
        "списк",
        -8.685274700951588
      ],
      [
        "данных",
        -8.685449548892919
      ],
      [
        "ураган",
        -8.68737338049374
      ],
      [
        "сообщило",
        -8.687463779955333
      ],
      [
        "минувше",
        -8.68771270710088
      ],
      [
        "наибол",
        -8.690824356002848
      ],
      [
        "связан",
        -8.691725981822268
      ],
      [
        "подготовк",
        -8.692214325193756
      ],
      [
        "ответ",
        -8.695341525844754
      ],
      [
        "ла",
        -8.697075217870058
      ],
      [
        "цик",
        -8.697420073479499
      ],
      [
        "et",
        -8.69832973701427
      ],
      [
        "конгресс",
        -8.698594794374563
      ],
      [
        "коррупци",
        -8.698870245741919
      ],
      [
        "центризбирком",
        -8.698904726115313
      ],
      [
        "взрывчатк",
        -8.700100067460976
      ],
      [
        "являются",
        -8.700257421472363
      ],
      [
        "качестве",
        -8.701774994128286
      ],
      [
        "создани",
        -8.702665780881993
      ],
      [
        "возможность",
        -8.7028136651909
      ],
      [
        "губернатор",
        -8.707010126267381
      ],
      [
        "лондон",
        -8.707174620025674
      ],
      [
        "членов",
        -8.708762474933005
      ],
      [
        "принял",
        -8.70898210609338
      ],
      [
        "йорк",
        -8.714057446756314
      ],
      [
        "программы",
        -8.716622509246047
      ],
      [
        "банков",
        -8.716894616901943
      ],
      [
        "ский",
        -8.71767797322305
      ],
      [
        "отмечает",
        -8.718058556101852
      ],
      [
        "просьб",
        -8.720615758669668
      ],
      [
        "выбора",
        -8.722509692090245
      ],
      [
        "новая",
        -8.724359479615797
      ],
      [
        "скоре",
        -8.726067442279405
      ],
      [
        "участи",
        -8.728530771126355
      ],
      [
        "ситуации",
        -8.728602029510302
      ],
      [
        "второй",
        -8.72860297440712
      ],
      [
        "новых",
        -8.732361158377234
      ],
      [
        "район",
        -8.732565980406259
      ],
      [
        "принято",
        -8.735506886905137
      ],
      [
        "адвокат",
        -8.73669423921963
      ],
      [
        "мест",
        -8.737541952970124
      ],
      [
        "эс",
        -8.738106518265512
      ],
      [
        "подобны",
        -8.738979006316658
      ],
      [
        "политическо",
        -8.7398446792646
      ],
      [
        "структур",
        -8.741344312967277
      ],
      [
        "ближайши",
        -8.741676494177886
      ],
      [
        "предварительны",
        -8.74283348400247
      ],
      [
        "задолженност",
        -8.74284882908847
      ],
      [
        "столице",
        -8.74292614913666
      ],
      [
        "штаб",
        -8.74305921560046
      ],
      [
        "выборов",
        -8.744245058282116
      ],
      [
        "подтвердил",
        -8.744874565221687
      ],
      [
        "сообщению",
        -8.745544187689715
      ],
      [
        "ская",
        -8.747879710281218
      ],
      [
        "сведениям",
        -8.749775668905656
      ],
      [
        "все",
        -8.7540789822377
      ],
      [
        "этому",
        -8.754448660287714
      ],
      [
        "встречи",
        -8.754903212636945
      ],
      [
        "махи",
        -8.755543598207359
      ],
      [
        "семь",
        -8.758987484901985
      ],
      [
        "продаж",
        -8.761120185196116
      ],
      [
        "запад",
        -8.761303013176768
      ],
      [
        "или",
        -8.763639462388944
      ],
      [
        "масхадов",
        -8.76555912710927
      ],
      [
        "произошел",
        -8.765561177590811
      ],
      [
        "накануне",
        -8.765561180008794
      ],
      [
        "находятся",
        -8.765758375871766
      ],
      [
        "ситуация",
        -8.765935303892373
      ],
      [
        "выплат",
        -8.766120521102376
      ],
      [
        "объявлен",
        -8.766352529145049
      ],
      [
        "дпр",
        -8.769498246041241
      ],
      [
        "ни",
        -8.769633914967278
      ],
      [
        "ому",
        -8.770927498264246
      ],
      [
        "ков",
        -8.773370290984788
      ],
      [
        "федеральн",
        -8.774611679966858
      ],
      [
        "партии",
        -8.77547830343876
      ],
      [
        "таки",
        -8.775752820157916
      ],
      [
        "российским",
        -8.77585531502149
      ],
      [
        "собира",
        -8.782855049945438
      ],
      [
        "орт",
        -8.786805409787126
      ],
      [
        "пострадал",
        -8.789319684911169
      ],
      [
        "территорию",
        -8.790217686412335
      ],
      [
        "грузи",
        -8.790828209221905
      ],
      [
        "процесс",
        -8.79131971414183
      ],
      [
        "генерального",
        -8.79147758965701
      ],
      [
        "росси",
        -8.79182800449616
      ],
      [
        "ситуаци",
        -8.7925314595464
      ],
      [
        "специалисты",
        -8.793802095363418
      ],
      [
        "i",
        -8.793807925623263
      ],
      [
        "одном",
        -8.795498331830089
      ],
      [
        "состояние",
        -8.80013900959693
      ],
      [
        "границы",
        -8.802026580753015
      ],
      [
        "станет",
        -8.802636155691888
      ],
      [
        "отставк",
        -8.803981086475133
      ],
      [
        "государственно",
        -8.80505126927688
      ],
      [
        "пассажир",
        -8.808023964581592
      ],
      [
        "n",
        -8.809145619935826
      ],
      [
        "заявлени",
        -8.809414197941912
      ],
      [
        "хотя",
        -8.810393765766985
      ],
      [
        "движение",
        -8.811597240816996
      ],
      [
        "инцидент",
        -8.81262420452704
      ],
      [
        "границ",
        -8.814399128090379
      ],
      [
        "договора",
        -8.815330822337218
      ],
      [
        "дней",
        -8.81571584868069
      ],
      [
        "затем",
        -8.81572578581132
      ],
      [
        "бомб",
        -8.816475233192897
      ],
      [
        "зад",
        -8.821405194687909
      ],
      [
        "обеспечени",
        -8.823334520139246
      ],
      [
        "ку",
        -8.824367573006274
      ],
      [
        "квартир",
        -8.825172507497857
      ],
      [
        "проверки",
        -8.828215153584154
      ],
      [
        "призыв",
        -8.82859789028699
      ],
      [
        "отечеств",
        -8.829176906357949
      ],
      [
        "направлен",
        -8.829376617593507
      ],
      [
        "сети",
        -8.830069790216953
      ],
      [
        "создан",
        -8.83102002680504
      ],
      [
        "лица",
        -8.834328419360737
      ],
      [
        "большинство",
        -8.835857994280305
      ],
      [
        "решения",
        -8.836005309936354
      ],
      [
        "з",
        -8.837149488140442
      ],
      [
        "речь",
        -8.837156440683874
      ],
      [
        "le",
        -8.8373612889971
      ],
      [
        "бывшего",
        -8.837680480262303
      ],
      [
        "одним",
        -8.83848741420693
      ],
      [
        "завод",
        -8.84262941016344
      ],
      [
        "развити",
        -8.84311977115477
      ],
      [
        "постановление",
        -8.84313280312712
      ],
      [
        "международного",
        -8.843570229187929
      ],
      [
        "начальника",
        -8.846169305625107
      ],
      [
        "верси",
        -8.846238622482653
      ],
      [
        "назвал",
        -8.848566119711002
      ],
      [
        "здание",
        -8.849050649742424
      ],
      [
        "госдум",
        -8.849364168862461
      ],
      [
        "русски",
        -8.84939296941565
      ],
      [
        "поддержк",
        -8.851338836678963
      ],
      [
        "ным",
        -8.851947323708691
      ],
      [
        "прошло",
        -8.852103860099387
      ],
      [
        "уголовное",
        -8.853646767935565
      ],
      [
        "возможност",
        -8.854108815351797
      ],
      [
        "законодательств",
        -8.85532446191213
      ],
      [
        "заявление",
        -8.855522718907073
      ],
      [
        "прибыл",
        -8.858729681023005
      ],
      [
        "ущерб",
        -8.862014464419845
      ],
      [
        "вновь",
        -8.862028646715041
      ],
      [
        "ex",
        -8.86250894090379
      ],
      [
        "вокруг",
        -8.864300353249071
      ],
      [
        "факт",
        -8.864612763192943
      ],
      [
        "чечне",
        -8.865813383555663
      ],
      [
        "права",
        -8.866077617609633
      ],
      [
        "доме",
        -8.86719885621156
      ],
      [
        "ing",
        -8.867539901789526
      ],
      [
        "утро",
        -8.869677495773669
      ],
      [
        "километра",
        -8.87049382776409
      ],
      [
        "пред",
        -8.873243450608365
      ],
      [
        "власт",
        -8.874001074313805
      ],
      [
        "неделе",
        -8.87481897581109
      ],
      [
        "торгов",
        -8.877635107326517
      ],
      [
        "новы",
        -8.878709579804859
      ],
      [
        "станции",
        -8.881601752931966
      ],
      [
        "отмывани",
        -8.881960516483336
      ],
      [
        "официальны",
        -8.88417124570967
      ],
      [
        "войска",
        -8.884744190130613
      ],
      [
        "авари",
        -8.885434878166233
      ],
      [
        "директора",
        -8.885717269393343
      ],
      [
        "ном",
        -8.887539376093256
      ],
      [
        "вчера",
        -8.88758973542048
      ],
      [
        "стоимость",
        -8.887881856265377
      ],
      [
        "буйнакск",
        -8.888004344145521
      ],
      [
        "япони",
        -8.888431699143155
      ],
      [
        "выступа",
        -8.889132188925409
      ],
      [
        "метров",
        -8.89006682031551
      ],
      [
        "передает",
        -8.890152448411861
      ],
      [
        "просто",
        -8.891353910792834
      ],
      [
        "com",
        -8.893443589021675
      ],
      [
        "международных",
        -8.89392312828255
      ],
      [
        "же",
        -8.894656034129659
      ],
      [
        "истори",
        -8.896690490593745
      ],
      [
        "o",
        -8.896853925213225
      ],
      [
        "тонн",
        -8.897125270344084
      ],
      [
        "бизнес",
        -8.897588254403455
      ],
      [
        "само",
        -8.897667425687473
      ],
      [
        "час",
        -8.899437907428364
      ],
      [
        "фирмы",
        -8.899647287889561
      ],
      [
        "выход",
        -8.900412147581145
      ],
      [
        "принят",
        -8.902543237136033
      ],
      [
        "таких",
        -8.90433125706408
      ],
      [
        "характер",
        -8.9076127691316
      ],
      [
        "корпорации",
        -8.911745747686547
      ],
      [
        "комитет",
        -8.913229926021746
      ],
      [
        "reu",
        -8.914028184557548
      ],
      [
        "ters",
        -8.914152161880333
      ],
      [
        "выразил",
        -8.914427002568853
      ],
      [
        "поэтому",
        -8.915228431742902
      ],
      [
        "f",
        -8.916919078725375
      ],
      [
        "ло",
        -8.917001821349123
      ],
      [
        "северо",
        -8.917404984855715
      ],
      [
        "арест",
        -8.917700669227917
      ],
      [
        "нефть",
        -8.919019222787938
      ],
      [
        "списка",
        -8.920570863012731
      ],
      [
        "m",
        -8.921947120750907
      ],
      [
        "газ",
        -8.924602800392872
      ],
      [
        "бин",
        -8.925232715843723
      ],
      [
        "казахстан",
        -8.927481629680765
      ],
      [
        "ец",
        -8.92756938919015
      ],
      [
        "йти",
        -8.928542537819393
      ],
      [
        "сих",
        -8.929373821169044
      ],
      [
        "готов",
        -8.930151768332738
      ],
      [
        "топлив",
        -8.931267925672172
      ],
      [
        "ком",
        -8.936402028306
      ],
      [
        "евро",
        -8.937087416952178
      ],
      [
        "со",
        -8.937586344008018
      ],
      [
        "московском",
        -8.938582916428658
      ],
      [
        "период",
        -8.94099983880124
      ],
      [
        "имя",
        -8.941088142310372
      ],
      [
        "использование",
        -8.941951253695766
      ],
      [
        "выставк",
        -8.94263799246556
      ],
      [
        "адрес",
        -8.942855438232478
      ],
      [
        "стици",
        -8.944709604838762
      ],
      [
        "составил",
        -8.945859359415328
      ],
      [
        "вооруженных",
        -8.946638096593407
      ],
      [
        "бюджета",
        -8.948315267534136
      ],
      [
        "обрати",
        -8.948463314875694
      ],
      [
        "закона",
        -8.949823472334993
      ],
      [
        "назначени",
        -8.949871236053795
      ],
      [
        "конституци",
        -8.953765667598937
      ],
      [
        "национальной",
        -8.958173959502481
      ],
      [
        "состоя",
        -8.959280339551793
      ],
      [
        "предприяти",
        -8.962520398851595
      ],
      [
        "сообщения",
        -8.962711749423212
      ],
      [
        "промышленност",
        -8.963537585707268
      ],
      [
        "нам",
        -8.964560423963118
      ],
      [
        "две",
        -8.964810740528756
      ],
      [
        ";",
        -8.965828687894287
      ],
      [
        "штаба",
        -8.967819642453376
      ],
      [
        "рушайло",
        -8.968776068559778
      ],
      [
        "аэрофлот",
        -8.968782761731259
      ],
      [
        "регион",
        -8.968973680892617
      ],
      [
        "союз",
        -8.97018008573156
      ],
      [
        "пожар",
        -8.97058034107517
      ],
      [
        "попытк",
        -8.970729791462979
      ],
      [
        "александра",
        -8.971609983132693
      ],
      [
        "трое",
        -8.972150933259968
      ],
      [
        "ночь",
        -8.972972596950648
      ],
      [
        "ингушетии",
        -8.973968084217383
      ],
      [
        "школ",
        -8.974455166575758
      ],
      [
        "автомобиле",
        -8.981016747717312
      ],
      [
        "соглашение",
        -8.983294228096025
      ],
      [
        "спецслужб",
        -8.983586431033721
      ],
      [
        "b",
        -8.984536180513185
      ],
      [
        "общественно",
        -8.98653887772946
      ],
      [
        "площад",
        -8.987848944268595
      ],
      [
        "совместно",
        -8.989675104409688
      ],
      [
        "прошл",
        -8.990023708481464
      ],
      [
        "серьезно",
        -8.991695219852257
      ],
      [
        "созда",
        -8.993360325986592
      ],
      [
        "конкретны",
        -8.993745126540068
      ],
      [
        "государственн",
        -8.995542785857415
      ],
      [
        "всей",
        -8.99647720807129
      ],
      [
        "контроль",
        -8.996833105259693
      ],
      [
        "горбачев",
        -8.997347532070155
      ],
      [
        "пиночет",
        -8.997347549858137
      ],
      [
        "телевидени",
        -8.997348085676506
      ],
      [
        "кампани",
        -8.997349334042731
      ],
      [
        "эхо",
        -8.99756016298159
      ],
      [
        "мир",
        -8.997640926435137
      ],
      [
        "своим",
        -8.997667739014775
      ],
      [
        "руководства",
        -8.9977988364883
      ],
      [
        "associate",
        -8.997880477630245
      ],
      [
        "инди",
        -8.998002891329415
      ],
      [
        "миссии",
        -8.998416795623562
      ],
      [
        "пять",
        -8.998733950465795
      ],
      [
        "другим",
        -8.99912007174629
      ],
      [
        "свой",
        -8.999925620736269
      ],
      [
        "налогов",
        -8.99993603463659
      ],
      [
        "гражданин",
        -9.000006001624271
      ],
      [
        "терроризмом",
        -9.000699726314664
      ],
      [
        "остальны",
        -9.001244719061697
      ],
      [
        "белоруссии",
        -9.003638358591505
      ],
      [
        "особо",
        -9.004101678135891
      ],
      [
        "фирм",
        -9.005813809991116
      ],
      [
        "было",
        -9.008732943560249
      ],
      [
        "главно",
        -9.012365948930224
      ],
      [
        "кредита",
        -9.01291037080738
      ],
      [
        "продолжают",
        -9.0134655245088
      ],
      [
        "способ",
        -9.013506376736474
      ],
      [
        "подразделения",
        -9.014772348016578
      ],
      [
        "четыре",
        -9.016145560013195
      ],
      [
        "больниц",
        -9.01838706649459
      ],
      [
        "ости",
        -9.019282047286307
      ],
      [
        "отношения",
        -9.020720248412566
      ],
      [
        "органам",
        -9.023854009033936
      ],
      [
        "задач",
        -9.024120420308346
      ],
      [
        "вс",
        -9.02540592920219
      ],
      [
        "правительств",
        -9.026424733955958
      ],
      [
        "прокурор",
        -9.02673096030384
      ],
      [
        "культур",
        -9.02676162540852
      ],
      [
        "уровне",
        -9.026779164141367
      ],
      [
        "законопроект",
        -9.026808504690361
      ],
      [
        "тысячи",
        -9.027115767816033
      ],
      [
        "километров",
        -9.027686715055712
      ],
      [
        "аэропорт",
        -9.027893179502673
      ],
      [
        "семенов",
        -9.028557762829966
      ],
      [
        "разработк",
        -9.028829426049667
      ],
      [
        "поводу",
        -9.030511040756709
      ],
      [
        "связь",
        -9.032601966793903
      ],
      [
        "ново",
        -9.03290168176176
      ],
      [
        "специально",
        -9.033721449212639
      ],
      [
        "система",
        -9.034032559934598
      ],
      [
        "for",
        -9.034214103085162
      ],
      [
        "ник",
        -9.034369828398034
      ],
      [
        "встрече",
        -9.034533607743315
      ],
      [
        "боевых",
        -9.034554471370825
      ],
      [
        "москву",
        -9.034673991240997
      ],
      [
        "восточном",
        -9.035979531378429
      ],
      [
        "условиях",
        -9.03686203675569
      ],
      [
        "серьезны",
        -9.037659970251692
      ],
      [
        "проекта",
        -9.037966870766486
      ],
      [
        "ны",
        -9.041237692047062
      ],
      [
        "незаконно",
        -9.042266301050658
      ],
      [
        "признал",
        -9.04242313685079
      ],
      [
        "порядка",
        -9.044151556172562
      ],
      [
        "голосов",
        -9.048238679139324
      ],
      [
        "шаг",
        -9.048288563724043
      ],
      [
        "рубеж",
        -9.048886801039377
      ],
      [
        "согласи",
        -9.051317527962816
      ],
      [
        "заложник",
        -9.05214509720766
      ],
      [
        "компани",
        -9.053623931016531
      ],
      [
        "нг",
        -9.054262971452426
      ],
      [
        "?",
        -9.057062291919513
      ],
      [
        "которую",
        -9.057062498554187
      ],
      [
        "ссср",
        -9.057068904585597
      ],
      [
        "пояснил",
        -9.05767248236202
      ],
      [
        "ответственност",
        -9.058979943270755
      ],
      [
        "сдела",
        -9.059419461461475
      ],
      [
        "недавн",
        -9.059601005799696
      ],
      [
        "весь",
        -9.059601999703194
      ],
      [
        "края",
        -9.059648155175323
      ],
      [
        "нов",
        -9.060917163210405
      ],
      [
        "мере",
        -9.06151064998676
      ],
      [
        "расследования",
        -9.061646724177898
      ],
      [
        "следствие",
        -9.061754232519593
      ],
      [
        "ночью",
        -9.062956492269088
      ],
      [
        "жил",
        -9.063003274044705
      ],
      [
        "связанны",
        -9.063275926059333
      ],
      [
        "думы",
        -9.063350872767655
      ],
      [
        "основном",
        -9.06370357937706
      ],
      [
        "экспорт",
        -9.066285558433435
      ],
      [
        "государственного",
        -9.067076342699702
      ],
      [
        "кита",
        -9.070056589337836
      ],
      [
        "представителя",
        -9.070507792276835
      ],
      [
        "федеральной",
        -9.07398485736229
      ],
      [
        "месяца",
        -9.074478702233044
      ],
      [
        "зон",
        -9.074686056238777
      ],
      [
        "союза",
        -9.074698402420726
      ],
      [
        "оно",
        -9.074990078996706
      ],
      [
        "самом",
        -9.07578404704924
      ],
      [
        "прокуратуры",
        -9.076798526207053
      ],
      [
        "транспорт",
        -9.077361494994344
      ],
      [
        "объект",
        -9.077951285992327
      ],
      [
        "nas",
        -9.079131249235335
      ],
      [
        "землетрясени",
        -9.080228832742346
      ],
      [
        "этом",
        -9.084648981519463
      ],
      [
        "вший",
        -9.084692789974584
      ],
      [
        "ракет",
        -9.084936187177577
      ],
      [
        "тяжело",
        -9.085708685704631
      ],
      [
        "одновременно",
        -9.08646303091535
      ],
      [
        "введен",
        -9.087662908306527
      ],
      [
        "чечн",
        -9.08816005197453
      ],
      [
        "шоссе",
        -9.088313623686288
      ],
      [
        "mab",
        -9.088400095259646
      ],
      [
        "ожидается",
        -9.090257851094325
      ],
      [
        "германи",
        -9.090367117629112
      ],
      [
        "провел",
        -9.090776400720081
      ],
      [
        "k",
        -9.094541261860932
      ],
      [
        "военного",
        -9.099046747382461
      ],
      [
        "вод",
        -9.100320049296801
      ],
      [
        "защиты",
        -9.10037481650199
      ],
      [
        "g",
        -9.10425098395972
      ],
      [
        "министерств",
        -9.108083319810904
      ],
      [
        "товар",
        -9.108235929632425
      ],
      [
        "делегаци",
        -9.109223461676358
      ],
      [
        "направил",
        -9.109414058898697
      ],
      [
        "московской",
        -9.11012576000822
      ],
      [
        "каса",
        -9.110242685279085
      ],
      [
        "генеральны",
        -9.11087560072751
      ],
      [
        "те",
        -9.111221390072886
      ],
      [
        "информационно",
        -9.11125298823531
      ],
      [
        "фонд",
        -9.112428142459615
      ],
      [
        "положение",
        -9.112811375546945
      ],
      [
        "выпуск",
        -9.11375391291887
      ],
      [
        "слова",
        -9.115554588080574
      ],
      [
        "э",
        -9.116240216146835
      ],
      [
        "группировк",
        -9.116280574892887
      ],
      [
        "обвинения",
        -9.116937318356126
      ],
      [
        "экс",
        -9.117609379529947
      ],
      [
        "нынешне",
        -9.119465525453471
      ],
      [
        "разговор",
        -9.120585806850006
      ],
      [
        "восток",
        -9.120595432757465
      ],
      [
        "bb",
        -9.12069775283258
      ],
      [
        "бензин",
        -9.120804272957358
      ],
      [
        "основани",
        -9.121444591081309
      ],
      [
        "финансовых",
        -9.124384579457576
      ],
      [
        "россией",
        -9.124455363211235
      ],
      [
        "британски",
        -9.125561184277574
      ],
      [
        "декабря",
        -9.126272083650516
      ],
      [
        "крайне",
        -9.12634082063415
      ],
      [
        "нт",
        -9.126363646511008
      ],
      [
        "продолжает",
        -9.12757647485904
      ],
      [
        "европе",
        -9.127779943302578
      ],
      [
        "государств",
        -9.127939224129685
      ],
      [
        "кажды",
        -9.128133413362292
      ],
      [
        "наш",
        -9.12875638084768
      ],
      [
        "охран",
        -9.129551228723592
      ],
      [
        "ников",
        -9.130127785245625
      ],
      [
        "ению",
        -9.130271295186628
      ],
      [
        "учены",
        -9.130772780419992
      ],
      [
        "телекомпани",
        -9.132742562208245
      ],
      [
        "автобус",
        -9.13435218321247
      ],
      [
        "массово",
        -9.134934838106874
      ],
      [
        "состоянии",
        -9.13553797801978
      ],
      [
        "ш",
        -9.137227065828476
      ],
      [
        "найден",
        -9.137777351976991
      ],
      [
        "пострадавшим",
        -9.138080041702706
      ],
      [
        "та",
        -9.13975017689436
      ],
      [
        "свобод",
        -9.13982814639961
      ],
      [
        "санк",
        -9.14067586291065
      ],
      [
        "радио",
        -9.141189809834042
      ],
      [
        "журналист",
        -9.141864930321667
      ],
      [
        "источников",
        -9.141937559720738
      ],
      [
        "рынка",
        -9.142387294307081
      ],
      [
        "правительственны",
        -9.143450577218875
      ],
      [
        "села",
        -9.145622557605112
      ],
      [
        "предприятия",
        -9.146608492335353
      ],
      [
        "утра",
        -9.146805184186654
      ],
      [
        "освобождени",
        -9.14744781171896
      ],
      [
        "ирак",
        -9.148313789124911
      ],
      [
        "отчет",
        -9.149496914284601
      ],
      [
        "бы",
        -9.150048057432656
      ],
      [
        "пользовател",
        -9.151052212687302
      ],
      [
        "баз",
        -9.151066829342696
      ],
      [
        "запрет",
        -9.151499659747882
      ],
      [
        "достаточно",
        -9.152491169840179
      ],
      [
        "сведения",
        -9.152600794831226
      ],
      [
        "врач",
        -9.153919379294921
      ],
      [
        "совещани",
        -9.154014195387564
      ],
      [
        "билл",
        -9.154037925838365
      ],
      [
        "находился",
        -9.154155475102446
      ],
      [
        "вызвал",
        -9.154274105824165
      ],
      [
        "необходимости",
        -9.15438228869072
      ],
      [
        "ation",
        -9.155563050302318
      ],
      [
        "подписан",
        -9.155828639049659
      ],
      [
        "чеченской",
        -9.157800136648763
      ],
      [
        "внимание",
        -9.159603793560867
      ],
      [
        "вывод",
        -9.160917558434285
      ],
      [
        "ными",
        -9.162056886319164
      ],
      [
        "компьютерны",
        -9.162176476561527
      ],
      [
        "информация",
        -9.163184044053901
      ],
      [
        "первого",
        -9.164611906697191
      ],
      [
        "оперативно",
        -9.165383443072226
      ],
      [
        "северном",
        -9.165768450130816
      ],
      [
        ">:",
        -9.166773988431524
      ],
      [
        "турции",
        -9.16816263485395
      ],
      [
        "самым",
        -9.16826382432221
      ],
      [
        "руководителе",
        -9.168503532125452
      ],
      [
        "приняли",
        -9.171811817732596
      ],
      [
        "рост",
        -9.172356577734124
      ],
      [
        "вся",
        -9.172486359077372
      ],
      [
        "агентств",
        -9.172731702657716
      ],
      [
        "in",
        -9.17321152291446
      ],
      [
        "ранения",
        -9.173676999493319
      ],
      [
        "половин",
        -9.174223254396885
      ],
      [
        "большой",
        -9.174274135629549
      ],
      [
        "сильно",
        -9.17428743807105
      ],
      [
        "северн",
        -9.174361850026907
      ],
      [
        "ности",
        -9.175460922382133
      ],
      [
        "международным",
        -9.176041328957627
      ],
      [
        "страна",
        -9.176867336564143
      ],
      [
        "поиск",
        -9.178650667023897
      ],
      [
        "черкесск",
        -9.1787280625099
      ],
      [
        "газа",
        -9.18306254466632
      ],
      [
        "институт",
        -9.183084660918333
      ],
      [
        "имеют",
        -9.183117639174045
      ],
      [
        "западны",
        -9.18698932199161
      ],
      [
        "одна",
        -9.187165138387126
      ],
      [
        "солдат",
        -9.188390584704594
      ],
      [
        "поступил",
        -9.188847863974893
      ],
      [
        "включая",
        -9.188935418212726
      ],
      [
        "зарплат",
        -9.188993899586833
      ],
      [
        "жители",
        -9.189090809237424
      ],
      [
        "позволит",
        -9.190445666025177
      ],
      [
        "уничтожен",
        -9.19065327991937
      ],
      [
        "происшествия",
        -9.190676782025605
      ],
      [
        "корпораци",
        -9.19132226742515
      ],
      [
        "ядерных",
        -9.191523958793201
      ],
      [
        "разу",
        -9.191779138905641
      ],
      [
        "летний",
        -9.191897596285783
      ],
      [
        "выборы",
        -9.19200814312258
      ],
      [
        "различных",
        -9.192600528948613
      ],
      [
        "европейски",
        -9.192672694739002
      ],
      [
        "европ",
        -9.193036360027838
      ],
      [
        "сегодняшне",
        -9.194918635079125
      ],
      [
        "николай",
        -9.195532821912437
      ],
      [
        "парламент",
        -9.195885738615821
      ],
      [
        "уверен",
        -9.197803951041275
      ],
      [
        "вшего",
        -9.198282201892077
      ],
      [
        "доллара",
        -9.198523486398852
      ],
      [
        "значительно",
        -9.198962569650888
      ],
      [
        "республике",
        -9.199674218571303
      ],
      [
        "техник",
        -9.20114498512104
      ],
      [
        "минувш",
        -9.201423782871382
      ],
      [
        "акционер",
        -9.201791969104864
      ],
      [
        "сумма",
        -9.202133208934654
      ],
      [
        "получит",
        -9.20316701470413
      ],
      [
        "оружие",
        -9.204099035729147
      ],
      [
        "новом",
        -9.20464176084415
      ],
      [
        "событи",
        -9.207131912656811
      ],
      [
        "женщин",
        -9.207969511299721
      ],
      [
        "защит",
        -9.208235065298327
      ],
      [
        "доклад",
        -9.208243324771633
      ],
      [
        "вирус",
        -9.208516948678383
      ],
      [
        "появи",
        -9.208584104442444
      ],
      [
        "катастроф",
        -9.209553115263969
      ],
      [
        "парламента",
        -9.210382747557096
      ],
      [
        "кара",
        -9.211271827881149
      ],
      [
        "основе",
        -9.211512958138512
      ],
      [
        "виде",
        -9.21390951263729
      ],
      [
        "службе",
        -9.216221315530351
      ],
      [
        "публикаци",
        -9.216648996728313
      ],
      [
        "ошибк",
        -9.218027233940024
      ],
      [
        "европейско",
        -9.218476815415096
      ],
      [
        "последне",
        -9.21937703152397
      ],
      [
        "действительно",
        -9.220836299111776
      ],
      [
        "анти",
        -9.221191194195656
      ],
      [
        "угроз",
        -9.221847265312348
      ],
      [
        "$",
        -9.22410073410395
      ],
      [
        "нескольких",
        -9.224100734123297
      ],
      [
        "комбинат",
        -9.224123552284471
      ],
      [
        "генпрокурор",
        -9.224135233776087
      ],
      [
        "ходят",
        -9.224450181726528
      ],
      [
        "ндр",
        -9.224498478775104
      ],
      [
        "швейцари",
        -9.225011854497913
      ],
      [
        "борту",
        -9.225083891117471
      ],
      [
        "указал",
        -9.225095234741625
      ],
      [
        "положения",
        -9.225711719014278
      ],
      [
        "представляет",
        -9.225822635014003
      ],
      [
        "американским",
        -9.225918339703474
      ],
      [
        "сообщают",
        -9.225999835714706
      ],
      [
        "региона",
        -9.226315087084494
      ],
      [
        "центральной",
        -9.227404124801547
      ],
      [
        "операция",
        -9.228441886006216
      ],
      [
        "лиш",
        -9.230176504299376
      ],
      [
        "городско",
        -9.230839285280142
      ],
      [
        "ур",
        -9.231615923825089
      ],
      [
        "использовать",
        -9.232520377076984
      ],
      [
        "избирательн",
        -9.236837662531602
      ],
      [
        "интерес",
        -9.240903913796796
      ],
      [
        "недели",
        -9.241515595442907
      ],
      [
        "йдет",
        -9.242725633166877
      ],
      [
        "возможны",
        -9.243809451738505
      ],
      [
        "текуще",
        -9.244777875988632
      ],
      [
        "банковски",
        -9.245662636593318
      ],
      [
        "первом",
        -9.247580388495821
      ],
      [
        "сообщение",
        -9.25218624130358
      ],
      [
        "рабочи",
        -9.252403559177006
      ],
      [
        "есть",
        -9.252668293229185
      ],
      [
        "сторонник",
        -9.253310931583146
      ],
      [
        "спасател",
        -9.253519003001438
      ],
      [
        "для",
        -9.253880487302963
      ],
      [
        "передач",
        -9.25472294591184
      ],
      [
        "штата",
        -9.255245693784389
      ],
      [
        "терроризм",
        -9.256901158059373
      ],
      [
        "нем",
        -9.257385146849273
      ],
      [
        "без",
        -9.257409969386986
      ],
      [
        "печат",
        -9.257663957864613
      ],
      [
        "подписал",
        -9.258100965466193
      ],
      [
        "часа",
        -9.259553978643373
      ],
      [
        "цело",
        -9.260048208701352
      ],
      [
        "австрали",
        -9.260858616150985
      ],
      [
        "—",
        -9.261137771140987
      ],
      [
        "июн",
        -9.261324072959543
      ],
      [
        "такое",
        -9.261996086207718
      ],
      [
        "раис",
        -9.262160744848932
      ],
      [
        "напомнил",
        -9.262579366842825
      ],
      [
        "непосредственно",
        -9.263461749943708
      ],
      [
        "конфликт",
        -9.264085860277438
      ],
      [
        "самолета",
        -9.267696820986917
      ],
      [
        "соответствующи",
        -9.267836480869503
      ],
      [
        "встреча",
        -9.267898040541862
      ],
      [
        "проведения",
        -9.268676151190853
      ],
      [
        "ос",
        -9.269646252357795
      ],
      [
        "чрезвычайно",
        -9.270552586725445
      ],
      [
        "ведется",
        -9.27078212593593
      ],
      [
        "кредит",
        -9.271511125795724
      ],
      [
        "валют",
        -9.271715338701867
      ],
      [
        "гося",
        -9.272764135595247
      ],
      [
        "басаев",
        -9.274652168049684
      ],
      [
        "торговл",
        -9.275168023807751
      ],
      [
        "коре",
        -9.2756093548632
      ],
      [
        "v",
        -9.277046092875441
      ],
      [
        "порядк",
        -9.277056570593947
      ],
      [
        "бориса",
        -9.277772512823123
      ],
      [
        "отмеча",
        -9.278900877754598
      ],
      [
        "вклад",
        -9.282434819303084
      ],
      [
        "склад",
        -9.284799278762396
      ],
      [
        "основны",
        -9.28587682022953
      ],
      [
        "розыск",
        -9.28763281437731
      ],
      [
        "вопросам",
        -9.28853867493357
      ],
      [
        "дете",
        -9.289688583521412
      ],
      [
        "условия",
        -9.290068338449416
      ],
      [
        "ось",
        -9.290487687305395
      ],
      [
        "банки",
        -9.291043147363489
      ],
      [
        "ась",
        -9.291518981293745
      ],
      [
        "месяц",
        -9.292118917585679
      ],
      [
        "снова",
        -9.292533129386246
      ],
      [
        "иск",
        -9.29390126403255
      ],
      [
        "таможенны",
        -9.294089093968392
      ],
      [
        "особенно",
        -9.294586248417922
      ],
      [
        "люб",
        -9.29512732491953
      ],
      [
        "проведен",
        -9.295207907961673
      ],
      [
        "указ",
        -9.29653381758244
      ],
      [
        "орбит",
        -9.296765176498885
      ],
      [
        "голосовани",
        -9.29704150297234
      ],
      [
        "доставлен",
        -9.29835877878814
      ],
      [
        "команд",
        -9.29864315071935
      ],
      [
        "если",
        -9.299525370402401
      ],
      [
        "получени",
        -9.299569541849557
      ],
      [
        "селезнев",
        -9.299599311732205
      ],
      [
        "пентагон",
        -9.299599319833764
      ],
      [
        "степашин",
        -9.299599367867966
      ],
      [
        "избирателей",
        -9.299600407927237
      ],
      [
        "обсуждени",
        -9.299601207609975
      ],
      [
        "услуг",
        -9.299601500846956
      ],
      [
        "примаков",
        -9.299601718111838
      ],
      [
        "обстановк",
        -9.299603218142265
      ],
      [
        "чабан",
        -9.299603949564855
      ],
      [
        "the",
        -9.299621491675449
      ],
      [
        "офис",
        -9.299622012545552
      ],
      [
        "be",
        -9.299643799862492
      ],
      [
        "содержит",
        -9.299674818422538
      ],
      [
        "следствия",
        -9.299700745609131
      ],
      [
        "линии",
        -9.29977993723488
      ],
      [
        "оборудования",
        -9.299813643765368
      ],
      [
        "ведут",
        -9.299848227670648
      ],
      [
        "выступил",
        -9.299962501519252
      ],
      [
        "киргизии",
        -9.300330327736381
      ],
      [
        "нефтепродукт",
        -9.300335654425218
      ],
      [
        "цб",
        -9.300497658927464
      ],
      [
        "известны",
        -9.301296702113985
      ],
      [
        "крупнейших",
        -9.303680041435626
      ],
      [
        "ноября",
        -9.303805106383185
      ],
      [
        "обмен",
        -9.303988494253558
      ],
      [
        "тел",
        -9.304253797636706
      ],
      [
        "ен",
        -9.304700952396555
      ],
      [
        "постоянно",
        -9.304711115152845
      ],
      [
        "днем",
        -9.305841374736376
      ],
      [
        "потер",
        -9.307798921195594
      ],
      [
        "шой",
        -9.311547956353978
      ],
      [
        "самых",
        -9.312161479654492
      ],
      [
        "аппарат",
        -9.312440532449912
      ],
      [
        "коммерчески",
        -9.313628920801929
      ],
      [
        "гор",
        -9.313724219833096
      ],
      [
        "боевик",
        -9.315889120752457
      ],
      [
        "дать",
        -9.316011792094594
      ],
      [
        "провинци",
        -9.316028811664046
      ],
      [
        "четырех",
        -9.317052262571671
      ],
      [
        "наде",
        -9.317137717135452
      ],
      [
        "поддержку",
        -9.317233479767928
      ],
      [
        "труд",
        -9.318664584898006
      ],
      [
        "отряд",
        -9.319276137571794
      ],
      [
        "прошлом",
        -9.321940803496839
      ],
      [
        "позици",
        -9.32368499306083
      ],
      [
        "белград",
        -9.325421366232352
      ],
      [
        "u",
        -9.32685110158607
      ],
      [
        "информационны",
        -9.32698568975527
      ],
      [
        "прожива",
        -9.327059807650464
      ],
      [
        "ru",
        -9.327124159230303
      ],
      [
        "должности",
        -9.328194980726074
      ],
      [
        "позволя",
        -9.329725160088852
      ],
      [
        "создание",
        -9.330708564244983
      ],
      [
        "больш",
        -9.330716348160927
      ],
      [
        "доступ",
        -9.331186253053888
      ],
      [
        "находящи",
        -9.331584220288466
      ],
      [
        "контракт",
        -9.332218004405242
      ],
      [
        "ази",
        -9.332847884398896
      ],
      [
        "тонну",
        -9.332858480859906
      ],
      [
        "никак",
        -9.333870660539377
      ],
      [
        "побед",
        -9.334458273620942
      ],
      [
        "преми",
        -9.335117372786023
      ],
      [
        "метро",
        -9.3355967784177
      ],
      [
        "станци",
        -9.33646801690978
      ],
      [
        "тора",
        -9.337260222604984
      ],
      [
        "обыск",
        -9.338095643964813
      ],
      [
        "далек",
        -9.33958723484972
      ],
      [
        "азербайджан",
        -9.339599309605234
      ],
      [
        "трагеди",
        -9.339599310813755
      ],
      [
        "флорид",
        -9.339605179199431
      ],
      [
        "обеспечит",
        -9.339628040596226
      ],
      [
        "сесси",
        -9.339634677639856
      ],
      [
        "холер",
        -9.339714577422196
      ],
      [
        "добавил",
        -9.339944896500933
      ],
      [
        "первым",
        -9.340234107477357
      ],
      [
        "американские",
        -9.340494978357034
      ],
      [
        "уточнил",
        -9.34063428444891
      ],
      [
        "визит",
        -9.340767148042525
      ],
      [
        "прежнему",
        -9.340815026774067
      ],
      [
        "фактически",
        -9.341202681147937
      ],
      [
        "запуск",
        -9.341846136513807
      ],
      [
        "еся",
        -9.34203347208079
      ],
      [
        "делам",
        -9.342840479812644
      ],
      [
        "ряда",
        -9.343390202601562
      ],
      [
        "боев",
        -9.344622799333415
      ],
      [
        "сегодняшний",
        -9.344690770925189
      ],
      [
        "комиссия",
        -9.345416899192589
      ],
      [
        "заседание",
        -9.345578214225432
      ],
      [
        "западно",
        -9.346905726716992
      ],
      [
        "подземны",
        -9.347046117577946
      ],
      [
        "границе",
        -9.34768451185799
      ],
      [
        "совершен",
        -9.347688401703264
      ],
      [
        "обнаружили",
        -9.347770337073793
      ],
      [
        "клиент",
        -9.348536302450075
      ],
      [
        "государственны",
        -9.348821966761243
      ],
      [
        "восстановлени",
        -9.350023681134893
      ],
      [
        "вашингтон",
        -9.351142893417414
      ],
      [
        "готовности",
        -9.35124322222497
      ],
      [
        "наук",
        -9.35221920524934
      ],
      [
        "русско",
        -9.35260151594816
      ],
      [
        "строительств",
        -9.353007603018764
      ],
      [
        "решени",
        -9.353092162884261
      ],
      [
        "кандидат",
        -9.353162298599388
      ],
      [
        "ладен",
        -9.353939099148345
      ],
      [
        "остров",
        -9.354139559618286
      ],
      [
        "рассмотрени",
        -9.354580416269936
      ],
      [
        "отказал",
        -9.354611044483327
      ],
      [
        "московско",
        -9.354667459366498
      ],
      [
        "перво",
        -9.356226176465775
      ],
      [
        "конца",
        -9.356538316680803
      ],
      [
        "бумаг",
        -9.356540962140508
      ],
      [
        "решил",
        -9.35814569784958
      ],
      [
        "населенны",
        -9.358404231480257
      ],
      [
        "берлин",
        -9.358542462637685
      ],
      [
        "восточной",
        -9.359656422138192
      ],
      [
        "финансовой",
        -9.36021792785703
      ],
      [
        "тр",
        -9.360487696391381
      ],
      [
        "ракеты",
        -9.360840922592956
      ],
      [
        "рао",
        -9.362052010710398
      ],
      [
        "конце",
        -9.362080284042676
      ],
      [
        "индонезии",
        -9.362526032914612
      ],
      [
        "сфер",
        -9.363367932578587
      ],
      [
        "исключен",
        -9.365108914943464
      ],
      [
        "погибл",
        -9.366447996990548
      ],
      [
        "учет",
        -9.366689824484112
      ],
      [
        "зарегистрирован",
        -9.366917529201862
      ],
      [
        "российска",
        -9.367022278135904
      ],
      [
        "net",
        -9.367098717785794
      ],
      [
        "силам",
        -9.368082395351205
      ],
      [
        "хся",
        -9.368270147694895
      ],
      [
        "готовы",
        -9.369855874261793
      ],
      [
        "убит",
        -9.369951628232899
      ],
      [
        "москв",
        -9.370082824831291
      ],
      [
        "суммы",
        -9.370275031293941
      ],
      [
        "очередно",
        -9.37147351523556
      ],
      [
        "сравн",
        -9.37177448771892
      ],
      [
        "друг",
        -9.37212483467076
      ],
      [
        "проходит",
        -9.372945348075763
      ],
      [
        "хакер",
        -9.373719967860751
      ],
      [
        "предел",
        -9.374469389690557
      ],
      [
        "деятельность",
        -9.374580056695788
      ],
      [
        "необходимы",
        -9.375710738189984
      ],
      [
        "полно",
        -9.376537516733542
      ],
      [
        "ность",
        -9.376669906360501
      ],
      [
        "административно",
        -9.377468973274935
      ],
      [
        "журнал",
        -9.378926329969353
      ],
      [
        "уголовно",
        -9.380301268270523
      ],
      [
        "миротворц",
        -9.380875306394964
      ],
      [
        "мексик",
        -9.381235250109171
      ],
      [
        "феврал",
        -9.381265989623842
      ],
      [
        "тюрьм",
        -9.381266029697402
      ],
      [
        "якушкин",
        -9.381266182817196
      ],
      [
        "приказ",
        -9.381718406358573
      ],
      [
        "березовский",
        -9.381773488641718
      ],
      [
        "сокращени",
        -9.38207452404967
      ],
      [
        "исключает",
        -9.382233825085116
      ],
      [
        "госдепартамент",
        -9.382441468026492
      ],
      [
        "неизвестно",
        -9.382517327512303
      ],
      [
        "финансировани",
        -9.382647424492244
      ],
      [
        "будет",
        -9.383010188483725
      ],
      [
        "существу",
        -9.383190464702421
      ],
      [
        "реакци",
        -9.383272907189593
      ],
      [
        "анатолий",
        -9.383376240640326
      ],
      [
        "числа",
        -9.38340476060159
      ],
      [
        "курс",
        -9.383692367557114
      ],
      [
        "общественны",
        -9.384015362968274
      ],
      [
        "возбуждено",
        -9.384201846417703
      ],
      [
        "разведк",
        -9.384472539515569
      ],
      [
        "вертолет",
        -9.384575389670495
      ],
      [
        "лично",
        -9.384974495595769
      ],
      [
        "рубля",
        -9.384984555277695
      ],
      [
        "крупных",
        -9.386031987441822
      ],
      [
        "властям",
        -9.386169915081837
      ],
      [
        "переход",
        -9.386480547706348
      ],
      [
        "имени",
        -9.387067225364904
      ],
      [
        "террористических",
        -9.387462596264303
      ],
      [
        "отказа",
        -9.389260211093662
      ],
      [
        "изменения",
        -9.389463680239395
      ],
      [
        "рас",
        -9.389847523633893
      ],
      [
        "подозреваемы",
        -9.390093454059098
      ],
      [
        "количеств",
        -9.390894870898112
      ],
      [
        "всего",
        -9.391358815313872
      ],
      [
        "сотн",
        -9.392190253510236
      ],
      [
        "управление",
        -9.392950259930235
      ],
      [
        "нарушения",
        -9.394110939817793
      ],
      [
        "летне",
        -9.394285756929468
      ],
      [
        "наше",
        -9.394336629445856
      ],
      [
        "представительств",
        -9.394491196726031
      ],
      [
        "протеста",
        -9.39474239995084
      ],
      [
        "неизвестны",
        -9.394880179112645
      ],
      [
        "прекращени",
        -9.395008963341416
      ],
      [
        "июл",
        -9.395343145898044
      ],
      [
        "упал",
        -9.395987829082504
      ],
      [
        "развитие",
        -9.396840385098738
      ],
      [
        "служба",
        -9.397065669475435
      ],
      [
        "ском",
        -9.397130458428375
      ],
      [
        "восточн",
        -9.397845339275275
      ],
      [
        "экономически",
        -9.398289887921674
      ],
      [
        "московски",
        -9.399092947313532
      ],
      [
        "американско",
        -9.399329334949684
      ],
      [
        "следующе",
        -9.40165242757017
      ],
      [
        "деле",
        -9.402375739918707
      ],
      [
        "организация",
        -9.402427359354755
      ],
      [
        "американской",
        -9.402502028209842
      ],
      [
        "гражданско",
        -9.406582157506627
      ],
      [
        "направлени",
        -9.40712813490288
      ],
      [
        "увеличи",
        -9.407714581977881
      ],
      [
        "террористам",
        -9.407844417810555
      ],
      [
        "рек",
        -9.408781139323297
      ],
      [
        "итог",
        -9.409032105838639
      ],
      [
        "большо",
        -9.40934320847082
      ],
      [
        "цифр",
        -9.410230177466389
      ],
      [
        "самы",
        -9.411189162395344
      ],
      [
        "региональны",
        -9.411255485748384
      ],
      [
        "co",
        -9.41224518015542
      ],
      [
        "вашингтоне",
        -9.412326527526236
      ],
      [
        "тариф",
        -9.413021100382315
      ],
      [
        "предоставлени",
        -9.414593380135175
      ],
      [
        "ается",
        -9.414617070538343
      ],
      [
        "клуб",
        -9.41727339374997
      ],
      [
        "дума",
        -9.417594243610596
      ],
      [
        "ке",
        -9.41782904855863
      ],
      [
        "али",
        -9.418379857164709
      ],
      [
        "татарстан",
        -9.418896012863451
      ],
      [
        "сообщени",
        -9.419395414168179
      ],
      [
        "отвеча",
        -9.419896998223493
      ],
      [
        "пришло",
        -9.420219708729395
      ],
      [
        "восточно",
        -9.420564431935263
      ],
      [
        "транснефт",
        -9.420728101745631
      ],
      [
        "сами",
        -9.421450116017471
      ],
      [
        "может",
        -9.422545897487224
      ],
      [
        "секретаря",
        -9.423994168348305
      ],
      [
        "форм",
        -9.424327368257742
      ],
      [
        "прямо",
        -9.424574868466175
      ],
      [
        "'",
        -9.424744237138759
      ],
      [
        "процедур",
        -9.424744578071856
      ],
      [
        "минимум",
        -9.424745232974775
      ],
      [
        "майор",
        -9.424774957916227
      ],
      [
        "общества",
        -9.424775849110201
      ],
      [
        "корпус",
        -9.424829944506955
      ],
      [
        "dow",
        -9.424836074943792
      ],
      [
        "бен",
        -9.424850225621151
      ],
      [
        "поздн",
        -9.42490885903846
      ],
      [
        "заместителя",
        -9.425285566528828
      ],
      [
        "могли",
        -9.425293956867481
      ],
      [
        "испани",
        -9.4260297681904
      ],
      [
        "зам",
        -9.426042514509708
      ],
      [
        "образовани",
        -9.426137783860405
      ],
      [
        "сергея",
        -9.426150956836896
      ],
      [
        "напомни",
        -9.426616858946039
      ],
      [
        "требует",
        -9.426740933918012
      ],
      [
        "привел",
        -9.426859698817644
      ],
      [
        "бедстви",
        -9.427230510795635
      ],
      [
        "сможет",
        -9.427866579308244
      ],
      [
        "передал",
        -9.428456190664933
      ],
      [
        "причастност",
        -9.428757272702128
      ],
      [
        "военнослужащих",
        -9.429338438914407
      ],
      [
        "бирже",
        -9.430396980910771
      ],
      [
        "алексе",
        -9.430697635051434
      ],
      [
        "золото",
        -9.430991218939216
      ],
      [
        "занима",
        -9.431365559644075
      ],
      [
        "временно",
        -9.43169513596046
      ],
      [
        "независимост",
        -9.432549267128406
      ],
      [
        "спутник",
        -9.433005000376303
      ],
      [
        "успешно",
        -9.433305607609107
      ],
      [
        "шел",
        -9.433484886463082
      ],
      [
        "борьбы",
        -9.434407159498182
      ],
      [
        "миротворчески",
        -9.434468942038215
      ],
      [
        "ликвидации",
        -9.434523449699322
      ],
      [
        "предусматривает",
        -9.434671814338387
      ],
      [
        "каких",
        -9.43491534435974
      ],
      [
        "крупнейше",
        -9.435490877199422
      ],
      [
        "резко",
        -9.43689883560205
      ],
      [
        "обвинени",
        -9.436944511249878
      ],
      [
        "конференци",
        -9.43853437283859
      ],
      [
        "эфире",
        -9.439137944493826
      ],
      [
        "точк",
        -9.439339489324276
      ],
      [
        "китай",
        -9.439521274336371
      ],
      [
        "тверждают",
        -9.440275152142002
      ],
      [
        "долга",
        -9.441518109216144
      ],
      [
        "состоявше",
        -9.442632729934289
      ],
      [
        "телекоммуникаци",
        -9.443200246268994
      ],
      [
        "северно",
        -9.443896835151092
      ],
      [
        "имел",
        -9.444464454467383
      ],
      [
        "работает",
        -9.445338105038108
      ],
      [
        "канала",
        -9.448527739657543
      ],
      [
        "высоко",
        -9.450719514697433
      ],
      [
        "албанц",
        -9.45199657122024
      ],
      [
        "силу",
        -9.454017364938633
      ],
      [
        "быстро",
        -9.454321067767987
      ],
      [
        "вернуть",
        -9.454713000924981
      ],
      [
        "должност",
        -9.454893664171875
      ],
      [
        "er",
        -9.455952066510138
      ],
      [
        "запас",
        -9.456144573809222
      ],
      [
        "сайта",
        -9.456391729437303
      ],
      [
        "геннади",
        -9.456983546046663
      ],
      [
        "подразделени",
        -9.45910310993617
      ],
      [
        "h",
        -9.45999174889003
      ],
      [
        "заказ",
        -9.46075042869847
      ],
      [
        "разрушен",
        -9.460950183464872
      ],
      [
        "руководителя",
        -9.462696082901097
      ],
      [
        "политических",
        -9.462709752599654
      ],
      [
        "ятся",
        -9.463937886330418
      ],
      [
        "нс",
        -9.464249061139643
      ],
      [
        "продукци",
        -9.464588126759171
      ],
      [
        "компенсаци",
        -9.464601508994948
      ],
      [
        "чем",
        -9.465093161884417
      ],
      [
        "сел",
        -9.46550217413493
      ],
      [
        "арестован",
        -9.46643486438684
      ],
      [
        "оказать",
        -9.46713812196654
      ],
      [
        "уничтожени",
        -9.467202615428082
      ],
      [
        "завода",
        -9.469115515349191
      ],
      [
        "ведет",
        -9.469250698416486
      ],
      [
        "мост",
        -9.46956269452734
      ],
      [
        "кризис",
        -9.470198846550987
      ],
      [
        "батурин",
        -9.47019909753467
      ],
      [
        "суббот",
        -9.470199170646502
      ],
      [
        "авиаци",
        -9.470232723777098
      ],
      [
        "окончани",
        -9.470236936631759
      ],
      [
        "сейчас",
        -9.470261126980251
      ],
      [
        "переведен",
        -9.470271054913969
      ],
      [
        "бородин",
        -9.470288238430241
      ],
      [
        "заметил",
        -9.470380841535462
      ],
      [
        "центробанк",
        -9.470469339234574
      ],
      [
        "здоровь",
        -9.470950179693547
      ],
      [
        "быков",
        -9.47172823755601
      ],
      [
        "рыно",
        -9.472255284627094
      ],
      [
        "работают",
        -9.472422352356077
      ],
      [
        "отказыва",
        -9.472856598932257
      ],
      [
        "заседания",
        -9.472915833153934
      ],
      [
        "иванов",
        -9.473249804421643
      ],
      [
        "состоится",
        -9.473982262503432
      ],
      [
        "начнет",
        -9.474428910420883
      ],
      [
        "ent",
        -9.474817018917005
      ],
      [
        "предотвращени",
        -9.474885732085673
      ],
      [
        "слушания",
        -9.475278125627643
      ],
      [
        "валерий",
        -9.47610494196736
      ],
      [
        "дни",
        -9.476486907399686
      ],
      [
        "стала",
        -9.477078905901825
      ],
      [
        "предложение",
        -9.477502361550469
      ],
      [
        "составит",
        -9.478274482705707
      ],
      [
        "назван",
        -9.478484554312601
      ],
      [
        "пошлин",
        -9.478497734784556
      ],
      [
        "объединения",
        -9.478937847526051
      ],
      [
        "андрей",
        -9.479914849681368
      ],
      [
        "пришл",
        -9.479953585981782
      ],
      [
        "кремл",
        -9.480474508222443
      ],
      [
        "посольства",
        -9.481458872880763
      ],
      [
        "начинает",
        -9.481500277253378
      ],
      [
        "полицейски",
        -9.481698506928888
      ],
      [
        "землетрясение",
        -9.482160092351522
      ],
      [
        "раза",
        -9.482236749981826
      ],
      [
        "цена",
        -9.483725080388487
      ],
      [
        "усилия",
        -9.484699881640335
      ],
      [
        "соединенны",
        -9.485460082355134
      ],
      [
        "израил",
        -9.48599886368475
      ],
      [
        "электронно",
        -9.48744935694953
      ],
      [
        "преступления",
        -9.487561417034826
      ],
      [
        "погиб",
        -9.48767720133151
      ],
      [
        "освобожден",
        -9.487773419208068
      ],
      [
        "устройство",
        -9.48780358181606
      ],
      [
        "ст",
        -9.489272884475511
      ],
      [
        "боевикам",
        -9.489348913927927
      ],
      [
        "топ",
        -9.490223202071252
      ],
      [
        "здани",
        -9.49076563075315
      ],
      [
        "энергетик",
        -9.491726392965164
      ],
      [
        "лидера",
        -9.4920327164468
      ],
      [
        "сахалинск",
        -9.492296944551262
      ],
      [
        "ip",
        -9.49323910023188
      ],
      [
        "re",
        -9.49510048332463
      ],
      [
        "ход",
        -9.499565534311733
      ],
      [
        "ыми",
        -9.500002647113254
      ],
      [
        "режима",
        -9.501197769585382
      ],
      [
        "нарушени",
        -9.501950807206313
      ],
      [
        "минск",
        -9.502359985250077
      ],
      [
        "организатор",
        -9.503164757943324
      ],
      [
        "выполнени",
        -9.504577518537673
      ],
      [
        "сеть",
        -9.504644903302001
      ],
      [
        "пенси",
        -9.505884762093963
      ],
      [
        "обязанност",
        -9.506214273746291
      ],
      [
        "сведени",
        -9.507988433385039
      ],
      [
        "отделени",
        -9.508033052577105
      ],
      [
        "национальны",
        -9.508380979732323
      ],
      [
        "последнее",
        -9.508438553128498
      ],
      [
        "превыша",
        -9.508963956945044
      ],
      [
        "веществ",
        -9.50923754176983
      ],
      [
        "обратил",
        -9.509440544141269
      ],
      [
        "пяти",
        -9.51440522995752
      ],
      [
        "массовы",
        -9.515557737784338
      ],
      [
        "сколько",
        -9.516457312218483
      ],
      [
        "дерев",
        -9.516597919189163
      ],
      [
        "ились",
        -9.516950241862594
      ],
      [
        "ит",
        -9.517401838546373
      ],
      [
        "черномырдин",
        -9.517817830215028
      ],
      [
        "референдум",
        -9.517817830742112
      ],
      [
        "валентин",
        -9.517817968938614
      ],
      [
        "волгодонск",
        -9.51781801746567
      ],
      [
        "касьянов",
        -9.517836567049557
      ],
      [
        "происходит",
        -9.517837131662352
      ],
      [
        "апрел",
        -9.517998544975818
      ],
      [
        "архив",
        -9.518053497214058
      ],
      [
        "альянс",
        -9.518092347116369
      ],
      [
        "телеканал",
        -9.518944546499945
      ],
      [
        "ноч",
        -9.520233587557147
      ],
      [
        "исследования",
        -9.520462927034552
      ],
      [
        "нарушение",
        -9.521345679380026
      ],
      [
        "активно",
        -9.521957230331292
      ],
      [
        "вышл",
        -9.523826117156542
      ],
      [
        "ись",
        -9.525667753004537
      ],
      [
        "настоящи",
        -9.526004025106918
      ],
      [
        "подчеркивает",
        -9.52628049220769
      ],
      [
        "китайско",
        -9.52780457572505
      ],
      [
        "целя",
        -9.528133013901666
      ],
      [
        "верну",
        -9.528440885989957
      ],
      [
        "повышение",
        -9.529541336007787
      ],
      [
        "данном",
        -9.52966645470006
      ],
      [
        "федерально",
        -9.529760797433017
      ],
      [
        "gr",
        -9.53011204613017
      ],
      [
        "предмет",
        -9.53145652029262
      ],
      [
        "запрос",
        -9.531791759001935
      ],
      [
        "наличи",
        -9.532198423421987
      ],
      [
        "рос",
        -9.532245463280795
      ],
      [
        "марк",
        -9.53295533790357
      ],
      [
        "вшие",
        -9.533638589200468
      ],
      [
        "дали",
        -9.533945625535559
      ],
      [
        "московских",
        -9.53437205823683
      ],
      [
        "департамента",
        -9.53513022474836
      ],
      [
        "партия",
        -9.535276269009405
      ],
      [
        "соглашения",
        -9.53595060658994
      ],
      [
        "даст",
        -9.536148928323607
      ],
      [
        "вызван",
        -9.537602658379688
      ],
      [
        "ресурс",
        -9.538289971278257
      ],
      [
        "r",
        -9.538489816814902
      ],
      [
        "канал",
        -9.540207536960027
      ],
      [
        "российско",
        -9.540555185869897
      ],
      [
        "торгово",
        -9.540927580616483
      ],
      [
        "восточны",
        -9.541247261041727
      ],
      [
        "специалист",
        -9.541527821761074
      ],
      [
        "столь",
        -9.542244327151653
      ],
      [
        "актов",
        -9.542297656773087
      ],
      [
        "пакистан",
        -9.542637435172304
      ],
      [
        "высказал",
        -9.543051153439283
      ],
      [
        "нужно",
        -9.54312438846407
      ],
      [
        "американск",
        -9.5433723980223
      ],
      [
        "полет",
        -9.543810222325787
      ],
      [
        "округ",
        -9.545898764114815
      ],
      [
        "резерв",
        -9.54978552471255
      ],
      [
        "омон",
        -9.550460133804403
      ],
      [
        "w",
        -9.551650157763122
      ],
      [
        "говорить",
        -9.551934899981951
      ],
      [
        "пыта",
        -9.55260246204073
      ],
      [
        "суде",
        -9.553391689358618
      ],
      [
        "больше",
        -9.553809674552141
      ],
      [
        "жив",
        -9.554366649347703
      ],
      [
        "ских",
        -9.554493499027853
      ],
      [
        "проверк",
        -9.55460221638309
      ],
      [
        "выясни",
        -9.555408816496373
      ],
      [
        "митинга",
        -9.555502359364246
      ],
      [
        "убиты",
        -9.556613257057252
      ],
      [
        "vi",
        -9.556655369315369
      ],
      [
        "пер",
        -9.55712989460143
      ],
      [
        "океан",
        -9.557153863982768
      ],
      [
        "ил",
        -9.56073421806773
      ],
      [
        "необходимость",
        -9.562096281911757
      ],
      [
        "скоро",
        -9.562789680775452
      ],
      [
        "любо",
        -9.562889891005074
      ],
      [
        "христ",
        -9.56305685527734
      ],
      [
        "тому",
        -9.56418468452039
      ],
      [
        "продолжа",
        -9.564730379666463
      ],
      [
        "производство",
        -9.5654954148938
      ],
      [
        "сахар",
        -9.566846503134903
      ],
      [
        "березовск",
        -9.567232969287504
      ],
      [
        "облигаци",
        -9.567645436157706
      ],
      [
        "№",
        -9.567817830212352
      ],
      [
        "реструктуризаци",
        -9.567818125933425
      ],
      [
        "когда",
        -9.567818639704086
      ],
      [
        "столкновени",
        -9.56781879593617
      ],
      [
        "чиновник",
        -9.567827633195279
      ],
      [
        "тюмен",
        -9.567851303102735
      ],
      [
        "ющихся",
        -9.567909460278923
      ],
      [
        "win",
        -9.568008106200326
      ],
      [
        "главн",
        -9.56805448904923
      ],
      [
        "утечк",
        -9.568078976449282
      ],
      [
        "подпис",
        -9.568170249551224
      ],
      [
        "лазар",
        -9.568239911982516
      ],
      [
        "контакт",
        -9.568331939463476
      ],
      [
        "кфор",
        -9.56837545768162
      ],
      [
        "дьяч",
        -9.568523363380454
      ],
      [
        "туда",
        -9.568850708721984
      ],
      [
        "января",
        -9.569276793527202
      ],
      [
        "центрального",
        -9.569468437474738
      ],
      [
        "выдач",
        -9.570163929120989
      ],
      [
        "большинств",
        -9.570432262446328
      ],
      [
        "абсолютно",
        -9.570437818658412
      ],
      [
        "порядо",
        -9.570970321785971
      ],
      [
        "сервер",
        -9.571385648719506
      ],
      [
        "открыто",
        -9.571599699944736
      ],
      [
        "наказани",
        -9.572137053814023
      ],
      [
        "су",
        -9.572183061901079
      ],
      [
        "станция",
        -9.572336719034368
      ],
      [
        "сложност",
        -9.5737755750677
      ],
      [
        "предполага",
        -9.574328123987952
      ],
      [
        "названием",
        -9.575775364931815
      ],
      [
        "оценивает",
        -9.576083638602709
      ],
      [
        "налоговой",
        -9.578379055798287
      ],
      [
        "де",
        -9.57932968831875
      ],
      [
        "квартире",
        -9.579717480484302
      ],
      [
        "управлении",
        -9.579730005542093
      ],
      [
        "сбор",
        -9.58020799702565
      ],
      [
        "отделения",
        -9.58023054094942
      ],
      [
        "закрыты",
        -9.580306684523775
      ],
      [
        "учреждения",
        -9.580932625695022
      ],
      [
        "ях",
        -9.581383216691359
      ],
      [
        "ты",
        -9.581663647203051
      ],
      [
        "ре",
        -9.582694171084908
      ],
      [
        "сама",
        -9.583357971195243
      ],
      [
        "америк",
        -9.584315752459432
      ],
      [
        "предложил",
        -9.58441810506719
      ],
      [
        "смерт",
        -9.584464039669642
      ],
      [
        "домен",
        -9.585836584185282
      ],
      [
        "дор",
        -9.587343711163687
      ],
      [
        "районов",
        -9.587717509117578
      ],
      [
        "наза",
        -9.588577058784283
      ],
      [
        "платы",
        -9.589501977305657
      ],
      [
        "собственны",
        -9.589731680964146
      ],
      [
        "объединение",
        -9.589844266381455
      ],
      [
        "сам",
        -9.590368325346656
      ],
      [
        "получен",
        -9.590764664758163
      ],
      [
        "избирательно",
        -9.590948617680384
      ],
      [
        "сотрудникам",
        -9.591252395321039
      ],
      [
        "l",
        -9.592821009573138
      ],
      [
        "присутстви",
        -9.592859549152958
      ],
      [
        "полагаю",
        -9.593374071468478
      ],
      [
        "выпуска",
        -9.59345570236685
      ],
      [
        "серб",
        -9.59350606074207
      ],
      [
        "скую",
        -9.594014936767294
      ],
      [
        "вошл",
        -9.59460414899022
      ],
      [
        "ладена",
        -9.596067954523672
      ],
      [
        "мид",
        -9.596384558925688
      ],
      [
        "доступа",
        -9.597012076825894
      ],
      [
        "администрация",
        -9.598240892540277
      ],
      [
        "кредитны",
        -9.600135768705039
      ],
      [
        "версия",
        -9.60034184841409
      ],
      [
        "объединенно",
        -9.600479472052001
      ],
      [
        "падение",
        -9.60184381886468
      ],
      [
        "обычно",
        -9.602296512470339
      ],
      [
        "кири",
        -9.602610909180905
      ],
      [
        "открыти",
        -9.602622154806776
      ],
      [
        "назначен",
        -9.602915725403026
      ],
      [
        "председател",
        -9.603798117753549
      ],
      [
        "текст",
        -9.604754025578016
      ],
      [
        "ясно",
        -9.606207283478502
      ],
      [
        "представит",
        -9.606405480439971
      ],
      [
        "действова",
        -9.607841872337211
      ],
      [
        "японски",
        -9.607893309877284
      ],
      [
        "ства",
        -9.607900951623451
      ],
      [
        "правления",
        -9.607992524484573
      ],
      [
        "ту",
        -9.60816231236908
      ],
      [
        "избран",
        -9.608329641859562
      ],
      [
        "вид",
        -9.611049064357701
      ],
      [
        "нынешни",
        -9.611479051316286
      ],
      [
        "зрения",
        -9.611815725160827
      ],
      [
        "противник",
        -9.612827798475262
      ],
      [
        "случай",
        -9.613002776783107
      ],
      [
        "друго",
        -9.613190223622606
      ],
      [
        "прежде",
        -9.61333926684664
      ],
      [
        "перевод",
        -9.615133591768934
      ],
      [
        "проголосовал",
        -9.615268175578697
      ],
      [
        "да",
        -9.615765633639024
      ],
      [
        "порнографи",
        -9.616348764173873
      ],
      [
        "полученны",
        -9.616957149033535
      ],
      [
        "зоне",
        -9.617403356544244
      ],
      [
        "лицензи",
        -9.617576514868482
      ],
      [
        "/",
        -9.617639421659687
      ],
      [
        "вес",
        -9.618023848732655
      ],
      [
        "оппозици",
        -9.618908573980406
      ],
      [
        "el",
        -9.619097414570923
      ],
      [
        "подготовлен",
        -9.619683854355948
      ],
      [
        "памят",
        -9.619845044959328
      ],
      [
        "приняла",
        -9.620299540864371
      ],
      [
        "талиб",
        -9.620449293861432
      ],
      [
        "лаборатори",
        -9.620449409300235
      ],
      [
        "флойд",
        -9.620449504375511
      ],
      [
        "станислав",
        -9.620449600167303
      ],
      [
        "завтра",
        -9.62045175076835
      ],
      [
        "воздух",
        -9.620454671204328
      ],
      [
        "хочет",
        -9.620470715271317
      ],
      [
        "середин",
        -9.620548189463866
      ],
      [
        "аслан",
        -9.620559140438143
      ],
      [
        "надежд",
        -9.620599127357478
      ],
      [
        "опек",
        -9.620622519100117
      ],
      [
        "этого",
        -9.620753660709381
      ],
      [
        "безопасность",
        -9.620921438512507
      ],
      [
        "призвал",
        -9.621056126238066
      ],
      [
        "чтени",
        -9.621497559831521
      ],
      [
        "военным",
        -9.621687157627878
      ],
      [
        "каширском",
        -9.621781941199016
      ],
      [
        "кам",
        -9.622376432607862
      ],
      [
        "on",
        -9.623347459678481
      ],
      [
        "овень",
        -9.623758231564867
      ],
      [
        "конц",
        -9.624089501718599
      ],
      [
        "нефтяной",
        -9.625046442279526
      ],
      [
        "сильны",
        -9.625654479765862
      ],
      [
        "основн",
        -9.625693494529152
      ],
      [
        "лев",
        -9.625927908159985
      ],
      [
        "предыдущи",
        -9.625963237839573
      ],
      [
        "представлен",
        -9.626799820869977
      ],
      [
        "снижени",
        -9.62691961028665
      ],
      [
        "представителями",
        -9.627859145781985
      ],
      [
        "era",
        -9.628661180132875
      ],
      [
        "част",
        -9.62927583242978
      ],
      [
        "ировать",
        -9.629746046176933
      ],
      [
        "роль",
        -9.630450298781692
      ],
      [
        "мероприятия",
        -9.631200123862712
      ],
      [
        "потерял",
        -9.631930114845318
      ],
      [
        "власть",
        -9.63279128466769
      ],
      [
        "чеченских",
        -9.632848099685187
      ],
      [
        "наших",
        -9.633592034411976
      ],
      [
        "экономики",
        -9.63383808790306
      ],
      [
        "существующи",
        -9.633952665138597
      ],
      [
        "сб",
        -9.635630078906132
      ],
      [
        "пиш",
        -9.636866077534505
      ],
      [
        "ньше",
        -9.637051657737587
      ],
      [
        "дополнительны",
        -9.637158430581362
      ],
      [
        "отдел",
        -9.637415958717611
      ],
      [
        "um",
        -9.63768743661043
      ],
      [
        "народ",
        -9.63782038435347
      ],
      [
        "виз",
        -9.638176616661315
      ],
      [
        "этап",
        -9.638434559259533
      ],
      [
        "mar",
        -9.639226558227051
      ],
      [
        "направления",
        -9.640409508635582
      ],
      [
        "определен",
        -9.640488425460951
      ],
      [
        "них",
        -9.643185587608656
      ],
      [
        "оценка",
        -9.643939968021549
      ],
      [
        "второ",
        -9.647529451232078
      ],
      [
        "па",
        -9.648135383427618
      ],
      [
        ">)",
        -9.648203147143507
      ],
      [
        "нести",
        -9.648394970041004
      ],
      [
        "террористическо",
        -9.648540465500187
      ],
      [
        "приняты",
        -9.64918304942126
      ],
      [
        "боевы",
        -9.649778607297646
      ],
      [
        "пар",
        -9.650784270230181
      ],
      [
        "секретны",
        -9.651371807399219
      ],
      [
        "опубликован",
        -9.651600336632487
      ],
      [
        "аются",
        -9.651890702337198
      ],
      [
        "события",
        -9.65210979490912
      ],
      [
        "бес",
        -9.652135176899199
      ],
      [
        "дети",
        -9.652910338456646
      ],
      [
        "вещани",
        -9.653027368638632
      ],
      [
        "мирны",
        -9.653582200754533
      ],
      [
        "нобелевск",
        -9.653606088368889
      ],
      [
        "курса",
        -9.653846156944798
      ],
      [
        "проведение",
        -9.65492893021744
      ],
      [
        "здании",
        -9.656464445618884
      ],
      [
        "ста",
        -9.656592911150517
      ],
      [
        "оценк",
        -9.656699063601579
      ],
      [
        "платеж",
        -9.658238280832382
      ],
      [
        "очь",
        -9.658666014348691
      ],
      [
        "подобно",
        -9.658697878895161
      ],
      [
        "увеличени",
        -9.65872892625855
      ],
      [
        "медик",
        -9.659002527637488
      ],
      [
        "входит",
        -9.659592105473266
      ],
      [
        "нь",
        -9.659900871003584
      ],
      [
        "невозможно",
        -9.660271586017457
      ],
      [
        "отрица",
        -9.661042278542903
      ],
      [
        "сери",
        -9.662016994352626
      ],
      [
        "евгени",
        -9.66424748089648
      ],
      [
        "сигнал",
        -9.664604189690253
      ],
      [
        "мероприяти",
        -9.664764498724033
      ],
      [
        "ти",
        -9.665756534677985
      ],
      [
        "област",
        -9.670854963056714
      ],
      [
        "основ",
        -9.671927756128705
      ],
      [
        "льгот",
        -9.67267615458374
      ],
      [
        "кой",
        -9.672931859883581
      ],
      [
        "яко",
        -9.673289511145132
      ],
      [
        "международны",
        -9.675766295550233
      ],
      [
        "абхази",
        -9.676005268814059
      ],
      [
        "спикер",
        -9.676005455782931
      ],
      [
        "космос",
        -9.67600727008303
      ],
      [
        "space",
        -9.676007594249258
      ],
      [
        "госпитализирован",
        -9.676010381975674
      ],
      [
        "космодром",
        -9.676016802677557
      ],
      [
        "газпром",
        -9.676019922417188
      ],
      [
        "преступностью",
        -9.676048932076013
      ],
      [
        "статус",
        -9.676124746726808
      ],
      [
        "фунт",
        -9.676236180153692
      ],
      [
        "греци",
        -9.676524178868481
      ],
      [
        "ведущих",
        -9.676554539176692
      ],
      [
        "строев",
        -9.676852182358163
      ],
      [
        "шенко",
        -9.676882734586826
      ],
      [
        "восьми",
        -9.677114663620989
      ],
      [
        "военную",
        -9.67757440654802
      ],
      [
        "прай",
        -9.678025933889701
      ],
      [
        "соседни",
        -9.67806321090621
      ],
      [
        "судьб",
        -9.678288306727884
      ],
      [
        "слух",
        -9.67836312037123
      ],
      [
        "предложения",
        -9.678469731389326
      ],
      [
        "органа",
        -9.67902143499948
      ],
      [
        "ж",
        -9.679678273104162
      ],
      [
        "балл",
        -9.679967181663967
      ],
      [
        "жилых",
        -9.681146181684648
      ],
      [
        "одно",
        -9.681233850623688
      ],
      [
        "транснефть",
        -9.681265920724288
      ],
      [
        "деятельностью",
        -9.683354173332644
      ],
      [
        "генпрокуратуры",
        -9.683614237873027
      ],
      [
        "премию",
        -9.683625589809836
      ],
      [
        "соглашени",
        -9.684094484592578
      ],
      [
        "алмаз",
        -9.68428899757082
      ],
      [
        "бандформировани",
        -9.684772340290753
      ],
      [
        "террористы",
        -9.684980605017508
      ],
      [
        "людя",
        -9.685420303947488
      ],
      [
        "устройств",
        -9.685911949355896
      ],
      [
        "автомашин",
        -9.687044985579153
      ],
      [
        "соответствующе",
        -9.689035822267275
      ],
      [
        "распоряжение",
        -9.690270488121191
      ],
      [
        "предлагает",
        -9.691114490514657
      ],
      [
        "ции",
        -9.693158794476876
      ],
      [
        "независимо",
        -9.693632401455899
      ],
      [
        "заключение",
        -9.694616715926374
      ],
      [
        "разрешени",
        -9.694751825726634
      ],
      [
        "автор",
        -9.694785342893473
      ],
      [
        "говорят",
        -9.695623272321662
      ],
      [
        "един",
        -9.695723050147294
      ],
      [
        "международный",
        -9.69583336331016
      ],
      [
        "перед",
        -9.696343428011593
      ],
      [
        "тк",
        -9.698336650006574
      ],
      [
        "август",
        -9.698546492741349
      ],
      [
        "процента",
        -9.69915485783287
      ],
      [
        "британских",
        -9.699699499976528
      ],
      [
        "кредитов",
        -9.700168815441856
      ],
      [
        "индонези",
        -9.700361482167398
      ],
      [
        "избирательны",
        -9.700939838847223
      ],
      [
        "добыч",
        -9.702016849803787
      ],
      [
        "ное",
        -9.702479092675613
      ],
      [
        "университета",
        -9.702495463329122
      ],
      [
        "чеченски",
        -9.703205959423128
      ],
      [
        "российском",
        -9.703223072869626
      ],
      [
        "сообщениям",
        -9.70367835747452
      ],
      [
        "организациям",
        -9.704448892797242
      ],
      [
        "последним",
        -9.704561372932458
      ],
      [
        "вокзал",
        -9.705062820687901
      ],
      [
        "дорог",
        -9.70509505517457
      ],
      [
        "радиостанции",
        -9.706335212723369
      ],
      [
        "толчк",
        -9.706837797159332
      ],
      [
        "важны",
        -9.707676579620085
      ],
      [
        "самой",
        -9.708567145712376
      ],
      [
        "транша",
        -9.708845043219934
      ],
      [
        "вполн",
        -9.708945349449111
      ],
      [
        "годов",
        -9.709220779812163
      ],
      [
        "судом",
        -9.709517331492249
      ],
      [
        "иран",
        -9.710666741111897
      ],
      [
        "главны",
        -9.711324593314409
      ],
      [
        "департамент",
        -9.712093910973408
      ],
      [
        "мера",
        -9.71333963782249
      ],
      [
        "июле",
        -9.715508123239642
      ],
      [
        "федеральным",
        -9.715996836456544
      ],
      [
        "дан",
        -9.716229310516805
      ],
      [
        "срока",
        -9.717043803079706
      ],
      [
        "икто",
        -9.7174819748686
      ],
      [
        "осуществлять",
        -9.717725183751128
      ],
      [
        "ers",
        -9.720208169577688
      ],
      [
        "генерально",
        -9.720657641768334
      ],
      [
        "станут",
        -9.72071189416715
      ],
      [
        "пути",
        -9.721601734472959
      ],
      [
        "ба",
        -9.722011236736783
      ],
      [
        "требования",
        -9.72279294481146
      ],
      [
        "передан",
        -9.723746288803145
      ],
      [
        "дальнейше",
        -9.724600917607255
      ],
      [
        "ограничени",
        -9.725949810935568
      ],
      [
        "экстремист",
        -9.726054789696263
      ],
      [
        "преступлениям",
        -9.726917443463819
      ],
      [
        "вне",
        -9.728070183939892
      ],
      [
        "меди",
        -9.728730689625177
      ],
      [
        "десят",
        -9.729956358792329
      ],
      [
        "ро",
        -9.730556544215757
      ],
      [
        "угроза",
        -9.73125039372789
      ],
      [
        "разработан",
        -9.733342415661413
      ],
      [
        "требуют",
        -9.733389878516695
      ],
      [
        "поток",
        -9.733558010685899
      ],
      [
        "благодар",
        -9.734449480290856
      ],
      [
        "полковник",
        -9.7345386850188
      ],
      [
        "семи",
        -9.734758020611132
      ],
      [
        "эвакуаци",
        -9.734828494469502
      ],
      [
        "савельев",
        -9.734829056876672
      ],
      [
        "югослави",
        -9.734829125952935
      ],
      [
        "афганистан",
        -9.734829180860213
      ],
      [
        "протокол",
        -9.734832135984508
      ],
      [
        "командование",
        -9.734832343941743
      ],
      [
        "мазут",
        -9.734841740183889
      ],
      [
        "реализаци",
        -9.734863230109521
      ],
      [
        "оборот",
        -9.734863525510567
      ],
      [
        "ешня",
        -9.734892964434936
      ],
      [
        "лука",
        -9.735001176117645
      ],
      [
        "представил",
        -9.735177698887831
      ],
      [
        "находились",
        -9.735219762517087
      ],
      [
        "руководству",
        -9.735312064538967
      ],
      [
        "книг",
        -9.735362878071765
      ],
      [
        "использования",
        -9.73540642423232
      ],
      [
        "игорь",
        -9.735589209648534
      ],
      [
        "двигателя",
        -9.735625848187956
      ],
      [
        "высокопоставленн",
        -9.735699153700562
      ],
      [
        "паник",
        -9.7360694922572
      ],
      [
        "иметь",
        -9.736769864630649
      ],
      [
        "проводится",
        -9.73753599649618
      ],
      [
        "иться",
        -9.7377036859983
      ],
      [
        "неоднократно",
        -9.737805953286003
      ],
      [
        "ают",
        -9.738064373612513
      ],
      [
        "продукт",
        -9.73875243762786
      ],
      [
        "ежегодно",
        -9.738774876916818
      ],
      [
        "госпитал",
        -9.739216413015003
      ],
      [
        "частны",
        -9.739452771720982
      ],
      [
        "преступлени",
        -9.739768589854668
      ],
      [
        "проведени",
        -9.740178586659994
      ],
      [
        "дает",
        -9.740633057254902
      ],
      [
        "ации",
        -9.740743376906956
      ],
      [
        "чрезвычайным",
        -9.740849575442198
      ],
      [
        "скорость",
        -9.740916597829221
      ],
      [
        "век",
        -9.740956307713073
      ],
      [
        "планет",
        -9.74138021278695
      ],
      [
        "заключения",
        -9.741487351530639
      ],
      [
        "ско",
        -9.7416786342717
      ],
      [
        "фирма",
        -9.7423519819548
      ],
      [
        "источника",
        -9.742755092323938
      ],
      [
        "некоторы",
        -9.743048358397324
      ],
      [
        "следовател",
        -9.743499877921533
      ],
      [
        "членам",
        -9.743738159804916
      ],
      [
        "опасени",
        -9.743879697089916
      ],
      [
        "ними",
        -9.744031673651449
      ],
      [
        "избежа",
        -9.744115386337885
      ],
      [
        "ения",
        -9.744842141493017
      ],
      [
        "подписали",
        -9.745001222668922
      ],
      [
        "давление",
        -9.745128070989123
      ],
      [
        "приводит",
        -9.74535941085735
      ],
      [
        "взрывное",
        -9.74575530824204
      ],
      [
        "космически",
        -9.745892595192926
      ],
      [
        "пакет",
        -9.74593182993712
      ],
      [
        "правительственно",
        -9.746672369322816
      ],
      [
        "меньшей",
        -9.74740790530214
      ],
      [
        "золота",
        -9.748204322165714
      ],
      [
        "беженцам",
        -9.74853151725851
      ],
      [
        "авиа",
        -9.749026540345884
      ],
      [
        "предоставлен",
        -9.750043119721072
      ],
      [
        "она",
        -9.750057318383858
      ],
      [
        "брай",
        -9.750326190878104
      ],
      [
        "изменени",
        -9.750620894577404
      ],
      [
        "взят",
        -9.750645342373549
      ],
      [
        "британск",
        -9.75199208286512
      ],
      [
        "достигл",
        -9.752302192382661
      ],
      [
        "шести",
        -9.752471151849022
      ],
      [
        "производителе",
        -9.753048092603265
      ],
      [
        "округа",
        -9.753706332229147
      ],
      [
        "политическ",
        -9.753835440434832
      ],
      [
        "ранен",
        -9.753889339208374
      ],
      [
        "войскам",
        -9.754652882816606
      ],
      [
        "спец",
        -9.755094948040364
      ],
      [
        "значает",
        -9.756206043321196
      ],
      [
        "ведомств",
        -9.75637012848706
      ],
      [
        "руки",
        -9.757949104654575
      ],
      [
        "судь",
        -9.759164404632283
      ],
      [
        "жириновски",
        -9.75967634250781
      ],
      [
        "высоки",
        -9.759742097380453
      ],
      [
        "убежден",
        -9.760997957547909
      ],
      [
        "север",
        -9.761628799002185
      ],
      [
        "официальным",
        -9.76177364825593
      ],
      [
        "полномочи",
        -9.762186576577335
      ],
      [
        "след",
        -9.762338092012618
      ],
      [
        "дат",
        -9.763170149662873
      ],
      [
        "организованн",
        -9.763495894020867
      ],
      [
        "наши",
        -9.76416739252173
      ],
      [
        "ол",
        -9.767352914333433
      ],
      [
        "университет",
        -9.768241723848282
      ],
      [
        "исполнительн",
        -9.768691662859492
      ],
      [
        "швейцарски",
        -9.76901188769359
      ],
      [
        "индонезийски",
        -9.769301372879106
      ],
      [
        "овать",
        -9.769751995592786
      ],
      [
        "семей",
        -9.770767162297956
      ],
      [
        "сект",
        -9.771053914373036
      ],
      [
        "технически",
        -9.771613804766883
      ],
      [
        "расположенны",
        -9.771766665762598
      ],
      [
        "совершенно",
        -9.7722337863046
      ],
      [
        "думаю",
        -9.772676679571351
      ],
      [
        "возможным",
        -9.773126529483607
      ],
      [
        "принимают",
        -9.775825094921224
      ],
      [
        "радиостанци",
        -9.776571741585508
      ],
      [
        "конфликта",
        -9.776770426612595
      ],
      [
        "опроверг",
        -9.777094574385377
      ],
      [
        "дал",
        -9.778193156099425
      ],
      [
        "национальн",
        -9.778906806658513
      ],
      [
        "подозрительны",
        -9.77892244649399
      ],
      [
        "называемы",
        -9.780175660379614
      ],
      [
        "выявлен",
        -9.780810121446326
      ],
      [
        "откры",
        -9.783822705603724
      ],
      [
        "мог",
        -9.785589307390412
      ],
      [
        "политически",
        -9.785706468497844
      ],
      [
        "оборудование",
        -9.785888187140593
      ],
      [
        "декабр",
        -9.786335451955098
      ],
      [
        "предложен",
        -9.78641957943214
      ],
      [
        "поставил",
        -9.787417874872794
      ],
      [
        "нефтяны",
        -9.787908981474564
      ],
      [
        "бизнесмен",
        -9.788023105555475
      ],
      [
        "капитал",
        -9.788423188512112
      ],
      [
        "базе",
        -9.789893751460966
      ],
      [
        "степен",
        -9.79021206566663
      ],
      [
        "прошлы",
        -9.791167351488484
      ],
      [
        "помощник",
        -9.791706847692097
      ],
      [
        "dell",
        -9.79205182449505
      ],
      [
        "итали",
        -9.792805539121048
      ],
      [
        "хозяйств",
        -9.792928971330031
      ],
      [
        "подобн",
        -9.794343010788937
      ],
      [
        "аэропорта",
        -9.795307029810978
      ],
      [
        "наступлени",
        -9.795836058386133
      ],
      [
        "de",
        -9.796211447507185
      ],
      [
        "земли",
        -9.796478213712799
      ],
      [
        "L",
        -9.797328494127049
      ],
      [
        "боеприпас",
        -9.797328494179226
      ],
      [
        "эпидеми",
        -9.797328494891666
      ],
      [
        "махачкал",
        -9.797328508149896
      ],
      [
        "джеймс",
        -9.797328697734724
      ],
      [
        "депортаци",
        -9.797328737483301
      ],
      [
        "лагеря",
        -9.797329120766234
      ],
      [
        "corrier",
        -9.797329340174068
      ],
      [
        "письмо",
        -9.797329680060992
      ],
      [
        "звонк",
        -9.797330966799995
      ],
      [
        "хаттаб",
        -9.797332223551358
      ],
      [
        "помимо",
        -9.797364786415299
      ],
      [
        "переселенц",
        -9.79736603858585
      ],
      [
        "олег",
        -9.797442314182526
      ],
      [
        "досрочно",
        -9.797542771992868
      ],
      [
        "шкал",
        -9.79758700694861
      ],
      [
        "сенат",
        -9.797595002907197
      ],
      [
        "ii",
        -9.797652701780043
      ],
      [
        "телерадиокомпани",
        -9.797757378931996
      ],
      [
        "объяснил",
        -9.798096106478916
      ],
      [
        "son",
        -9.798309498179847
      ],
      [
        "баррел",
        -9.79844030423923
      ],
      [
        "эвакуирован",
        -9.798475831546723
      ],
      [
        "мировой",
        -9.798504277523326
      ],
      [
        "странам",
        -9.798796641154283
      ],
      [
        "использовании",
        -9.798862128378751
      ],
      [
        "прекратить",
        -9.79908421286026
      ],
      [
        "ввоз",
        -9.799190673061462
      ],
      [
        "придется",
        -9.799194462999667
      ],
      [
        "встреч",
        -9.799264206463727
      ],
      [
        "новым",
        -9.799298925928086
      ],
      [
        "драк",
        -9.799397727941301
      ],
      [
        "зафиксирован",
        -9.799527963198077
      ],
      [
        "доказательств",
        -9.799884030804392
      ],
      [
        "имеющих",
        -9.800016214486432
      ],
      [
        "гур",
        -9.800491043304191
      ],
      [
        "рода",
        -9.800573007289147
      ],
      [
        "содержани",
        -9.800600390351168
      ],
      [
        "долго",
        -9.801088866240184
      ],
      [
        "собрания",
        -9.8016491527377
      ],
      [
        "буде",
        -9.801772914605206
      ],
      [
        "лебедь",
        -9.804553610873995
      ],
      [
        "финансовые",
        -9.804769418338235
      ],
      [
        "турист",
        -9.80487485106904
      ],
      [
        "афин",
        -9.805663307041474
      ],
      [
        "жителям",
        -9.805721047463674
      ],
      [
        "урегулировани",
        -9.806173827177878
      ],
      [
        "легко",
        -9.806500247418874
      ],
      [
        "хорош",
        -9.806610470250785
      ],
      [
        "подал",
        -9.806730080578355
      ],
      [
        "марте",
        -9.806993046880473
      ],
      [
        "института",
        -9.807148499146718
      ],
      [
        "местном",
        -9.807399927644454
      ],
      [
        "кандидата",
        -9.80778883675033
      ],
      [
        "вынуждены",
        -9.807994558606298
      ],
      [
        "имеются",
        -9.80810567540404
      ],
      [
        "идут",
        -9.808447904759374
      ],
      [
        "сын",
        -9.808656091692026
      ],
      [
        "сот",
        -9.80902010083421
      ],
      [
        "президентски",
        -9.8102326985558
      ],
      [
        "us",
        -9.8105579511208
      ],
      [
        "многочисленны",
        -9.810811758782599
      ],
      [
        "обеспечению",
        -9.810967846426376
      ],
      [
        "концерн",
        -9.811539431945917
      ],
      [
        "перерегистраци",
        -9.811641678547826
      ],
      [
        "ирует",
        -9.812145010025676
      ],
      [
        "современны",
        -9.813700400480904
      ],
      [
        "осети",
        -9.814488981789715
      ],
      [
        "законодательство",
        -9.814595063966417
      ],
      [
        "падения",
        -9.815708266105052
      ],
      [
        "специальн",
        -9.81576145058515
      ],
      [
        "возвращени",
        -9.81628879732041
      ],
      [
        "ут",
        -9.816800145146756
      ],
      [
        "сделано",
        -9.817029172706013
      ],
      [
        "прошлого",
        -9.817567647299898
      ],
      [
        "su",
        -9.818773941585606
      ],
      [
        "кредитор",
        -9.81938318700444
      ],
      [
        "карт",
        -9.82147523096384
      ],
      [
        "мужчин",
        -9.821517544735343
      ],
      [
        "усилени",
        -9.82187309106482
      ],
      [
        "la",
        -9.822017405454558
      ],
      [
        "найт",
        -9.822385939874872
      ],
      [
        "вооруженны",
        -9.822603221276637
      ],
      [
        "персонал",
        -9.823339132084008
      ],
      [
        "программа",
        -9.823624470547415
      ],
      [
        "кон",
        -9.823691766096859
      ],
      [
        "цели",
        -9.82540355060856
      ],
      [
        "чили",
        -9.825592133406538
      ],
      [
        "устройства",
        -9.826933318427162
      ],
      [
        "митинг",
        -9.827030592068835
      ],
      [
        "работал",
        -9.827378879536202
      ],
      [
        "ситуациям",
        -9.827693715709358
      ],
      [
        "выполнен",
        -9.830111489479302
      ],
      [
        "съезд",
        -9.831832646999167
      ],
      [
        "побережь",
        -9.832396795679271
      ],
      [
        "мешк",
        -9.832493967348395
      ],
      [
        "возник",
        -9.832567704197462
      ],
      [
        "десяти",
        -9.833459261820458
      ],
      [
        "минго",
        -9.835561701038696
      ],
      [
        "вин",
        -9.839030127199042
      ],
      [
        "поста",
        -9.839441187049742
      ],
      [
        "руб",
        -9.839470182237504
      ],
      [
        "европейск",
        -9.840905714906558
      ],
      [
        "прогноз",
        -9.841313921951318
      ],
      [
        "юго",
        -9.84131530204715
      ],
      [
        "втором",
        -9.842252148309488
      ],
      [
        "карточк",
        -9.843839647552294
      ],
      [
        "подъезд",
        -9.844525727811218
      ],
      [
        "бандит",
        -9.844786246339176
      ],
      [
        "боя",
        -9.84554179711418
      ],
      [
        "пользу",
        -9.845772888280404
      ],
      [
        "теле",
        -9.845906849356819
      ],
      [
        "обломк",
        -9.846519562054269
      ],
      [
        "правила",
        -9.847234642443924
      ],
      [
        "автомобиль",
        -9.847330142683877
      ],
      [
        "подозрени",
        -9.847999829335228
      ],
      [
        "будуще",
        -9.848178286700312
      ],
      [
        "запис",
        -9.848199890354756
      ],
      [
        "da",
        -9.848216931503078
      ],
      [
        "значительны",
        -9.851256557366058
      ],
      [
        "теракта",
        -9.851451636544368
      ],
      [
        "опасны",
        -9.851654088818538
      ],
      [
        "попал",
        -9.852239768845472
      ],
      [
        "разны",
        -9.853218107108031
      ],
      [
        "решить",
        -9.85354131056579
      ],
      [
        "брат",
        -9.855290027891913
      ],
      [
        "близ",
        -9.855854467127047
      ],
      [
        "норм",
        -9.855865459774359
      ],
      [
        "название",
        -9.85635433953963
      ],
      [
        "казать",
        -9.856379529445661
      ],
      [
        "экономическ",
        -9.856487031017222
      ],
      [
        "экономическим",
        -9.856733361310829
      ],
      [
        "очевид",
        -9.857037212143311
      ],
      [
        "юрт",
        -9.857515276934214
      ],
      [
        "договоренност",
        -9.858591802775813
      ],
      [
        "состоит",
        -9.858925733394024
      ],
      [
        "фотографи",
        -9.859005535435216
      ],
      [
        "проверя",
        -9.8595832599642
      ],
      [
        "едино",
        -9.859785933074571
      ],
      [
        "пытались",
        -9.860257670561268
      ],
      [
        "относит",
        -9.86053929288835
      ],
      [
        "последн",
        -9.861010436098434
      ],
      [
        "родственник",
        -9.862392707607222
      ],
      [
        "инициатив",
        -9.862454672259
      ],
      [
        "расход",
        -9.86249732366284
      ],
      [
        "миссия",
        -9.862543867950983
      ],
      [
        "диск",
        -9.862724443458196
      ],
      [
        "посту",
        -9.862726225892864
      ],
      [
        "англи",
        -9.863150002122117
      ],
      [
        "R",
        -9.863995160793724
      ],
      [
        "контингент",
        -9.863995160922096
      ],
      [
        "редактор",
        -9.86399516109269
      ],
      [
        "network",
        -9.863995211917707
      ],
      [
        "оджалан",
        -9.863995314599638
      ],
      [
        "вариант",
        -9.863995419170582
      ],
      [
        "гейтс",
        -9.863995565573871
      ],
      [
        "задорнов",
        -9.86399578432776
      ],
      [
        "возникновени",
        -9.863996172934668
      ],
      [
        "покупк",
        -9.863998120793196
      ],
      [
        "резолюци",
        -9.863998564849693
      ],
      [
        "собинбанк",
        -9.86400026994456
      ],
      [
        "конечно",
        -9.864030843474062
      ],
      [
        "откуда",
        -9.864080087234623
      ],
      [
        "саммерс",
        -9.86408854657997
      ],
      [
        "минфин",
        -9.864118634150744
      ],
      [
        "находиться",
        -9.864278047261543
      ],
      [
        "вступил",
        -9.864304508129848
      ],
      [
        "штраф",
        -9.864526044595724
      ],
      [
        "спрос",
        -9.864759339794329
      ],
      [
        "зарубежных",
        -9.8648115325615
      ],
      [
        "составляют",
        -9.865439945864647
      ],
      [
        "кладбище",
        -9.865608672858713
      ],
      [
        "близки",
        -9.865641569237798
      ],
      [
        "опубликовал",
        -9.865962860119057
      ],
      [
        "таможенного",
        -9.866043776141488
      ],
      [
        "оставши",
        -9.866131901750675
      ],
      [
        "nta",
        -9.866195325051233
      ],
      [
        "старши",
        -9.86623643456588
      ],
      [
        "наблюдател",
        -9.866295528834184
      ],
      [
        "взаимодействи",
        -9.866501317454867
      ],
      [
        "плен",
        -9.866912697051037
      ],
      [
        "делами",
        -9.867021228337936
      ],
      [
        "шесть",
        -9.867033477059124
      ],
      [
        "представленны",
        -9.867505769052535
      ],
      [
        "комментируя",
        -9.867538542001071
      ],
      [
        "медицинско",
        -9.867595716243972
      ],
      [
        "подверг",
        -9.86825271301218
      ],
      [
        "выда",
        -9.868815397086586
      ],
      [
        "минувшие",
        -9.868983574053312
      ],
      [
        "двумя",
        -9.869118856606296
      ],
      [
        "оба",
        -9.869336333278396
      ],
      [
        "ющих",
        -9.870583614088886
      ],
      [
        "давно",
        -9.871310840450088
      ],
      [
        "хотят",
        -9.871382292618598
      ],
      [
        "операционн",
        -9.87174855999599
      ],
      [
        "поезд",
        -9.872546111445018
      ],
      [
        "финансовыми",
        -9.873112763242492
      ],
      [
        "принадлежащи",
        -9.873148905817196
      ],
      [
        "войну",
        -9.873311617429884
      ],
      [
        "мало",
        -9.873909695381693
      ],
      [
        "недел",
        -9.874539899249166
      ],
      [
        "вооружени",
        -9.874569871863075
      ],
      [
        "\")",
        -9.874845990522417
      ],
      [
        "вел",
        -9.874918267259199
      ],
      [
        "центральны",
        -9.875004511194335
      ],
      [
        "специальны",
        -9.875054204104831
      ],
      [
        "lim",
        -9.875101534447124
      ],
      [
        "нападения",
        -9.876737611052098
      ],
      [
        "распространение",
        -9.876946588483438
      ],
      [
        "национально",
        -9.87695674353121
      ],
      [
        "воздушны",
        -9.877027318994987
      ],
      [
        "поездк",
        -9.877294344981454
      ],
      [
        "вто",
        -9.877719639969945
      ],
      [
        "где",
        -9.877738794814007
      ],
      [
        "ракетно",
        -9.877991436652056
      ],
      [
        "обвиняемы",
        -9.878001097510817
      ],
      [
        "британской",
        -9.878117818953934
      ],
      [
        "проводят",
        -9.879627023560262
      ],
      [
        "случая",
        -9.879952766801141
      ],
      [
        "манежн",
        -9.88093925543957
      ],
      [
        "ман",
        -9.881334327352882
      ],
      [
        "партий",
        -9.881933422199346
      ],
      [
        "будущем",
        -9.882044020433263
      ],
      [
        "прибыль",
        -9.883029208120313
      ],
      [
        "ющего",
        -9.883596394598444
      ],
      [
        "экипажа",
        -9.884201677406484
      ],
      [
        "тщательно",
        -9.884266453642256
      ],
      [
        "единство",
        -9.884406235382981
      ],
      [
        "налогам",
        -9.886328040409326
      ],
      [
        "заявления",
        -9.88707046567774
      ],
      [
        "it",
        -9.887280470084974
      ],
      [
        "каким",
        -9.887850596546947
      ],
      [
        "судно",
        -9.888506290178793
      ],
      [
        "работник",
        -9.889456115825741
      ],
      [
        "стро",
        -9.889884751532621
      ],
      [
        "достиг",
        -9.890687959694516
      ],
      [
        "взяты",
        -9.890923832350527
      ],
      [
        "ссыл",
        -9.89125411514212
      ],
      [
        "протест",
        -9.891456484375768
      ],
      [
        "состояни",
        -9.891681387860933
      ],
      [
        "поставк",
        -9.893007116770686
      ],
      [
        "сделал",
        -9.894339214191136
      ],
      [
        "народа",
        -9.89475867091265
      ],
      [
        "проблема",
        -9.895572371118567
      ],
      [
        "выведен",
        -9.896092080805873
      ],
      [
        "торг",
        -9.896154061261548
      ],
      [
        "южн",
        -9.89649718065673
      ],
      [
        "российское",
        -9.898184842376303
      ],
      [
        "ри",
        -9.898517983762533
      ],
      [
        "сделк",
        -9.899062613012191
      ],
      [
        "обеспечение",
        -9.899488682942291
      ],
      [
        "услови",
        -9.89969480721874
      ],
      [
        "каки",
        -9.9001710221969
      ],
      [
        "основно",
        -9.90129708132307
      ],
      [
        "изации",
        -9.901479948979013
      ],
      [
        "объема",
        -9.902973361663246
      ],
      [
        "техническо",
        -9.903445057617416
      ],
      [
        "ние",
        -9.903447465093633
      ],
      [
        "ядерн",
        -9.904035688901253
      ],
      [
        "указывает",
        -9.905071794362248
      ],
      [
        "жена",
        -9.905254100313597
      ],
      [
        "принимал",
        -9.905532723793534
      ],
      [
        "активны",
        -9.90563472462464
      ],
      [
        "использован",
        -9.905889902609267
      ],
      [
        "закрыт",
        -9.906909600178352
      ],
      [
        "наблюда",
        -9.90765330873973
      ],
      [
        "отсутстви",
        -9.908192127560836
      ],
      [
        "ью",
        -9.908604943573192
      ],
      [
        "треть",
        -9.909031757401502
      ],
      [
        "размера",
        -9.90913316177994
      ],
      [
        "столичн",
        -9.90916362088182
      ],
      [
        "молоды",
        -9.909174943106285
      ],
      [
        "войн",
        -9.909808620716934
      ],
      [
        "нефте",
        -9.910486396139056
      ],
      [
        "кро",
        -9.910918950604707
      ],
      [
        "советски",
        -9.912059395231466
      ],
      [
        "продолжать",
        -9.913584180749604
      ],
      [
        "сан",
        -9.91390672776427
      ],
      [
        "намечен",
        -9.914048372951157
      ],
      [
        "бар",
        -9.914075194282141
      ],
      [
        "обязан",
        -9.91522802764127
      ],
      [
        "следственны",
        -9.915313003224357
      ],
      [
        "ваться",
        -9.915631547064068
      ],
      [
        "утверждени",
        -9.91622470112015
      ],
      [
        "потребовал",
        -9.916429742359208
      ],
      [
        "отдельны",
        -9.916477380721448
      ],
      [
        "автомат",
        -9.916691495413566
      ],
      [
        "ин",
        -9.917169364385572
      ],
      [
        "деклараци",
        -9.919060613043278
      ],
      [
        "другом",
        -9.919352205105705
      ],
      [
        "жалоб",
        -9.919645052200602
      ],
      [
        "эр",
        -9.920634189690707
      ],
      [
        "санкци",
        -9.921719054071003
      ],
      [
        "снят",
        -9.921728385072699
      ],
      [
        "статье",
        -9.921958158570089
      ],
      [
        "топливо",
        -9.9221559698151
      ],
      [
        "бесед",
        -9.922509594935443
      ],
      [
        "москвич",
        -9.92274770495374
      ],
      [
        "общи",
        -9.922980507742267
      ],
      [
        "защите",
        -9.923709617406908
      ],
      [
        "свет",
        -9.923725319563301
      ],
      [
        "няя",
        -9.923879651806542
      ],
      [
        "чечней",
        -9.924303339605853
      ],
      [
        "обязательства",
        -9.925495212227515
      ],
      [
        "эффективно",
        -9.92624671055461
      ],
      [
        "to",
        -9.926365848383552
      ],
      [
        "лебед",
        -9.927211429921003
      ],
      [
        "тройк",
        -9.927450689133037
      ],
      [
        "нашли",
        -9.928440746493589
      ],
      [
        "2",
        -9.92864757356905
      ],
      [
        "ному",
        -9.929095887032629
      ],
      [
        "граждански",
        -9.930680141335145
      ],
      [
        "опас",
        -9.931574505226957
      ],
      [
        "мировом",
        -9.93180255867564
      ],
      [
        "дзе",
        -9.931912011160678
      ],
      [
        "преступник",
        -9.932452950626658
      ],
      [
        "стихи",
        -9.933038118268854
      ],
      [
        "and",
        -9.933041365445698
      ],
      [
        "говоря",
        -9.934399122897068
      ],
      [
        "начина",
        -9.934728932362933
      ],
      [
        "один",
        -9.934775490688539
      ],
      [
        "ite",
        -9.935200493687768
      ],
      [
        "французски",
        -9.935396371938158
      ],
      [
        "индустри",
        -9.935423733512138
      ],
      [
        "эдвард",
        -9.93542374588168
      ],
      [
        "аналитик",
        -9.935423764268027
      ],
      [
        "возобнови",
        -9.935423775175504
      ],
      [
        "таджикистан",
        -9.935423802473501
      ],
      [
        "приштин",
        -9.935423840235659
      ],
      [
        "пистолет",
        -9.9354238753967
      ],
      [
        "раунд",
        -9.935423890796613
      ],
      [
        "каролин",
        -9.935435450665032
      ],
      [
        "woo",
        -9.935437986178183
      ],
      [
        "леонид",
        -9.935438334235222
      ],
      [
        "ассоциаци",
        -9.93548187966924
      ],
      [
        "internet",
        -9.93559159102069
      ],
      [
        "покинул",
        -9.935604812948617
      ],
      [
        "внутри",
        -9.935635949917863
      ],
      [
        "беспорядк",
        -9.935734160051085
      ],
      [
        "здравоохранения",
        -9.93589813002326
      ],
      [
        "ведомства",
        -9.935973534620604
      ],
      [
        "прошел",
        -9.936347544167255
      ],
      [
        "имущества",
        -9.93641863620989
      ],
      [
        "американский",
        -9.936529944567233
      ],
      [
        "произведен",
        -9.936929881495912
      ],
      [
        "погашени",
        -9.937130384447926
      ],
      [
        "наступление",
        -9.937152773109355
      ],
      [
        "разоружени",
        -9.93728952297545
      ],
      [
        "международная",
        -9.938495956571225
      ],
      [
        "исполнени",
        -9.93880369611767
      ],
      [
        "стихийно",
        -9.939077775970269
      ],
      [
        "конкретно",
        -9.939242572182401
      ],
      [
        "бомбовы",
        -9.939738884703335
      ],
      [
        "обязанностей",
        -9.939810159044779
      ],
      [
        "палестинц",
        -9.940001103149635
      ],
      [
        "внешне",
        -9.940390154397816
      ],
      [
        "называют",
        -9.940715912079032
      ],
      [
        "американская",
        -9.940794891355612
      ],
      [
        "изъято",
        -9.941477766941361
      ],
      [
        "настояще",
        -9.94151280922639
      ],
      [
        "3",
        -9.941767605453064
      ],
      [
        "нобелевской",
        -9.942141120668044
      ],
      [
        "берегов",
        -9.942360845221925
      ],
      [
        "обсужда",
        -9.94402629811674
      ],
      [
        "связ",
        -9.944273460773063
      ],
      [
        "1",
        -9.94478563665073
      ],
      [
        "компьютерно",
        -9.94563656526681
      ],
      [
        "оплаты",
        -9.945855166343906
      ],
      [
        "парти",
        -9.945987554268847
      ],
      [
        "чеченц",
        -9.946057553335157
      ],
      [
        "ими",
        -9.946251224575256
      ],
      [
        "национальност",
        -9.946298442328256
      ],
      [
        "расположенном",
        -9.946451191715013
      ],
      [
        "man",
        -9.947299925679433
      ],
      [
        "продукты",
        -9.94905964340035
      ],
      [
        "каждо",
        -9.949305946073872
      ],
      [
        "пытаются",
        -9.949610087449376
      ],
      [
        "сбо",
        -9.95010352863715
      ],
      [
        "ан",
        -9.95077341898888
      ],
      [
        "машина",
        -9.951216832585269
      ],
      [
        "спасательны",
        -9.951600659315647
      ],
      [
        "начать",
        -9.952190396903934
      ],
      [
        "немецки",
        -9.95285253925459
      ],
      [
        "дили",
        -9.95461947719437
      ],
      [
        "дым",
        -9.95473727594522
      ],
      [
        "ющий",
        -9.955626057354943
      ],
      [
        "колокола",
        -9.956329333039449
      ],
      [
        "денежны",
        -9.957107582831524
      ],
      [
        "космическо",
        -9.957679348641804
      ],
      [
        "установил",
        -9.958133268110402
      ],
      [
        "враг",
        -9.958763909099275
      ],
      [
        "прямом",
        -9.958839741674145
      ],
      [
        "столкну",
        -9.95893235944505
      ],
      [
        "автомобиля",
        -9.959161586225939
      ],
      [
        "общин",
        -9.95983335187768
      ],
      [
        "избирательный",
        -9.959911717662505
      ],
      [
        "z",
        -9.96013259120696
      ],
      [
        "круг",
        -9.960167511272385
      ],
      [
        "ость",
        -9.960190975560948
      ],
      [
        "иде",
        -9.960562084163715
      ],
      [
        "делегация",
        -9.961535918936859
      ],
      [
        "повреждени",
        -9.96156997431217
      ],
      [
        "десятки",
        -9.962694049488533
      ],
      [
        "нападени",
        -9.962730207312472
      ],
      [
        "демократи",
        -9.962995184305402
      ],
      [
        "принимать",
        -9.963289468546837
      ],
      [
        "народного",
        -9.963455238750033
      ],
      [
        "были",
        -9.963573909827128
      ],
      [
        "дальнейшем",
        -9.964731856542485
      ],
      [
        "силовы",
        -9.965763546476447
      ],
      [
        "введение",
        -9.965992543075995
      ],
      [
        "тайване",
        -9.966288561670908
      ],
      [
        "согласован",
        -9.969617605987079
      ],
      [
        "пакистана",
        -9.969635149686528
      ],
      [
        "четверт",
        -9.969913619912795
      ],
      [
        "официальный",
        -9.974137969371526
      ],
      [
        "аться",
        -9.974283813275205
      ],
      [
        "предоставит",
        -9.974730934011363
      ],
      [
        "полном",
        -9.975068869478813
      ],
      [
        "кого",
        -9.975629648168487
      ],
      [
        "ство",
        -9.975968157243214
      ],
      [
        "гаранти",
        -9.976996807525
      ],
      [
        "похити",
        -9.977091464202191
      ],
      [
        "чеченским",
        -9.977301901486218
      ],
      [
        "дороги",
        -9.977798128409937
      ],
      [
        "вшись",
        -9.978220400346553
      ],
      [
        "кар",
        -9.978240739663146
      ],
      [
        "обстоятельств",
        -9.978250085218097
      ],
      [
        "запрещен",
        -9.978358413139295
      ],
      [
        "сторона",
        -9.97857418665884
      ],
      [
        "автобуса",
        -9.979320926878753
      ],
      [
        "ер",
        -9.980258205520798
      ],
      [
        "телефону",
        -9.98067138717977
      ],
      [
        "турци",
        -9.980781094057843
      ],
      [
        "ак",
        -9.980899044241209
      ],
      [
        "лицам",
        -9.981251744238897
      ],
      [
        "доллар",
        -9.981417127361555
      ],
      [
        "телефонно",
        -9.981418389955577
      ],
      [
        "еще",
        -9.981540264431473
      ],
      [
        "птиц",
        -9.982318415540327
      ],
      [
        "быть",
        -9.98285079605005
      ],
      [
        "кабинет",
        -9.983463567987435
      ],
      [
        "проверка",
        -9.983607675877074
      ],
      [
        "документа",
        -9.983732813431025
      ],
      [
        "милиционер",
        -9.984739271332689
      ],
      [
        "цы",
        -9.984795075203122
      ],
      [
        "окончательно",
        -9.98548675381506
      ],
      [
        "мощны",
        -9.98556486895356
      ],
      [
        "собственно",
        -9.98613065770886
      ],
      [
        "мая",
        -9.987644164127985
      ],
      [
        "него",
        -9.987727630477508
      ],
      [
        "пр",
        -9.988747501881155
      ],
      [
        "or",
        -9.988815900690724
      ],
      [
        "офицер",
        -9.988850608749237
      ],
      [
        "экипаж",
        -9.989419117840287
      ],
      [
        "грозн",
        -9.989714555201775
      ],
      [
        "категори",
        -9.990134744002585
      ],
      [
        "начали",
        -9.992382902837127
      ],
      [
        "литв",
        -9.992895590590006
      ],
      [
        "васили",
        -9.994432579748599
      ],
      [
        "коммуникаци",
        -9.99736376580008
      ],
      [
        "был",
        -9.99775646840805
      ],
      [
        "организован",
        -9.997845207110505
      ],
      [
        "связаны",
        -9.997877074167777
      ],
      [
        "путе",
        -9.998533510951699
      ],
      [
        "вечер",
        -9.998548780880045
      ],
      [
        "большие",
        -9.998697847481811
      ],
      [
        "четвер",
        -9.999372860681296
      ],
      [
        "ойдут",
        -10.00035056484236
      ],
      [
        "ша",
        -10.000847680045839
      ],
      [
        "ведения",
        -10.000952953000427
      ],
      [
        "nn",
        -10.00168720792846
      ],
      [
        "oda",
        -10.00192075358773
      ],
      [
        "правил",
        -10.00243534114394
      ],
      [
        "дель",
        -10.0026822497157
      ],
      [
        "лучше",
        -10.002945510511907
      ],
      [
        "событиям",
        -10.003906910975884
      ],
      [
        "te",
        -10.004105570572117
      ],
      [
        "освобождение",
        -10.004809224516322
      ],
      [
        "...",
        -10.006317932656355
      ],
      [
        "пожарны",
        -10.00694821295717
      ],
      [
        "спас",
        -10.007105088965726
      ],
      [
        "валютны",
        -10.007841410243524
      ],
      [
        "вероятно",
        -10.00821567665359
      ],
      [
        "обеща",
        -10.008236548570725
      ],
      [
        "nt",
        -10.008342328711372
      ],
      [
        "случа",
        -10.00889232896998
      ],
      [
        "социально",
        -10.009214253062877
      ],
      [
        "инвестици",
        -10.010588844815153
      ],
      [
        "кто",
        -10.010820619110746
      ],
      [
        "класс",
        -10.011216769698807
      ],
      [
        "террор",
        -10.011334402711485
      ],
      [
        "признан",
        -10.011426229140096
      ],
      [
        "пом",
        -10.011743394799328
      ],
      [
        "хотел",
        -10.01192927211916
      ],
      [
        "ish",
        -10.012022438603253
      ],
      [
        "вывоз",
        -10.012085499018404
      ],
      [
        "роберт",
        -10.012274526082836
      ],
      [
        "коммерци",
        -10.0123465884216
      ],
      [
        "озабочен",
        -10.012346809871866
      ],
      [
        "эдуард",
        -10.012346811245202
      ],
      [
        "зданович",
        -10.012346815683271
      ],
      [
        "лауреат",
        -10.012346844721797
      ],
      [
        "комментари",
        -10.012347175851936
      ],
      [
        "относительно",
        -10.01235096059759
      ],
      [
        "стерлинг",
        -10.012358611557351
      ],
      [
        "компакт",
        -10.012370440535381
      ],
      [
        "дальше",
        -10.012372065427325
      ],
      [
        "brit",
        -10.012374909269802
      ],
      [
        "исключил",
        -10.012376080893429
      ],
      [
        "баллотироваться",
        -10.012379093236138
      ],
      [
        "расстояни",
        -10.012386778308903
      ],
      [
        "волков",
        -10.01248050915495
      ],
      [
        "десс",
        -10.012490000806393
      ],
      [
        "опасности",
        -10.012554710365619
      ],
      [
        "сопротивлени",
        -10.012586191371941
      ],
      [
        "унци",
        -10.012599153668326
      ],
      [
        "кубически",
        -10.012611889727904
      ],
      [
        "платформ",
        -10.012612734851588
      ],
      [
        "исламист",
        -10.012735513237274
      ],
      [
        "уголовны",
        -10.012971627890114
      ],
      [
        "покинуть",
        -10.013049306761198
      ],
      [
        "дожд",
        -10.01305177280031
      ],
      [
        "остановить",
        -10.013078184414134
      ],
      [
        "мафи",
        -10.01308651192606
      ],
      [
        "сенатор",
        -10.013118309457273
      ],
      [
        "взрывчатых",
        -10.013183156142553
      ],
      [
        "эксплуатаци",
        -10.013429317752758
      ],
      [
        "военный",
        -10.013476389947995
      ],
      [
        "тюрем",
        -10.013541488203836
      ],
      [
        "заключил",
        -10.013589683416736
      ],
      [
        "немедленно",
        -10.013987683752472
      ],
      [
        "страховани",
        -10.01398884215138
      ],
      [
        "включает",
        -10.014089206244364
      ],
      [
        "jo",
        -10.014170107365363
      ],
      [
        "изъяты",
        -10.014275419012787
      ],
      [
        "потеря",
        -10.014357164066684
      ],
      [
        "равно",
        -10.014677186111939
      ],
      [
        "проходил",
        -10.014752018750722
      ],
      [
        "верховного",
        -10.015006891045855
      ],
      [
        "возросл",
        -10.015045108142425
      ],
      [
        "бывши",
        -10.01571339007512
      ],
      [
        "посадк",
        -10.016671312862298
      ],
      [
        "крови",
        -10.016673851740649
      ],
      [
        "агент",
        -10.017361510831991
      ],
      [
        "постановления",
        -10.017919200238653
      ],
      [
        "верховны",
        -10.018078957567543
      ],
      [
        "вслед",
        -10.018537841299052
      ],
      [
        "причастны",
        -10.01897732260738
      ],
      [
        "перешл",
        -10.019083270846469
      ],
      [
        "городского",
        -10.019684263104594
      ],
      [
        "отмыванием",
        -10.019889379212097
      ],
      [
        "овр",
        -10.020109957302072
      ],
      [
        "среднем",
        -10.020435165297702
      ],
      [
        "обращения",
        -10.020530827269209
      ],
      [
        "проче",
        -10.020631656064381
      ],
      [
        "призна",
        -10.020906554127741
      ],
      [
        "местного",
        -10.021361099184043
      ],
      [
        "гб",
        -10.021526665806745
      ],
      [
        "жестки",
        -10.021655750180061
      ],
      [
        "передвижени",
        -10.021667142518769
      ],
      [
        "электроэнергии",
        -10.02201065200633
      ],
      [
        "пребывани",
        -10.022229769959331
      ],
      [
        "гражданам",
        -10.023941422444636
      ],
      [
        "зале",
        -10.024024673571986
      ],
      [
        "момента",
        -10.024442798377077
      ],
      [
        "проводить",
        -10.02460019430789
      ],
      [
        "совместны",
        -10.024809074162558
      ],
      [
        "утверждения",
        -10.025040518522209
      ],
      [
        "предусмотрен",
        -10.025277482011969
      ],
      [
        "страниц",
        -10.025591586824229
      ],
      [
        "недель",
        -10.025674818834267
      ],
      [
        "тера",
        -10.027230651828274
      ],
      [
        "усили",
        -10.027570281211876
      ],
      [
        "бандиты",
        -10.028804809458325
      ],
      [
        "ран",
        -10.029552217125364
      ],
      [
        "заявля",
        -10.0299392513712
      ],
      [
        "ci",
        -10.03053404029995
      ],
      [
        "сохрани",
        -10.031055270394702
      ],
      [
        "осуществляет",
        -10.031255866468664
      ],
      [
        "израиль",
        -10.031387684927633
      ],
      [
        "возникл",
        -10.031861546158678
      ],
      [
        "обраща",
        -10.03206866435482
      ],
      [
        "заболевания",
        -10.032138391220247
      ],
      [
        "незаконным",
        -10.032732001376196
      ],
      [
        "дагестанско",
        -10.033374762340612
      ],
      [
        "усиленны",
        -10.033850782517392
      ],
      [
        "категорическ",
        -10.03391749317508
      ],
      [
        "рих",
        -10.033993197614416
      ],
      [
        "хлеб",
        -10.03415562344103
      ],
      [
        "коб",
        -10.034671740892474
      ],
      [
        "транш",
        -10.035849475900763
      ],
      [
        "дополнительно",
        -10.03598727741305
      ],
      [
        "арбитражно",
        -10.036417800535851
      ],
      [
        "квартал",
        -10.036643586104578
      ],
      [
        "ально",
        -10.036808158718376
      ],
      [
        "огне",
        -10.037108286799088
      ],
      [
        "насили",
        -10.037295557841823
      ],
      [
        "больны",
        -10.038179839610951
      ],
      [
        "подозревают",
        -10.038214140841315
      ],
      [
        "существенно",
        -10.039323297059655
      ],
      [
        "прич",
        -10.04027190062413
      ],
      [
        "судя",
        -10.04030067763959
      ],
      [
        "сетево",
        -10.040317975143239
      ],
      [
        ">%)",
        -10.040452115531298
      ],
      [
        "механизм",
        -10.040603942704504
      ],
      [
        "война",
        -10.040631978857622
      ],
      [
        "выделен",
        -10.04173683141172
      ],
      [
        "площадь",
        -10.041824395089222
      ],
      [
        "семья",
        -10.04248643430341
      ],
      [
        "би",
        -10.04320652093844
      ],
      [
        "вопросов",
        -10.043278297720525
      ],
      [
        "ьянов",
        -10.04436015598483
      ],
      [
        "завал",
        -10.044365630450981
      ],
      [
        "обращение",
        -10.044504968947532
      ],
      [
        "осуществлени",
        -10.044642178384947
      ],
      [
        "наци",
        -10.04539522449409
      ],
      [
        "hil",
        -10.045895306828356
      ],
      [
        "свободы",
        -10.046111880422249
      ],
      [
        "более",
        -10.046213401195288
      ],
      [
        "миг",
        -10.046567629513948
      ],
      [
        "увеличить",
        -10.047677514695897
      ],
      [
        "обвиняет",
        -10.048062978933382
      ],
      [
        "вынужденны",
        -10.048230133655355
      ],
      [
        "пункта",
        -10.048622794083546
      ],
      [
        "wa",
        -10.048815558784618
      ],
      [
        "открыл",
        -10.049301043618584
      ],
      [
        "объединени",
        -10.049357459811791
      ],
      [
        "нные",
        -10.049413946976538
      ],
      [
        "закрыти",
        -10.049501997803318
      ],
      [
        "поле",
        -10.050081388849314
      ],
      [
        "ющей",
        -10.050746808818557
      ],
      [
        "третье",
        -10.051931104489435
      ],
      [
        "слияни",
        -10.05378391174337
      ],
      [
        "тайван",
        -10.054695234681022
      ],
      [
        "введени",
        -10.054747542247584
      ],
      [
        "жертвам",
        -10.055027606387934
      ],
      [
        "американц",
        -10.056257777075459
      ],
      [
        "нижне",
        -10.056354391661772
      ],
      [
        "контрольно",
        -10.0570216593461
      ],
      [
        "прибывши",
        -10.05706734456672
      ],
      [
        "приостановлен",
        -10.0573048263407
      ],
      [
        "террорист",
        -10.058202178562745
      ],
      [
        "положени",
        -10.058302372075724
      ],
      [
        "наводнени",
        -10.058559206045096
      ],
      [
        "живы",
        -10.059087425031016
      ],
      [
        "вещ",
        -10.059848348102161
      ],
      [
        "используют",
        -10.06035104667115
      ],
      [
        "демократ",
        -10.060366898425015
      ],
      [
        "предотвратит",
        -10.061164116204715
      ],
      [
        "наряд",
        -10.061323076711684
      ],
      [
        "грози",
        -10.061604283626497
      ],
      [
        "осуществлен",
        -10.061778098790379
      ],
      [
        "государственным",
        -10.063239122852242
      ],
      [
        "предварительно",
        -10.063598834365004
      ],
      [
        "военн",
        -10.065204551956016
      ],
      [
        "медицинск",
        -10.06602229182969
      ],
      [
        "участвова",
        -10.066351253696093
      ],
      [
        "выполня",
        -10.06855987423447
      ],
      [
        "индекс",
        -10.06864223995244
      ],
      [
        "отпуск",
        -10.06897119105031
      ],
      [
        "казывать",
        -10.06905966191388
      ],
      [
        "сотрудничестве",
        -10.071468103669877
      ],
      [
        "рассматривает",
        -10.072514353436532
      ],
      [
        "up",
        -10.072747340580978
      ],
      [
        "открытие",
        -10.073686306645833
      ],
      [
        "кому",
        -10.074495789991229
      ],
      [
        "запланирован",
        -10.074765789987634
      ],
      [
        "установлени",
        -10.074783048523035
      ],
      [
        "международн",
        -10.07480085417049
      ],
      [
        "./",
        -10.075232478299446
      ],
      [
        "испытани",
        -10.07550901039966
      ],
      [
        "включен",
        -10.075949385553423
      ],
      [
        "консультаци",
        -10.076061383524339
      ],
      [
        "первое",
        -10.076092415374076
      ],
      [
        "исламски",
        -10.076699949304452
      ],
      [
        "груз",
        -10.07820737365575
      ],
      [
        "государство",
        -10.078382506179764
      ],
      [
        "возвраща",
        -10.078673449323357
      ],
      [
        "иностранным",
        -10.080346041718315
      ],
      [
        "сете",
        -10.0806152869149
      ],
      [
        "ate",
        -10.081109501370575
      ],
      [
        "собра",
        -10.082045149074004
      ],
      [
        "информационн",
        -10.083594018808629
      ],
      [
        "практик",
        -10.08361730643489
      ],
      [
        "заинтересован",
        -10.083898961127044
      ],
      [
        "коммерческо",
        -10.084358816231298
      ],
      [
        "выдели",
        -10.08577571750764
      ],
      [
        "рейс",
        -10.086210007713294
      ],
      [
        "na",
        -10.086394644746358
      ],
      [
        "дочер",
        -10.087544424192995
      ],
      [
        "умер",
        -10.087925545883536
      ],
      [
        "скрыть",
        -10.088327743534794
      ],
      [
        "срочно",
        -10.088861715837856
      ],
      [
        "соответству",
        -10.09009980313999
      ],
      [
        "болезн",
        -10.090141866859128
      ],
      [
        "захват",
        -10.091249063793274
      ],
      [
        "оставил",
        -10.092342107593621
      ],
      [
        "фла",
        -10.093001024671864
      ],
      [
        "лучши",
        -10.093170034927772
      ],
      [
        "news",
        -10.093438537186145
      ],
      [
        "дд",
        -10.09396033489125
      ],
      [
        "артиллери",
        -10.093983929419775
      ],
      [
        "обычны",
        -10.09443047354478
      ],
      [
        "реагирова",
        -10.095057845011
      ],
      [
        "ton",
        -10.095344211962011
      ],
      [
        "центов",
        -10.095406320204377
      ],
      [
        "4",
        -10.09561746678018
      ],
      [
        "следует",
        -10.095644284639198
      ],
      [
        "константин",
        -10.095680143138937
      ],
      [
        "милошевич",
        -10.09568014384895
      ],
      [
        "мушарраф",
        -10.095680145848597
      ],
      [
        "сентябре",
        -10.095680152601119
      ],
      [
        "ходорковск",
        -10.095680162263818
      ],
      [
        "communicat",
        -10.09568017857422
      ],
      [
        "холдинг",
        -10.0956802686255
      ],
      [
        "лукойл",
        -10.095680405216475
      ],
      [
        "вчерашне",
        -10.095683508939672
      ],
      [
        "атмосфер",
        -10.095684505790508
      ],
      [
        "присутствова",
        -10.095685363515512
      ],
      [
        "противоречи",
        -10.09569011552018
      ],
      [
        "corp",
        -10.095691412569375
      ],
      [
        "земле",
        -10.095709537461383
      ],
      [
        "людмил",
        -10.09571661045911
      ],
      [
        "инкомбанк",
        -10.095725448345394
      ],
      [
        "минюст",
        -10.095732629715638
      ],
      [
        "модернизаци",
        -10.095733031250894
      ],
      [
        "коммунист",
        -10.095749917054265
      ],
      [
        "прибыти",
        -10.095766986775267
      ],
      [
        "гостелеком",
        -10.095769493898171
      ],
      [
        "сантиметр",
        -10.095774790942102
      ],
      [
        "газопровод",
        -10.095779359395522
      ],
      [
        "приморь",
        -10.09589720373264
      ],
      [
        "управляющи",
        -10.09593574099755
      ],
      [
        "мальчик",
        -10.096018498453477
      ],
      [
        "будь",
        -10.096033117499582
      ],
      [
        "исключают",
        -10.096081942676408
      ],
      [
        "поддержал",
        -10.096212449638973
      ],
      [
        "бдительност",
        -10.096252643287462
      ],
      [
        "вызов",
        -10.09638553694694
      ],
      [
        "грузовик",
        -10.096479289912903
      ],
      [
        "распространенном",
        -10.09647938436602
      ],
      [
        "допустить",
        -10.096563197101656
      ],
      [
        "кандидатур",
        -10.096569423267809
      ],
      [
        "покида",
        -10.096639936552695
      ],
      [
        "восемь",
        -10.096721624921043
      ],
      [
        "памятник",
        -10.096722548587275
      ],
      [
        "направить",
        -10.096834403877708
      ],
      [
        "соблюдени",
        -10.097498445291624
      ],
      [
        "напоминает",
        -10.097627846510237
      ],
      [
        "долг",
        -10.097694456071201
      ],
      [
        "следующи",
        -10.097745309492911
      ],
      [
        "одну",
        -10.09829214762252
      ],
      [
        "принятия",
        -10.098308554601996
      ],
      [
        "определит",
        -10.098358163605715
      ],
      [
        "комиссию",
        -10.098461015611303
      ],
      [
        "жительства",
        -10.098781571750015
      ],
      [
        "белы",
        -10.099089243441883
      ],
      [
        "поддерживает",
        -10.099118138070871
      ],
      [
        "потом",
        -10.099198492637456
      ],
      [
        "соответственн",
        -10.099918514452904
      ],
      [
        "чехии",
        -10.100297699305543
      ],
      [
        "швейцарско",
        -10.100430156304334
      ],
      [
        "рассмотре",
        -10.100577171424012
      ],
      [
        "занимает",
        -10.10110466879165
      ],
      [
        "итогам",
        -10.101902095640149
      ],
      [
        "вынужден",
        -10.102097621216545
      ],
      [
        "повыси",
        -10.10221358238185
      ],
      [
        "начало",
        -10.102229284014925
      ],
      [
        "диан",
        -10.102625457913986
      ],
      [
        "каждого",
        -10.102965793607305
      ],
      [
        "судебны",
        -10.103909473693232
      ],
      [
        "последствий",
        -10.103983684949618
      ],
      [
        "камн",
        -10.104015858438913
      ],
      [
        "единиц",
        -10.104191331261607
      ],
      [
        "степень",
        -10.104227986576515
      ],
      [
        "доходах",
        -10.104441565778773
      ],
      [
        "типа",
        -10.104712329187818
      ],
      [
        "мар",
        -10.1047847115839
      ],
      [
        "ядерно",
        -10.105353966900122
      ],
      [
        "стар",
        -10.105609044144407
      ],
      [
        "задачи",
        -10.105640337913659
      ],
      [
        "партнер",
        -10.106457625222045
      ],
      [
        "ракета",
        -10.107201082426945
      ],
      [
        "незаконны",
        -10.107260739995027
      ],
      [
        "ообще",
        -10.107784056552662
      ],
      [
        "помещений",
        -10.109457673790589
      ],
      [
        "случивше",
        -10.10965269565876
      ],
      [
        "сербов",
        -10.109882642192712
      ],
      [
        "следователе",
        -10.110800251858818
      ],
      [
        "участк",
        -10.111145030560508
      ],
      [
        "вторы",
        -10.111494302730488
      ],
      [
        "дальне",
        -10.111901625592388
      ],
      [
        "вероятност",
        -10.11195258001142
      ],
      [
        "нных",
        -10.112168630961802
      ],
      [
        "гигант",
        -10.112328558891699
      ],
      [
        "коф",
        -10.112615881131763
      ],
      [
        "элемент",
        -10.11282554552299
      ],
      [
        "открыт",
        -10.112832306821867
      ],
      [
        "выкупа",
        -10.112996511540647
      ],
      [
        "покушение",
        -10.113346039820698
      ],
      [
        "третьем",
        -10.113805755164428
      ],
      [
        "отменен",
        -10.114387828520536
      ],
      [
        "бригад",
        -10.114637355496116
      ],
      [
        "коллеги",
        -10.114955337447618
      ],
      [
        "at",
        -10.115224774412049
      ],
      [
        "демонстрации",
        -10.115582326990898
      ],
      [
        "испытания",
        -10.116565741175236
      ],
      [
        "бо",
        -10.11694879681697
      ],
      [
        "цк",
        -10.117140625748604
      ],
      [
        "приговор",
        -10.117450254837816
      ],
      [
        "ливан",
        -10.117854160864182
      ],
      [
        "селени",
        -10.117891163304662
      ],
      [
        "овский",
        -10.119065253088012
      ],
      [
        "аль",
        -10.119736981725408
      ],
      [
        "массовых",
        -10.120752910299608
      ],
      [
        "убийства",
        -10.120994091035328
      ],
      [
        "главным",
        -10.121019593237484
      ],
      [
        "вред",
        -10.121121706310426
      ],
      [
        "академии",
        -10.121662802225831
      ],
      [
        "последствия",
        -10.12172374928464
      ],
      [
        "намерения",
        -10.123110601886983
      ],
      [
        "писател",
        -10.123119482909425
      ],
      [
        "похищен",
        -10.123964926420033
      ],
      [
        "целы",
        -10.124022038515164
      ],
      [
        "пре",
        -10.125214528390547
      ],
      [
        "ограничения",
        -10.125561372285349
      ],
      [
        "территори",
        -10.12558864324129
      ],
      [
        "пассажирски",
        -10.126031383579232
      ],
      [
        "предъявлен",
        -10.127261118851038
      ],
      [
        "открыты",
        -10.13028230704621
      ],
      [
        "юрист",
        -10.130379194336772
      ],
      [
        "зона",
        -10.131182442430498
      ],
      [
        "госсекретар",
        -10.131284850117744
      ],
      [
        "жа",
        -10.13342340170336
      ],
      [
        "владивосток",
        -10.133437231387346
      ],
      [
        "ou",
        -10.13373264299916
      ],
      [
        "sol",
        -10.134371541429534
      ],
      [
        "инициативе",
        -10.134840869129441
      ],
      [
        "обеи",
        -10.135294353861417
      ],
      [
        "порт",
        -10.135802820610966
      ],
      [
        "применени",
        -10.135838260161439
      ],
      [
        "увеличивает",
        -10.136732995441971
      ],
      [
        "зна",
        -10.137409134189937
      ],
      [
        "африк",
        -10.137749830792831
      ],
      [
        "данн",
        -10.138725430566161
      ],
      [
        "!",
        -10.139009320203044
      ],
      [
        "корея",
        -10.139515766623688
      ],
      [
        "полны",
        -10.139538059465195
      ],
      [
        "администраци",
        -10.140362169881175
      ],
      [
        "емся",
        -10.140731575608182
      ],
      [
        "фракци",
        -10.140914584243117
      ],
      [
        "электронны",
        -10.141122971401142
      ],
      [
        "втор",
        -10.141226680610721
      ],
      [
        "ons",
        -10.141800918824936
      ],
      [
        "называет",
        -10.142986844975876
      ],
      [
        "мат",
        -10.143142580139315
      ],
      [
        "люд",
        -10.143151896795098
      ],
      [
        "плохо",
        -10.14488694429233
      ],
      [
        "свидетельству",
        -10.145138121991607
      ],
      [
        "обнаружени",
        -10.145580914506825
      ],
      [
        "полномочия",
        -10.146508541031862
      ],
      [
        "нему",
        -10.146701596749384
      ],
      [
        "поступа",
        -10.147366806935292
      ],
      [
        "создает",
        -10.147590942565152
      ],
      [
        "поз",
        -10.147859981673617
      ],
      [
        "крупнейш",
        -10.14845499537009
      ],
      [
        "глаз",
        -10.148852254000426
      ],
      [
        "тонны",
        -10.14925399190486
      ],
      [
        "два",
        -10.149613841660125
      ],
      [
        "подход",
        -10.15089749307567
      ],
      [
        "лондонск",
        -10.151308561547625
      ],
      [
        "зим",
        -10.151369833944905
      ],
      [
        "красноярск",
        -10.151873159762618
      ],
      [
        "внутренне",
        -10.152001429166946
      ],
      [
        "десятк",
        -10.15288577276262
      ],
      [
        "андре",
        -10.153133746828022
      ],
      [
        "экономик",
        -10.153290840398242
      ],
      [
        "данно",
        -10.153645437955799
      ],
      [
        "разрушения",
        -10.15367929731407
      ],
      [
        "вячеслав",
        -10.153982381785507
      ],
      [
        "кор",
        -10.154127202469315
      ],
      [
        "строя",
        -10.154319511246484
      ],
      [
        "ряде",
        -10.154579669044347
      ],
      [
        "острова",
        -10.154707733570886
      ],
      [
        "посольств",
        -10.15501647267298
      ],
      [
        "осуществля",
        -10.155714731918273
      ],
      [
        "ms",
        -10.156248482172202
      ],
      [
        "эфир",
        -10.156450029090905
      ],
      [
        "польш",
        -10.156685712088874
      ],
      [
        "we",
        -10.156818256045817
      ],
      [
        "шаттл",
        -10.1569151352586
      ],
      [
        "рабоч",
        -10.15718509825529
      ],
      [
        "коллег",
        -10.15735582720749
      ],
      [
        "наличие",
        -10.15912136330827
      ],
      [
        "противо",
        -10.159132670078426
      ],
      [
        "нормально",
        -10.160427498883312
      ],
      [
        "боро",
        -10.161677753889062
      ],
      [
        "пилот",
        -10.16272159767496
      ],
      [
        "концерна",
        -10.164589334556469
      ],
      [
        "обе",
        -10.165147043400712
      ],
      [
        "китайски",
        -10.165612776095754
      ],
      [
        "никола",
        -10.166345895361278
      ],
      [
        "остава",
        -10.166470220933231
      ],
      [
        "решении",
        -10.166640782222801
      ],
      [
        "причинам",
        -10.167293969233416
      ],
      [
        "меньше",
        -10.16752673469152
      ],
      [
        "способны",
        -10.16756850333268
      ],
      [
        "ближайше",
        -10.168003700217298
      ],
      [
        "перевоз",
        -10.168470892216732
      ],
      [
        "ющие",
        -10.168608292391006
      ],
      [
        "китае",
        -10.168853860183262
      ],
      [
        "случи",
        -10.169793915348642
      ],
      [
        "после",
        -10.169877839845467
      ],
      [
        "нанесен",
        -10.171904100319203
      ],
      [
        "республик",
        -10.172545993545077
      ],
      [
        "общество",
        -10.172987140866539
      ],
      [
        "водо",
        -10.173038078698916
      ],
      [
        "стен",
        -10.173887519381978
      ],
      [
        "гиб",
        -10.174078087065729
      ],
      [
        "меж",
        -10.174112922764003
      ],
      [
        "мирно",
        -10.176917919155791
      ],
      [
        "акция",
        -10.177003282351954
      ],
      [
        "чи",
        -10.177435183392605
      ],
      [
        "командир",
        -10.177530322210728
      ],
      [
        "кова",
        -10.178780457625486
      ],
      [
        "bene",
        -10.178920822156408
      ],
      [
        "оборон",
        -10.178951513910818
      ],
      [
        "предназначен",
        -10.179431546954497
      ],
      [
        "атак",
        -10.179874034621724
      ],
      [
        "террористически",
        -10.180519954068485
      ],
      [
        "автономно",
        -10.180739354551834
      ],
      [
        "ожидает",
        -10.181381727044245
      ],
      [
        "агресси",
        -10.183833607388054
      ],
      [
        "ук",
        -10.183971468003719
      ],
      [
        "налога",
        -10.184008260850936
      ],
      [
        "акт",
        -10.184199999109135
      ],
      [
        "сотрудник",
        -10.185169645749266
      ],
      [
        "зависимост",
        -10.18555657370185
      ],
      [
        "br",
        -10.18600245611462
      ],
      [
        "миграционно",
        -10.186233431047954
      ],
      [
        "обеспокоен",
        -10.186453415497677
      ],
      [
        "значит",
        -10.18646705326245
      ],
      [
        "intern",
        -10.186501753447484
      ],
      [
        "6",
        -10.186526566406718
      ],
      [
        "»",
        -10.186589233388231
      ],
      [
        "«",
        -10.186589233388231
      ],
      [
        "налогоплательщик",
        -10.186589233388267
      ],
      [
        "эксперимент",
        -10.186589234206313
      ],
      [
        "ботлихско",
        -10.186589235518415
      ],
      [
        "патрушев",
        -10.186589237626034
      ],
      [
        "world",
        -10.186589238609546
      ],
      [
        "транзакци",
        -10.18658924764604
      ],
      [
        "хачилаев",
        -10.186589251317614
      ],
      [
        "соболезновани",
        -10.18658926670572
      ],
      [
        "диктатор",
        -10.186589273408156
      ],
      [
        "таиланд",
        -10.186590155094965
      ],
      [
        "протяжен",
        -10.18659368034088
      ],
      [
        "литератур",
        -10.186595237819416
      ],
      [
        "одномандатн",
        -10.186595459957328
      ],
      [
        "предприниматель",
        -10.186604972095584
      ],
      [
        "пенсионер",
        -10.18660563061746
      ],
      [
        "пекин",
        -10.186615848249684
      ],
      [
        "повестк",
        -10.186617536911408
      ],
      [
        "прогремел",
        -10.186618434588421
      ],
      [
        "возврат",
        -10.186622304732893
      ],
      [
        "поручил",
        -10.186633043785402
      ],
      [
        "блэр",
        -10.18665132786176
      ],
      [
        "finan",
        -10.18665885707718
      ],
      [
        "bar",
        -10.18668595371494
      ],
      [
        "павел",
        -10.186689148638642
      ],
      [
        "полутора",
        -10.186691360695944
      ],
      [
        "заверил",
        -10.18671348096227
      ],
      [
        "примет",
        -10.186785835874442
      ],
      [
        "селения",
        -10.18679926216571
      ],
      [
        "противоракетн",
        -10.186825274304308
      ],
      [
        "лома",
        -10.186835531475666
      ],
      [
        "подготовить",
        -10.186851620423022
      ],
      [
        "вер",
        -10.18687851093043
      ],
      [
        "перемен",
        -10.186978173947548
      ],
      [
        "существовани",
        -10.186988420244049
      ],
      [
        "обеспечивающи",
        -10.187029314583222
      ],
      [
        "выступит",
        -10.18714251587241
      ],
      [
        "прибор",
        -10.187169930409832
      ],
      [
        "шеф",
        -10.18744812694682
      ],
      [
        "летчик",
        -10.187524779212184
      ],
      [
        "билет",
        -10.187569247615006
      ],
      [
        "позволил",
        -10.18761030693045
      ],
      [
        "возглавляе",
        -10.187632749979723
      ],
      [
        "скорост",
        -10.187669455604308
      ],
      [
        "собственност",
        -10.187680560408497
      ],
      [
        "отмен",
        -10.187905663676277
      ],
      [
        "томас",
        -10.187948584393494
      ],
      [
        "вторжения",
        -10.187965168725963
      ],
      [
        "san",
        -10.187966663177729
      ],
      [
        "численность",
        -10.188110478770877
      ],
      [
        "основатель",
        -10.18821622095991
      ],
      [
        "пропал",
        -10.18840372445123
      ],
      [
        "предложению",
        -10.188455792950313
      ],
      [
        "российскую",
        -10.18848107449148
      ],
      [
        "укреплени",
        -10.188491239959147
      ],
      [
        "учения",
        -10.188591163493765
      ],
      [
        "арестовал",
        -10.188592565718288
      ],
      [
        "приговорен",
        -10.188658628232343
      ],
      [
        "верх",
        -10.188899251166639
      ],
      [
        "выиграл",
        -10.189084497347622
      ],
      [
        "емых",
        -10.189339620751607
      ],
      [
        "находк",
        -10.189390451789103
      ],
      [
        "сергеев",
        -10.189488412618799
      ],
      [
        "флаг",
        -10.189643056078836
      ],
      [
        "убийств",
        -10.189885130903178
      ],
      [
        "писатель",
        -10.190356066295372
      ],
      [
        "исключительно",
        -10.190751324315263
      ],
      [
        "мся",
        -10.191083002246547
      ],
      [
        "отказ",
        -10.191381813347355
      ],
      [
        "отметк",
        -10.191638829259887
      ],
      [
        "разбил",
        -10.191828454930507
      ],
      [
        "дежур",
        -10.19226972639487
      ],
      [
        "связям",
        -10.192295591534718
      ],
      [
        "захватил",
        -10.192464536241108
      ],
      [
        "болезнь",
        -10.192689957301909
      ],
      [
        "выдвижени",
        -10.192753881264743
      ],
      [
        "изменить",
        -10.193158105800931
      ],
      [
        "ny",
        -10.193278625421343
      ],
      [
        "возглавит",
        -10.193851684240125
      ],
      [
        "проживающи",
        -10.193910940946527
      ],
      [
        "повышения",
        -10.19393405404114
      ],
      [
        "похоже",
        -10.193964836859056
      ],
      [
        "общая",
        -10.194196774692829
      ],
      [
        "соседне",
        -10.19451087905556
      ],
      [
        "расходов",
        -10.19461462703678
      ],
      [
        "мобильны",
        -10.19484865844014
      ],
      [
        "занимают",
        -10.194994531491862
      ],
      [
        "интересам",
        -10.195196745299958
      ],
      [
        "елена",
        -10.1953905799617
      ],
      [
        "думу",
        -10.195407547822677
      ],
      [
        "построен",
        -10.195647565895387
      ],
      [
        "принятие",
        -10.19605035692463
      ],
      [
        "ценност",
        -10.196250383015947
      ],
      [
        "килограммов",
        -10.196459924617532
      ],
      [
        "яблоко",
        -10.1968869013021
      ],
      [
        "блокирован",
        -10.197128706094368
      ],
      [
        "третий",
        -10.197231080401645
      ],
      [
        "преступников",
        -10.197515164002617
      ],
      [
        "расположенно",
        -10.19851278308577
      ],
      [
        "эффективност",
        -10.198514499591479
      ],
      [
        "кино",
        -10.19907064105696
      ],
      [
        "море",
        -10.199207513578884
      ],
      [
        "тан",
        -10.199210489248697
      ],
      [
        "авиакомпании",
        -10.199270197283298
      ],
      [
        "наблюдени",
        -10.199615607409072
      ],
      [
        "заключенны",
        -10.199674543457297
      ],
      [
        "ныне",
        -10.199682924242321
      ],
      [
        "следственн",
        -10.200379953801697
      ],
      [
        "индонезийско",
        -10.200799540466008
      ],
      [
        "провод",
        -10.202290550936079
      ],
      [
        "жириновск",
        -10.203006705444228
      ],
      [
        "lt",
        -10.203215129007459
      ],
      [
        "ева",
        -10.20357167866422
      ],
      [
        "автомобил",
        -10.204597743237446
      ],
      [
        "значение",
        -10.204668976470339
      ],
      [
        "тяжелы",
        -10.205183870460925
      ],
      [
        "таможн",
        -10.205329576996641
      ],
      [
        "йоркско",
        -10.205571452812618
      ],
      [
        "личност",
        -10.205678654750407
      ],
      [
        "содействие",
        -10.205943101325799
      ],
      [
        "публикация",
        -10.206360015516406
      ],
      [
        "расследовани",
        -10.206688707296825
      ],
      [
        "специального",
        -10.207866178156882
      ],
      [
        "ошибка",
[...]
