{
  "version": "1.0",
  "truncation": null,
  "padding": null,
  "added_tokens": [],
  "normalizer": null,
  "pre_tokenizer": {
    "type": "Whitespace"
  },
  "post_processor": null,
  "decoder": null,
  "model": {
    "type": "Unigram",
    "unk_id": 0,
    "vocab": [
      [
        "[UNK]",
        0.0
      ],
      [
        ",",
        -3.0823178559602926
      ],
      [
        "и",
        -3.353857354545033
      ],
      [
        ".",
        -3.492822238729252
      ],
      [
        "е",
        -3.498531706854438
      ],
      [
        "а",
        -3.633665706942736
      ],
      [
        "\"",
        -3.9875741727355845
      ],
      [
        "й",
        -4.016223474786393
      ],
      [
        "<",
        -4.233459798285704
      ],
      [
        "U",
        -4.235311007877039
      ],
      [
        "M",
        -4.238558893793778
      ],
      [
        "N",
        -4.238791289796566
      ],
      [
        "ы",
        -4.32173486051737
      ],
      [
        "-",
        -4.352130137106872
      ],
      [
        ">",
        -4.369091849414014
      ],
      [
        "х",
        -4.389781505789813
      ],
      [
        "м",
        -4.413436089507057
      ],
      [
        "у",
        -4.416901386711766
      ],
      [
        "я",
        -4.419143101214145
      ],
      [
        "ов",
        -4.682810916227473
      ],
      [
        "о",
        -4.742402210443233
      ],
      [
        "го",
        -5.1883378447244235
      ],
      [
        "ю",
        -5.225858420711753
      ],
      [
        "в",
        -5.249065885986477
      ],
      [
        "ся",
        -5.30084484613083
      ],
      [
        "с",
        -5.352743054295689
      ],
      [
        "ой",
        -5.431769430897349
      ],
      [
        "ом",
        -5.439351556851886
      ],
      [
        "ь",
        -5.570669810246789
      ],
      [
        "ть",
        -5.812395049889097
      ],
      [
        "\".",
        -5.835541198402846
      ],
      [
        "т",
        -5.916867284785285
      ],
      [
        "ого",
        -5.999795751913254
      ],
      [
        "на",
        -6.017415331855077
      ],
      [
        "не",
        -6.082241803281093
      ],
      [
        "ая",
        -6.100791366991134
      ],
      [
        "россии",
        -6.102999866571248
      ],
      [
        "ей",
        -6.141226265383662
      ],
      [
        "\",",
        -6.16061382046236
      ],
      [
        "ет",
        -6.227304175306238
      ],
      [
        "ую",
        -6.234733696069093
      ],
      [
        "л",
        -6.247899559833821
      ],
      [
        "к",
        -6.2785737769429435
      ],
      [
        "по",
        -6.325342227804331
      ],
      [
        "ми",
        -6.359578255280389
      ],
      [
        "за",
        -6.373852224015003
      ],
      [
        "также",
        -6.4713499597348
      ],
      [
        "(",
        -6.484346902610942
      ],
      [
        "года",
        -6.488393716188759
      ],
      [
        "ных",
        -6.488993220479413
      ],
      [
        "н",
        -6.493665934482658
      ],
      [
        "ами",
        -6.501567231076065
      ],
      [
        "сша",
        -6.528311291210174
      ],
      [
        "это",
        -6.5818183854019585
      ],
      [
        "заявил",
        -6.593274777169391
      ],
      [
        ")",
        -6.601863188088543
      ],
      [
        "ли",
        -6.606979788468284
      ],
      [
        "сообщает",
        -6.615843304706363
      ],
      [
        ":",
        -6.633006742128889
      ],
      [
        "г",
        -6.651128290912532
      ],
      [
        "человек",
        -6.664412358624578
      ],
      [
        "ется",
        -6.689577042290832
      ],
      [
        "время",
        -6.690889570745075
      ],
      [
        "ем",
        -6.726920053769578
      ],
      [
        "но",
        -6.732586173341903
      ],
      [
        "ф",
        -6.739524971393731
      ],
      [
        "ного",
        -6.755257137828354
      ],
      [
        "словам",
        -6.776542244577239
      ],
      [
        "сегодня",
        -6.778264181520662
      ],
      [
        "ок",
        -6.793495497669732
      ],
      [
        "новост",
        -6.807159429555855
      ],
      [
        "ной",
        -6.8084109177105905
      ],
      [
        "п",
        -6.81821266556482
      ],
      [
        "лись",
        -6.831878780238197
      ],
      [
        "ах",
        -6.864814763565137
      ],
      [
        "риа",
        -6.866214405822909
      ],
      [
        "рф",
        -6.915812206889048
      ],
      [
        "сообщил",
        -6.925220843104575
      ],
      [
        "ют",
        -6.932725417055429
      ],
      [
        "д",
        -6.941135239612072
      ],
      [
        "он",
        -6.953497638425733
      ],
      [
        "ых",
        -6.958704620707042
      ],
      [
        "долларов",
        -6.987593620363907
      ],
      [
        "тасс",
        -6.990840361388274
      ],
      [
        "s",
        -6.9955233461522175
      ],
      [
        "однако",
        -6.998176026628469
      ],
      [
        "про",
        -7.007569951061777
      ],
      [
        "итар",
        -7.0313342456493695
      ],
      [
        "пресс",
        -7.0316885068663515
      ],
      [
        "р",
        -7.03645901218124
      ],
      [
        "тысяч",
        -7.042500806818303
      ],
      [
        "ч",
        -7.049510437408614
      ],
      [
        "будут",
        -7.0626057164830485
      ],
      [
        "з",
        -7.062612869013586
      ],
      [
        ">-",
        -7.066358113076071
      ],
      [
        "которые",
        -7.116531624130497
      ],
      [
        "министр",
        -7.121751528756366
      ],
      [
        "ки",
        -7.138700558307413
      ],
      [
        "ла",
        -7.143131799620958
      ],
      [
        "того",
        -7.147699792434705
      ],
      [
        "из",
        -7.148099699595135
      ],
      [
        "ка",
        -7.149753353733501
      ],
      [
        ">%",
        -7.159777065957242
      ],
      [
        "вы",
        -7.164773945092771
      ],
      [
        "москве",
        -7.177385900075915
      ],
      [
        "от",
        -7.179008151180814
      ],
      [
        "ться",
        -7.179062407083953
      ],
      [
        "данным",
        -7.181792327174227
      ],
      [
        "ев",
        -7.182142516668882
      ],
      [
        "сентября",
        -7.182997063035095
      ],
      [
        "то",
        -7.18444015868642
      ],
      [
        "москвы",
        -7.197758842326519
      ],
      [
        "при",
        -7.203857664306979
      ],
      [
        "ни",
        -7.213846435663244
      ],
      [
        "c",
        -7.214491651379449
      ],
      [
        "около",
        -7.219020172315944
      ],
      [
        "миллион",
        -7.243198034830521
      ],
      [
        "ные",
        -7.254066715844982
      ],
      [
        "ым",
        -7.259311069378172
      ],
      [
        "a",
        -7.264864746806128
      ],
      [
        "году",
        -7.26668158093354
      ],
      [
        "информаци",
        -7.267779505039914
      ],
      [
        "лось",
        -7.275550491090774
      ],
      [
        "работ",
        -7.275572162838624
      ],
      [
        "связи",
        -7.282556291370386
      ],
      [
        "лет",
        -7.286012570762803
      ],
      [
        "президент",
        -7.290397867578055
      ],
      [
        "пол",
        -7.299452837625801
      ],
      [
        "лась",
        -7.306331218940694
      ],
      [
        "октябр",
        -7.313842252591832
      ],
      [
        "му",
        -7.32003678209366
      ],
      [
        "премьер",
        -7.3250794423232275
      ],
      [
        "результат",
        -7.328325570279822
      ],
      [
        "y",
        -7.350419741233623
      ],
      [
        "дел",
        -7.35246662451654
      ],
      [
        "ная",
        -7.372736146414218
      ],
      [
        "пока",
        -7.378073813390531
      ],
      [
        "компании",
        -7.380713159298572
      ],
      [
        "решение",
        -7.384954248327432
      ],
      [
        "d",
        -7.390875629242191
      ],
      [
        "президента",
        -7.411309900919367
      ],
      [
        "раз",
        -7.419970023078972
      ],
      [
        "против",
        -7.421583767961213
      ],
      [
        "правительства",
        -7.4223929160076185
      ],
      [
        "ра",
        -7.429925730165477
      ],
      [
        "ный",
        -7.439705423439351
      ],
      [
        "вопрос",
        -7.442039103424655
      ],
      [
        "сил",
        -7.442338065648116
      ],
      [
        "ш",
        -7.46770008757535
      ],
      [
        "ц",
        -7.472516673669779
      ],
      [
        "который",
        -7.472888497814239
      ],
      [
        "ло",
        -7.504681879999906
      ],
      [
        "ить",
        -7.517793432185813
      ],
      [
        "проблем",
        -7.521960557972864
      ],
      [
        "пере",
        -7.52365985403333
      ],
      [
        "том",
        -7.53396887086371
      ],
      [
        "ются",
        -7.538208014380915
      ],
      [
        "интернет",
        -7.540006995831904
      ],
      [
        "мнению",
        -7.5403300285539
      ],
      [
        "сказал",
        -7.551613869208093
      ],
      [
        "безопасности",
        -7.552702964710663
      ],
      [
        "взрыв",
        -7.553789761367007
      ],
      [
        "суд",
        -7.5567926157794485
      ],
      [
        "чечни",
        -7.5662732266583035
      ],
      [
        "ссылк",
        -7.568239090269262
      ],
      [
        "ской",
        -7.570810856411381
      ],
      [
        "лся",
        -7.572743584492101
      ],
      [
        "области",
        -7.576629824120262
      ],
      [
        "владимир",
        -7.578195149556815
      ],
      [
        "год",
        -7.582108259055622
      ],
      [
        "подчеркнул",
        -7.585155379845641
      ],
      [
        "ную",
        -7.586868196243657
      ],
      [
        "под",
        -7.590106267157422
      ],
      [
        "до",
        -7.591391225145398
      ],
      [
        "отметил",
        -7.592193528995197
      ],
      [
        "которых",
        -7.611912844023001
      ],
      [
        "территории",
        -7.614617631337912
      ],
      [
        "времен",
        -7.615796259966579
      ],
      [
        "об",
        -7.617931238491446
      ],
      [
        "депутат",
        -7.631919968982988
      ],
      [
        "цен",
        -7.632276455041337
      ],
      [
        "ельцин",
        -7.63246227633939
      ],
      [
        "документ",
        -7.637894706605417
      ],
      [
        "ным",
        -7.655312952326459
      ],
      [
        "б",
        -7.6581927850781
      ],
      [
        "та",
        -7.658846832241208
      ],
      [
        "путин",
        -7.66023666337685
      ],
      [
        "граждан",
        -7.665664595836291
      ],
      [
        "стран",
        -7.66738576661871
      ],
      [
        "закон",
        -7.667711364094785
      ],
      [
        "ко",
        -7.678615770543978
      ],
      [
        "мэр",
        -7.6844121686913045
      ],
      [
        "тем",
        -7.688382011096569
      ],
      [
        "является",
        -7.692127813927896
      ],
      [
        "города",
        -7.70796560711528
      ],
      [
        "российски",
        -7.708528396096243
      ],
      [
        "так",
        -7.716005769331155
      ],
      [
        "рубле",
        -7.719862496338872
      ],
      [
        "оон",
        -7.722893932741767
      ],
      [
        "енко",
        -7.723056868500196
      ],
      [
        "банка",
        -7.725281320532455
      ],
      [
        "несколько",
        -7.727098662835436
      ],
      [
        "российских",
        -7.73196940745579
      ],
      [
        "во",
        -7.735622707243783
      ],
      [
        "ен",
        -7.737483233465015
      ],
      [
        "кром",
        -7.752177080986616
      ],
      [
        "сред",
        -7.753822049847548
      ],
      [
        "ского",
        -7.762231149931249
      ],
      [
        "страны",
        -7.772348344550881
      ],
      [
        "со",
        -7.779262796804651
      ],
      [
        "сь",
        -7.802473507211923
      ],
      [
        "new",
        -7.808163107874048
      ],
      [
        "город",
        -7.810224711329494
      ],
      [
        "e",
        -7.815168715673656
      ],
      [
        "гу",
        -7.822746606397772
      ],
      [
        "вторник",
        -7.830860393744184
      ],
      [
        "лидер",
        -7.833116203606551
      ],
      [
        "республики",
        -7.83401140573003
      ],
      [
        "юри",
        -7.846612256864745
      ],
      [
        "милици",
        -7.847914210231031
      ],
      [
        "агентство",
        -7.85289197730134
      ],
      [
        "российской",
        -7.857438179336624
      ],
      [
        "bank",
        -7.865164824957136
      ],
      [
        "мвд",
        -7.872876457680846
      ],
      [
        "федеральны",
        -7.875177626428721
      ],
      [
        "акци",
        -7.883383986812659
      ],
      [
        "дело",
        -7.883721493712209
      ],
      [
        "мин",
        -7.885980672300439
      ],
      [
        "службы",
        -7.887883952202943
      ],
      [
        "стороны",
        -7.890052665255975
      ],
      [
        "министра",
        -7.891343333984295
      ],
      [
        "ре",
        -7.891830935063706
      ],
      [
        "частност",
        -7.892688213998325
      ],
      [
        "оста",
        -7.893527107827848
      ],
      [
        "сообщили",
        -7.894274689439663
      ],
      [
        "правительство",
        -7.8955939458113775
      ],
      [
        "бр",
        -7.896986902942601
      ],
      [
        "пред",
        -7.900575592461366
      ],
      [
        "ый",
        -7.9005917419094835
      ],
      [
        "правоохранительн",
        -7.900723963385293
      ],
      [
        "считает",
        -7.900820150669779
      ],
      [
        "p",
        -7.9098819699644745
      ],
      [
        "вести",
        -7.909921464723633
      ],
      [
        "власти",
        -7.914292311546968
      ],
      [
        "ж",
        -7.915017661023524
      ],
      [
        "получил",
        -7.919177534493779
      ],
      [
        "обороны",
        -7.921402777682594
      ],
      [
        "t",
        -7.921624890212119
      ],
      [
        "счет",
        -7.924798843839384
      ],
      [
        "ork",
        -7.928281810620149
      ],
      [
        "дене",
        -7.936119047031357
      ],
      [
        "операци",
        -7.944111981001444
      ],
      [
        "двух",
        -7.947026753714006
      ],
      [
        "дагестан",
        -7.949833517399243
      ],
      [
        "директор",
        -7.959798184343674
      ],
      [
        "i",
        -7.9612974917683035
      ],
      [
        "ряд",
        -7.964946423668876
      ],
      [
        "россия",
        -7.966360087795155
      ],
      [
        "сти",
        -7.9718485865639135
      ],
      [
        "четверг",
        -7.976103345685341
      ],
      [
        "могут",
        -7.976372979148566
      ],
      [
        "проект",
        -7.976644958859584
      ],
      [
        "согласно",
        -7.976686958411452
      ],
      [
        "миллиард",
        -7.978337299100907
      ],
      [
        "управления",
        -7.978944153731089
      ],
      [
        "дома",
        -7.979923622789611
      ],
      [
        "ном",
        -7.982907297110184
      ],
      [
        "пор",
        -7.990776390959169
      ],
      [
        "которая",
        -7.995582881434202
      ],
      [
        "па",
        -8.003677477916591
      ],
      [
        "глава",
        -8.004736261668393
      ],
      [
        "пример",
        -8.00614043799559
      ],
      [
        "средств",
        -8.007036688517685
      ],
      [
        "действия",
        -8.009531647227133
      ],
      [
        "ходе",
        -8.01097119829285
      ],
      [
        "самолет",
        -8.015360268246072
      ],
      [
        "помощь",
        -8.015681984375634
      ],
      [
        "понедельник",
        -8.015682039421307
      ],
      [
        "газет",
        -8.02006827890901
      ],
      [
        "of",
        -8.027598198496927
      ],
      [
        "свое",
        -8.032993271461716
      ],
      [
        "последни",
        -8.034173720670925
      ],
      [
        "представитель",
        -8.034567848725167
      ],
      [
        "ру",
        -8.036010773054247
      ],
      [
        "обще",
        -8.038719855963127
      ],
      [
        "намерен",
        -8.043615200367146
      ],
      [
        "лужков",
        -8.046648947352569
      ],
      [
        "что",
        -8.049183753979165
      ],
      [
        "течение",
        -8.049595762144193
      ],
      [
        "банк",
        -8.049977748701203
      ],
      [
        "ку",
        -8.050636510049907
      ],
      [
        "настоящее",
        -8.051027314672009
      ],
      [
        "александр",
        -8.051530145773821
      ],
      [
        "российского",
        -8.0523171714778
      ],
      [
        "щ",
        -8.054032851290739
      ],
      [
        "э",
        -8.054284760227311
      ],
      [
        "других",
        -8.057286156752632
      ],
      [
        "ит",
        -8.05755700021896
      ],
      [
        "мв",
        -8.062625706112044
      ],
      [
        "люде",
        -8.065156391381134
      ],
      [
        "эти",
        -8.07210029491266
      ],
      [
        "дела",
        -8.072755340331046
      ],
      [
        "совета",
        -8.076684502730961
      ],
      [
        "ранее",
        -8.079048970012611
      ],
      [
        "ями",
        -8.08684964509472
      ],
      [
        "корреспондент",
        -8.089399312767943
      ],
      [
        "мене",
        -8.090732760424387
      ],
      [
        "случае",
        -8.102136025998485
      ],
      [
        "начал",
        -8.107563254323896
      ],
      [
        "борьб",
        -8.108983023798206
      ],
      [
        "генерал",
        -8.110427546411128
      ],
      [
        "де",
        -8.111553669109579
      ],
      [
        "полици",
        -8.111729651947616
      ],
      [
        "фсб",
        -8.111885028503325
      ],
      [
        "глав",
        -8.115009235660544
      ],
      [
        "систем",
        -8.117745942371627
      ],
      [
        "ст",
        -8.120088409264135
      ],
      [
        "переговор",
        -8.122735828296882
      ],
      [
        "компания",
        -8.123266489567971
      ],
      [
        "ят",
        -8.124619434267931
      ],
      [
        "ния",
        -8.132834113422984
      ],
      [
        "отношени",
        -8.133397544649574
      ],
      [
        "представители",
        -8.134108725955269
      ],
      [
        "же",
        -8.136968561873747
      ],
      [
        "среди",
        -8.140293525288712
      ],
      [
        "своих",
        -8.145218865353698
      ],
      [
        "поскольку",
        -8.145592837636464
      ],
      [
        "участие",
        -8.146053078228782
      ],
      [
        "тся",
        -8.149704946854108
      ],
      [
        "финансов",
        -8.154077254218212
      ],
      [
        "председатель",
        -8.158164134628297
      ],
      [
        "боевиков",
        -8.160001536892656
      ],
      [
        "либо",
        -8.16138783338977
      ],
      [
        "день",
        -8.163819811289809
      ],
      [
        "первый",
        -8.172667072010091
      ],
      [
        "района",
        -8.178477321960205
      ],
      [
        "вице",
        -8.180813287854978
      ],
      [
        "многи",
        -8.180904261870625
      ],
      [
        "конференции",
        -8.190340120722846
      ],
      [
        "срок",
        -8.191684021876638
      ],
      [
        "тимор",
        -8.193489522012193
      ],
      [
        "дня",
        -8.196079627447507
      ],
      [
        "оказа",
        -8.196780947039475
      ],
      [
        "улиц",
        -8.197548116566438
      ],
      [
        "числе",
        -8.19861685004571
      ],
      [
        "населени",
        -8.202614321675473
      ],
      [
        "пятниц",
        -8.205135810407487
      ],
      [
        "лишь",
        -8.207183678761194
      ],
      [
        "ба",
        -8.21141373186867
      ],
      [
        "центра",
        -8.211900189552924
      ],
      [
        "ать",
        -8.213797524894979
      ],
      [
        "взрыва",
        -8.216552488367354
      ],
      [
        "вмест",
        -8.21711165207678
      ],
      [
        "федерации",
        -8.219115859949238
      ],
      [
        "районе",
        -8.224208195917878
      ],
      [
        "котором",
        -8.225208707555089
      ],
      [
        "известно",
        -8.22521901523924
      ],
      [
        "источник",
        -8.228946292382549
      ],
      [
        "да",
        -8.228999105461654
      ],
      [
        "политик",
        -8.229890232190968
      ],
      [
        "жителей",
        -8.230032921843982
      ],
      [
        "беженцев",
        -8.230078416176257
      ],
      [
        "дом",
        -8.23026459494501
      ],
      [
        "часов",
        -8.234495401701157
      ],
      [
        "ник",
        -8.23831516775266
      ],
      [
        "министерства",
        -8.240392745616292
      ],
      [
        "интерфакс",
        -8.242643450080957
      ],
      [
        "прав",
        -8.246185902253389
      ],
      [
        "al",
        -8.253698611391021
      ],
      [
        "руководство",
        -8.255457946825747
      ],
      [
        "внутренних",
        -8.256059148559704
      ],
      [
        "которой",
        -8.259584439161292
      ],
      [
        "ар",
        -8.260674922599314
      ],
      [
        "деньг",
        -8.263467084636194
      ],
      [
        "свои",
        -8.266408233579927
      ],
      [
        "причин",
        -8.267900963042852
      ],
      [
        "r",
        -8.274179628070737
      ],
      [
        "рас",
        -8.278580621247393
      ],
      [
        "ти",
        -8.28091613330049
      ],
      [
        "часть",
        -8.286331449735506
      ],
      [
        "ны",
        -8.287474789135427
      ],
      [
        "ное",
        -8.290969602452233
      ],
      [
        "войск",
        -8.292301049921015
      ],
      [
        "должны",
        -8.292596363249348
      ],
      [
        "ская",
        -8.297494595797483
      ],
      [
        "как",
        -8.298286356519327
      ],
      [
        "обнаружен",
        -8.298853938390252
      ],
      [
        "данны",
        -8.303119937766251
      ],
      [
        "нового",
        -8.305855293348948
      ],
      [
        "состав",
        -8.307051576289538
      ],
      [
        "государства",
        -8.307443071845993
      ],
      [
        "ри",
        -8.30797652369348
      ],
      [
        "которого",
        -8.308450245107025
      ],
      [
        "должен",
        -8.321228141895055
      ],
      [
        "совет",
        -8.322065872793853
      ],
      [
        "органов",
        -8.323270584994878
      ],
      [
        "те",
        -8.325442015026937
      ],
      [
        "ков",
        -8.328540841061177
      ],
      [
        "системы",
        -8.330351634100232
      ],
      [
        "министерство",
        -8.330565080109842
      ],
      [
        "задержан",
        -8.334471164782336
      ],
      [
        "интервью",
        -8.336037313638734
      ],
      [
        "михаил",
        -8.336038504813931
      ],
      [
        "размер",
        -8.336496161960458
      ],
      [
        "удар",
        -8.338993532179286
      ],
      [
        "счета",
        -8.339325088612783
      ],
      [
        "ными",
        -8.340968109409264
      ],
      [
        "новый",
        -8.347607349090167
      ],
      [
        "всем",
        -8.347970526660003
      ],
      [
        "n",
        -8.348181100647885
      ],
      [
        "эксперт",
        -8.348821308039174
      ],
      [
        "столиц",
        -8.349302175108653
      ],
      [
        "вших",
        -8.350302139174008
      ],
      [
        "нью",
        -8.356680622349318
      ],
      [
        "первы",
        -8.35920730902604
      ],
      [
        "иностранны",
        -8.359408742217115
      ],
      [
        "нет",
        -8.360540846437097
      ],
      [
        "программ",
        -8.361586133750151
      ],
      [
        "га",
        -8.362702948342495
      ],
      [
        "практическ",
        -8.364407443344955
      ],
      [
        "заместитель",
        -8.3644075351672
      ],
      [
        "военных",
        -8.364729115084659
      ],
      [
        "g",
        -8.36960521119148
      ],
      [
        "ском",
        -8.370129949940397
      ],
      [
        "компьютер",
        -8.370166180728381
      ],
      [
        "ках",
        -8.372063860993276
      ],
      [
        "газета",
        -8.374450054965138
      ],
      [
        "центре",
        -8.375836939906023
      ],
      [
        "би",
        -8.37666208717622
      ],
      [
        "ан",
        -8.377733593591392
      ],
      [
        "образо",
        -8.38227650395147
      ],
      [
        "петербург",
        -8.382330089556124
      ],
      [
        "регистрации",
        -8.385887865760719
      ],
      [
        "лен",
        -8.386671132304421
      ],
      [
        "погибли",
        -8.39148059821515
      ],
      [
        "мер",
        -8.391721433595897
      ],
      [
        "палат",
        -8.392311880541996
      ],
      [
        "u",
        -8.392439258075417
      ],
      [
        "тел",
        -8.392633750090415
      ],
      [
        "косово",
        -8.393607514169183
      ],
      [
        "другие",
        -8.394108551115911
      ],
      [
        "имеет",
        -8.395932203471922
      ],
      [
        "бы",
        -8.396316868730175
      ],
      [
        "спис",
        -8.397703157480489
      ],
      [
        "южно",
        -8.398100921218468
      ],
      [
        "эта",
        -8.399643947935914
      ],
      [
        "b",
        -8.402718764232485
      ],
      [
        "действи",
        -8.403641719497884
      ],
      [
        "стал",
        -8.404557093150657
      ],
      [
        "месте",
        -8.408340609704137
      ],
      [
        "удалось",
        -8.408548810834521
      ],
      [
        "находится",
        -8.408613014221833
      ],
      [
        "ому",
        -8.408773992482534
      ],
      [
        "ком",
        -8.41099202473576
      ],
      [
        "борис",
        -8.411886123685516
      ],
      [
        "бывший",
        -8.41309819170364
      ],
      [
        "ль",
        -8.413544141563172
      ],
      [
        "ос",
        -8.414191147802331
      ],
      [
        "энерго",
        -8.414350976751805
      ],
      [
        "дагестане",
        -8.416068552869975
      ],
      [
        "федеральн",
        -8.417136525055774
      ],
      [
        "мы",
        -8.419136644262135
      ],
      [
        "h",
        -8.421575508934207
      ],
      [
        "жизн",
        -8.423183791997563
      ],
      [
        "произошл",
        -8.423683990640868
      ],
      [
        "m",
        -8.430492521324958
      ],
      [
        "августа",
        -8.430704839406893
      ],
      [
        "стало",
        -8.431329116420065
      ],
      [
        "возможно",
        -8.431632515212833
      ],
      [
        "работа",
        -8.432832233042216
      ],
      [
        "военно",
        -8.433834815482538
      ],
      [
        "пост",
        -8.435970965935358
      ],
      [
        "великобритани",
        -8.439067581395044
      ],
      [
        "американских",
        -8.439157012238743
      ],
      [
        "вод",
        -8.439877696877385
      ],
      [
        "теракт",
        -8.439942065181757
      ],
      [
        "руководител",
        -8.44092576622971
      ],
      [
        "ранены",
        -8.442175316234152
      ],
      [
        "новой",
        -8.442484602291994
      ],
      [
        "план",
        -8.44300225059714
      ],
      [
        "штат",
        -8.44768281987855
      ],
      [
        "бо",
        -8.450379545964203
      ],
      [
        "зад",
        -8.452070965858356
      ],
      [
        "f",
        -8.454651640167633
      ],
      [
        "ке",
        -8.454947113891844
      ],
      [
        "составляет",
        -8.454970283006649
      ],
      [
        "считают",
        -8.455213153380939
      ],
      [
        "арми",
        -8.457397559382215
      ],
      [
        "главы",
        -8.457624793045898
      ],
      [
        "центр",
        -8.459842140781014
      ],
      [
        "ин",
        -8.461980940932403
      ],
      [
        "организаци",
        -8.464021585327714
      ],
      [
        "суда",
        -8.465898104721084
      ],
      [
        "вер",
        -8.47062342676007
      ],
      [
        "меры",
        -8.471149357419685
      ],
      [
        "член",
        -8.47313589792849
      ],
      [
        "сотрудников",
        -8.47325107292949
      ],
      [
        "начальник",
        -8.476009213847057
      ],
      [
        "вд",
        -8.477582506781175
      ],
      [
        "украин",
        -8.478731424577086
      ],
      [
        "кон",
        -8.47895281679921
      ],
      [
        "госдумы",
        -8.479239639065671
      ],
      [
        "нато",
        -8.481000176495522
      ],
      [
        "служб",
        -8.483006898668112
      ],
      [
        "пункт",
        -8.486193520602564
      ],
      [
        "воскресень",
        -8.486694629459965
      ],
      [
        "номер",
        -8.490955272075372
      ],
      [
        "сторон",
        -8.491029397382494
      ],
      [
        "место",
        -8.495915613294713
      ],
      [
        "рам",
        -8.497753075645214
      ],
      [
        "материал",
        -8.501129066671073
      ],
      [
        "оружи",
        -8.501228634735387
      ],
      [
        "деятельности",
        -8.502961372960472
      ],
      [
        "помощи",
        -8.503088640657362
      ],
      [
        "число",
        -8.50462059566208
      ],
      [
        "движени",
        -8.50663915138351
      ],
      [
        "нов",
        -8.510267834369321
      ],
      [
        "или",
        -8.513583619442858
      ],
      [
        "мира",
        -8.515252662797412
      ],
      [
        "ля",
        -8.515515543439193
      ],
      [
        "миллиарда",
        -8.515528688392306
      ],
      [
        "право",
        -8.516161279849065
      ],
      [
        "сайт",
        -8.518085563433221
      ],
      [
        "одного",
        -8.518978068901234
      ],
      [
        "именно",
        -8.519896817870759
      ],
      [
        "объявил",
        -8.52142131627884
      ],
      [
        "очеред",
        -8.522645179117909
      ],
      [
        "тех",
        -8.523068657313836
      ],
      [
        "стать",
        -8.52333548261081
      ],
      [
        "журналистам",
        -8.524900226515115
      ],
      [
        "установлен",
        -8.532467168041524
      ],
      [
        "своей",
        -8.532701738499313
      ],
      [
        "производств",
        -8.533060443774456
      ],
      [
        "предполагает",
        -8.533962126390179
      ],
      [
        "лиц",
        -8.536325154144986
      ],
      [
        "представителе",
        -8.536599340322901
      ],
      [
        "перв",
        -8.537342003562678
      ],
      [
        "группа",
        -8.539784527486836
      ],
      [
        "виктор",
        -8.543532305711212
      ],
      [
        "телефон",
        -8.54387615219068
      ],
      [
        "необходимо",
        -8.544299382623606
      ],
      [
        "чи",
        -8.546034065282939
      ],
      [
        "все",
        -8.546397053180577
      ],
      [
        "нт",
        -8.54754846409789
      ],
      [
        "миллиона",
        -8.550651754961983
      ],
      [
        "цев",
        -8.551929240023892
      ],
      [
        "мест",
        -8.552435085434901
      ],
      [
        "доход",
        -8.553585003113955
      ],
      [
        "вид",
        -8.554244774257192
      ],
      [
        "групп",
        -8.554762694453075
      ],
      [
        "x",
        -8.557316963957218
      ],
      [
        "ши",
        -8.56151486174631
      ],
      [
        "гор",
        -8.56195398702533
      ],
      [
        "готов",
        -8.565206458427298
      ],
      [
        "ский",
        -8.567194243230704
      ],
      [
        "говорит",
        -8.567567350802879
      ],
      [
        "блока",
        -8.570343847792348
      ],
      [
        "клинтон",
        -8.571489138214822
      ],
      [
        "месяце",
        -8.571505353209957
      ],
      [
        "никаких",
        -8.572062766399975
      ],
      [
        "продаж",
        -8.572952865663652
      ],
      [
        "жа",
        -8.573153454128807
      ],
      [
        "ностью",
        -8.573696394432535
      ],
      [
        "стране",
        -8.575668022520897
      ],
      [
        "начала",
        -8.576578149827196
      ],
      [
        "запад",
        -8.576594158862246
      ],
      [
        "фонда",
        -8.577121276483123
      ],
      [
        "технологи",
        -8.578418150524076
      ],
      [
        "рек",
        -8.578527779417396
      ],
      [
        "люди",
        -8.57882055043936
      ],
      [
        "нг",
        -8.580598946823997
      ],
      [
        "участник",
        -8.581032193651929
      ],
      [
        "одной",
        -8.581577555836201
      ],
      [
        "сут",
        -8.581758681098659
      ],
      [
        "сотрудники",
        -8.582725517813403
      ],
      [
        "сми",
        -8.585030448720056
      ],
      [
        "сообщила",
        -8.585094152155921
      ],
      [
        "домов",
        -8.58542703186174
      ],
      [
        "o",
        -8.587062767975633
      ],
      [
        "сумм",
        -8.587328788574636
      ],
      [
        "карачаев",
        -8.589346582340683
      ],
      [
        "очень",
        -8.589360765855695
      ],
      [
        "вечером",
        -8.590619831411816
      ],
      [
        "места",
        -8.591407038487151
      ],
      [
        "нефт",
        -8.594183291619611
      ],
      [
        "контрол",
        -8.599456894711077
      ],
      [
        "которое",
        -8.601863386350114
      ],
      [
        "ответ",
        -8.602591966460897
      ],
      [
        "теле",
        -8.604093081101201
      ],
      [
        "которым",
        -8.605011043903106
      ],
      [
        "этим",
        -8.605895186802805
      ],
      [
        "скандал",
        -8.607333068631176
      ],
      [
        "соответстви",
        -8.607528091316523
      ],
      [
        "комплекс",
        -8.607528091326897
      ],
      [
        "франци",
        -8.607529991979872
      ],
      [
        "цель",
        -8.607967156042438
      ],
      [
        "трех",
        -8.607985426827996
      ],
      [
        "блок",
        -8.608315117363688
      ],
      [
        "объем",
        -8.609066663984002
      ],
      [
        "средства",
        -8.612069904978334
      ],
      [
        "кандидатов",
        -8.61217352202959
      ],
      [
        "силы",
        -8.61378615569662
      ],
      [
        "газ",
        -8.61585323677679
      ],
      [
        "комитета",
        -8.615902084994783
      ],
      [
        "ние",
        -8.618111421445763
      ],
      [
        "стали",
        -8.618128807499051
      ],
      [
        "организации",
        -8.620524264381853
      ],
      [
        "группы",
        -8.621814474724303
      ],
      [
        "жил",
        -8.622014483234482
      ],
      [
        "мир",
        -8.624413042108483
      ],
      [
        "объявлен",
        -8.626056497528726
      ],
      [
        "минут",
        -8.626436531563517
      ],
      [
        "части",
        -8.62815058488097
      ],
      [
        "али",
        -8.629547743580247
      ],
      [
        "машин",
        -8.633525337802034
      ],
      [
        "здания",
        -8.63572695523308
      ],
      [
        "тр",
        -8.636106150989953
      ],
      [
        "бомб",
        -8.636557528364694
      ],
      [
        "количество",
        -8.640166437193948
      ],
      [
        "местны",
        -8.641795001136416
      ],
      [
        "главно",
        -8.642560940865053
      ],
      [
        "ман",
        -8.642658306478143
      ],
      [
        "сел",
        -8.64283695333883
      ],
      [
        "ро",
        -8.643373263063882
      ],
      [
        "кавказ",
        -8.644897903610746
      ],
      [
        "times",
        -8.644914534342739
      ],
      [
        "скуратов",
        -8.644914544209179
      ],
      [
        "адвокат",
        -8.644914553223733
      ],
      [
        "собира",
        -8.644915252318247
      ],
      [
        "адрес",
        -8.644920954517085
      ],
      [
        "погибши",
        -8.644993790579289
      ],
      [
        "агентства",
        -8.645865753310131
      ],
      [
        "стро",
        -8.646928058728566
      ],
      [
        "процентов",
        -8.647865043557857
      ],
      [
        "et",
        -8.651760310403578
      ],
      [
        "выплат",
        -8.652029215278422
      ],
      [
        "компаний",
        -8.653804646645456
      ],
      [
        "пре",
        -8.654739900303538
      ],
      [
        "некоторые",
        -8.655754136103202
      ],
      [
        "ча",
        -8.659857718595006
      ],
      [
        "расследование",
        -8.659999404389884
      ],
      [
        "рынк",
        -8.662872691288523
      ],
      [
        "вший",
        -8.663577021141334
      ],
      [
        "режим",
        -8.66366439126362
      ],
      [
        "владимира",
        -8.665275182673593
      ],
      [
        "органы",
        -8.666417760696472
      ],
      [
        "террористов",
        -8.667020095614307
      ],
      [
        "le",
        -8.667028343099098
      ],
      [
        "район",
        -8.667731646137296
      ],
      [
        "заседании",
        -8.66975061114485
      ],
      [
        "кор",
        -8.669750613583464
      ],
      [
        "жертв",
        -8.670947654903058
      ],
      [
        "пострадавши",
        -8.671361217146806
      ],
      [
        "ди",
        -8.675315549530335
      ],
      [
        "момент",
        -8.676004502846634
      ],
      [
        "ги",
        -8.67702732083722
      ],
      [
        "структур",
        -8.679888866011545
      ],
      [
        "soft",
        -8.683788926820494
      ],
      [
        "бюджет",
        -8.684262677080348
      ],
      [
        "ил",
        -8.684467284120602
      ],
      [
        "охран",
        -8.687739487811283
      ],
      [
        "жен",
        -8.689691728162561
      ],
      [
        "администрации",
        -8.691549469783368
      ],
      [
        "эс",
        -8.694508416332042
      ],
      [
        "политическо",
        -8.698697064858806
      ],
      [
        "смотря",
        -8.70375315771463
      ],
      [
        "дмитри",
        -8.70375401726183
      ],
      [
        "ураган",
        -8.703757357611092
      ],
      [
        "сотрудничеств",
        -8.705776781167168
      ],
      [
        "новых",
        -8.706635265893532
      ],
      [
        "должн",
        -8.7074994096652
      ],
      [
        "орт",
        -8.70914309405827
      ],
      [
        "председателя",
        -8.709978705442886
      ],
      [
        "факт",
        -8.711406448932946
      ],
      [
        "стоит",
        -8.712182173016934
      ],
      [
        "вин",
        -8.712372203406716
      ],
      [
        "своем",
        -8.714976915822817
      ],
      [
        "выше",
        -8.715128309803085
      ],
      [
        "официально",
        -8.715409288798995
      ],
      [
        "должно",
        -8.715434660355205
      ],
      [
        "ец",
        -8.718589974899963
      ],
      [
        "ту",
        -8.721764670218686
      ],
      [
        "таким",
        -8.722925367628818
      ],
      [
        "процесс",
        -8.723946560555817
      ],
      [
        "press",
        -8.724161311740824
      ],
      [
        "micro",
        -8.724161316594289
      ],
      [
        "конгресс",
        -8.724161375106528
      ],
      [
        "подготовк",
        -8.724175946296906
      ],
      [
        "планирует",
        -8.724270390940013
      ],
      [
        "участи",
        -8.724513432012854
      ],
      [
        "двое",
        -8.725040561409768
      ],
      [
        "ша",
        -8.725138609852971
      ],
      [
        "международно",
        -8.728709546167872
      ],
      [
        "само",
        -8.730694447112267
      ],
      [
        "утверждает",
        -8.730745699696303
      ],
      [
        "ближайшее",
        -8.731039716703034
      ],
      [
        "договор",
        -8.73907201902574
      ],
      [
        "мире",
        -8.740753018579003
      ],
      [
        "er",
        -8.741025321865095
      ],
      [
        "секретарь",
        -8.741504715099689
      ],
      [
        "сергей",
        -8.744999332098377
      ],
      [
        "военные",
        -8.74511183098386
      ],
      [
        "цик",
        -8.745208242251923
      ],
      [
        "принял",
        -8.745364365319304
      ],
      [
        "минувший",
        -8.745404466353458
      ],
      [
        "войны",
        -8.74583134146315
      ],
      [
        "связан",
        -8.746669519116287
      ],
      [
        "лондон",
        -8.746834567755126
      ],
      [
        "черкеси",
        -8.747105637869357
      ],
      [
        "идет",
        -8.749039304439057
      ],
      [
        "собой",
        -8.749559268540331
      ],
      [
        "скоре",
        -8.751608402575089
      ],
      [
        "комиссии",
        -8.751946607339185
      ],
      [
        "прокуратур",
        -8.752524724649598
      ],
      [
        "качестве",
        -8.753226483799835
      ],
      [
        "выход",
        -8.75493145435612
      ],
      [
        "минувше",
        -8.75642003155083
      ],
      [
        "сообщило",
        -8.756868917000961
      ],
      [
        "государственно",
        -8.75691915057754
      ],
      [
        "списк",
        -8.757173706099552
      ],
      [
        "данных",
        -8.757421770367607
      ],
      [
        "создан",
        -8.75824412122566
      ],
      [
        "банков",
        -8.760345670165492
      ],
      [
        "рос",
        -8.763010101007074
      ],
      [
        "направлен",
        -8.763264151029869
      ],
      [
        "коррупци",
        -8.766271239696223
      ],
      [
        "подтвердил",
        -8.766271302734987
      ],
      [
        "ближайши",
        -8.766271499131529
      ],
      [
        "центризбирком",
        -8.766319872516814
      ],
      [
        "являются",
        -8.766500106789158
      ],
      [
        "наибол",
        -8.767193825525593
      ],
      [
        "взрывчатк",
        -8.770013066854366
      ],
      [
        "йорк",
        -8.770143529277009
      ],
      [
        "верси",
        -8.770577422346056
      ],
      [
        "возможность",
        -8.771114867327867
      ],
      [
        "губернатор",
        -8.771734246203055
      ],
      [
        "мч",
        -8.77281916298479
      ],
      [
        "k",
        -8.773044764427741
      ],
      [
        "аль",
        -8.77425537668497
      ],
      [
        "членов",
        -8.778973907252272
      ],
      [
        "ников",
        -8.784155130582356
      ],
      [
        "создани",
        -8.78472695759131
      ],
      [
        "программы",
        -8.786617779889998
      ],
      [
        "жи",
        -8.78768457322928
      ],
      [
        "просьб",
        -8.788019512768154
      ],
      [
        "выступа",
        -8.788084495533308
      ],
      [
        "товар",
        -8.78816308403509
      ],
      [
        "отставк",
        -8.789087573009018
      ],
      [
        "состоя",
        -8.789132543705476
      ],
      [
        "назвал",
        -8.790018830748291
      ],
      [
        "новая",
        -8.791812406468088
      ],
      [
        "принят",
        -8.791945357505746
      ],
      [
        "ор",
        -8.793729833952963
      ],
      [
        "выбора",
        -8.796417986952838
      ],
      [
        "второй",
        -8.797719834234819
      ],
      [
        "отмечает",
        -8.799041658079854
      ],
      [
        "ситуации",
        -8.799167645775775
      ],
      [
        "принято",
        -8.804833932693466
      ],
      [
        "штаб",
        -8.805748430822707
      ],
      [
        "ex",
        -8.80589274649561
      ],
      [
        "подобны",
        -8.806722040822654
      ],
      [
        "сер",
        -8.807527960505649
      ],
      [
        "отмывани",
        -8.809318480001018
      ],
      [
        "предварительны",
        -8.810232591776684
      ],
      [
        "задолженност",
        -8.81026968489164
      ],
      [
        "выборов",
        -8.81231286914233
      ],
      [
        "сообщению",
        -8.813047668800223
      ],
      [
        "столице",
        -8.81396641644849
      ],
      [
        "метров",
        -8.81565003181826
      ],
      [
        "русски",
        -8.815847454475133
      ],
      [
        "таки",
        -8.816976989326315
      ],
      [
        "развити",
        -8.817880155963499
      ],
      [
        "сведениям",
        -8.818500390378382
      ],
      [
        "недавн",
        -8.819493887381167
      ],
      [
        "ющие",
        -8.823740227609337
      ],
      [
        "этому",
        -8.824608915501102
      ],
      [
        "встречи",
        -8.82464834477559
      ],
      [
        "семь",
        -8.825246097023953
      ],
      [
        "росси",
        -8.828611135935658
      ],
      [
        "назначени",
        -8.829517150823241
      ],
      [
        "махи",
        -8.829977136863947
      ],
      [
        "ают",
        -8.830193107958742
      ],
      [
        "ситуация",
        -8.83212764234334
      ],
      [
        "пассажир",
        -8.832466439585557
      ],
      [
        "рубеж",
        -8.832752394722757
      ],
      [
        "грузи",
        -8.83283766700228
      ],
      [
        "масхадов",
        -8.832959867127023
      ],
      [
        "произошел",
        -8.832960135177798
      ],
      [
        "характер",
        -8.832960396133032
      ],
      [
        "накануне",
        -8.832964236336736
      ],
      [
        "находятся",
        -8.83297023883092
      ],
      [
        "дпр",
        -8.83317519356221
      ],
      [
        "топлив",
        -8.833840717037322
      ],
      [
        "налогов",
        -8.834433411806556
      ],
      [
        "ста",
        -8.83475099706595
      ],
      [
        "границ",
        -8.834813846652798
      ],
      [
        "дан",
        -8.838339601930054
      ],
      [
        "одном",
        -8.838622276596524
      ],
      [
        "тонн",
        -8.84183007005151
      ],
      [
        "заявлени",
        -8.842957706747775
      ],
      [
        "партии",
        -8.843997877289686
      ],
      [
        "йдет",
        -8.84448371187599
      ],
      [
        "лиш",
        -8.848627121012239
      ],
      [
        "способ",
        -8.848958658594611
      ],
      [
        "российским",
        -8.849967957449904
      ],
      [
        "бин",
        -8.850330248802472
      ],
      [
        "иск",
        -8.852049099570317
      ],
      [
        "фирм",
        -8.854136905088989
      ],
      [
        "квартир",
        -8.854420493176937
      ],
      [
        "ситуаци",
        -8.85574852275999
      ],
      [
        "пострадал",
        -8.856226196336868
      ],
      [
        "дней",
        -8.857637123405446
      ],
      [
        "территорию",
        -8.85766474767004
      ],
      [
        "генерального",
        -8.859082077579762
      ],
      [
        "аются",
        -8.859757641099268
      ],
      [
        "промышленност",
        -8.859861839648083
      ],
      [
        "станет",
        -8.86051011215604
      ],
      [
        "обеспечени",
        -8.86222807763436
      ],
      [
        "вшие",
        -8.864306564051695
      ],
      [
        "специалисты",
        -8.866454128709488
      ],
      [
        "люб",
        -8.867908720376716
      ],
      [
        "состояние",
        -8.868920429594763
      ],
      [
        "комитет",
        -8.869158980253392
      ],
      [
        "границы",
        -8.870121098241054
      ],
      [
        "новы",
        -8.870529173836506
      ],
      [
        "европейско",
        -8.871262962753775
      ],
      [
        "завод",
        -8.876858412580058
      ],
      [
        "сети",
        -8.877581309436819
      ],
      [
        "жив",
        -8.87772336391932
      ],
      [
        "хотя",
        -8.877985374573479
      ],
      [
        "авари",
        -8.87920468075386
      ],
      [
        "инцидент",
        -8.880025202307145
      ],
      [
        "врач",
        -8.880134941059417
      ],
      [
        "власт",
        -8.882075148900975
      ],
      [
        "движение",
        -8.882862301429551
      ],
      [
        "ур",
        -8.882960963077872
      ],
      [
        "две",
        -8.884824588063825
      ],
      [
        "обрати",
        -8.88582121394981
      ],
      [
        "затем",
        -8.885918567579061
      ],
      [
        "шаг",
        -8.886120211061101
      ],
      [
        "проведен",
        -8.886326032944421
      ],
      [
        "валют",
        -8.887863230631577
      ],
      [
        "договора",
        -8.888673807544048
      ],
      [
        "in",
        -8.889091554335723
      ],
      [
        "дать",
        -8.89146963564863
      ],
      [
        "отечеств",
        -8.894086619601152
      ],
      [
        "решения",
        -8.896341274366394
      ],
      [
        "журналист",
        -8.897835241514853
      ],
      [
        "без",
        -8.897837901821035
      ],
      [
        "проверки",
        -8.900057725143018
      ],
      [
        "ты",
        -8.900312979243555
      ],
      [
        "плат",
        -8.901817473642566
      ],
      [
        "печат",
        -8.901869950208606
      ],
      [
        "большинство",
        -8.902023461441354
      ],
      [
        "прошло",
        -8.902371885330211
      ],
      [
        "здание",
        -8.903655760915136
      ],
      [
        "лица",
        -8.903862713721457
      ],
      [
        "став",
        -8.904105516809768
      ],
      [
        "одним",
        -8.90435408077475
      ],
      [
        "заложник",
        -8.904415475840803
      ],
      [
        "бывшего",
        -8.904676883209191
      ],
      [
        "речь",
        -8.90477611942702
      ],
      [
        "предел",
        -8.905753132010036
      ],
      [
        "предприяти",
        -8.905813758216665
      ],
      [
        "ing",
        -8.906604322817135
      ],
      [
        "ских",
        -8.909746301594065
      ],
      [
        "призыв",
        -8.911258401114793
      ],
      [
        "международного",
        -8.911818082032319
      ],
      [
        "постановление",
        -8.911905986479516
      ],
      [
        "утро",
        -8.914529317329624
      ],
      [
        "госдум",
        -8.916304960257946
      ],
      [
        "поддержк",
        -8.916992037147235
      ],
      [
        "рост",
        -8.917661449604122
      ],
      [
        "дал",
        -8.918043017603331
      ],
      [
        "ход",
        -8.919678033124317
      ],
      [
        "ше",
        -8.920464285150011
      ],
      [
        "начальника",
        -8.920864806681026
      ],
      [
        "директора",
        -8.920878180339471
      ],
      [
        "больш",
        -8.922221370877415
      ],
      [
        "возможност",
        -8.922426601836015
      ],
      [
        "баз",
        -8.923342618168439
      ],
      [
        "официальны",
        -8.924214393410914
      ],
      [
        "пер",
        -8.924960155728566
      ],
      [
        "законодательств",
        -8.925852557125205
      ],
      [
        "ель",
        -8.926104668075789
      ],
      [
        "уголовное",
        -8.926350496537356
      ],
      [
        "истори",
        -8.92648352603109
      ],
      [
        "ению",
        -8.92655081099988
      ],
      [
        "торгов",
        -8.92764876430387
      ],
      [
        "йти",
        -8.928418085712151
      ],
      [
        "бизнес",
        -8.928864093454816
      ],
      [
        "конституци",
        -8.929178601938183
      ],
      [
        ";",
        -8.92941544609827
      ],
      [
        "ущерб",
        -8.929415487978684
      ],
      [
        "контракт",
        -8.929416193043334
      ],
      [
        "вновь",
        -8.929450490900905
      ],
      [
        "занима",
        -8.931180020039228
      ],
      [
        "ими",
        -8.932017507947865
      ],
      [
        "ющих",
        -8.932273025524635
      ],
      [
        "вокруг",
        -8.932318161029944
      ],
      [
        "заявление",
        -8.932875782400378
      ],
      [
        "прибыл",
        -8.932888646555607
      ],
      [
        "чечне",
        -8.934882368502016
      ],
      [
        "чем",
        -8.935389587717065
      ],
      [
        "зам",
        -8.93554752004054
      ],
      [
        "вс",
        -8.935984964676255
      ],
      [
        "доме",
        -8.936585857709169
      ],
      [
        "ле",
        -8.938159109320939
      ],
      [
        "ут",
        -8.939636053597955
      ],
      [
        "ирован",
        -8.93993363325883
      ],
      [
        "километра",
        -8.940307639769356
      ],
      [
        "неделе",
        -8.943376912270121
      ],
      [
        "станции",
        -8.94700765676832
      ],
      [
        "вшего",
        -8.948437469624505
      ],
      [
        "свобод",
        -8.948780753042808
      ],
      [
        "специально",
        -8.948979284714921
      ],
      [
        "евро",
        -8.951128357727828
      ],
      [
        "санк",
        -8.95445854004721
      ],
      [
        "буйнакск",
        -8.955056474473798
      ],
      [
        "стоимость",
        -8.955056509347951
      ],
      [
        "позволя",
        -8.95505652479324
      ],
      [
        "казахстан",
        -8.955056645489485
      ],
      [
        "больниц",
        -8.955072000582945
      ],
      [
        "вчера",
        -8.955158918289033
      ],
      [
        "арест",
        -8.955254317125021
      ],
      [
        "com",
        -8.955290765814189
      ],
      [
        "школ",
        -8.955301735627264
      ],
      [
        "япони",
        -8.95571929798039
      ],
      [
        "московско",
        -8.956290952619376
      ],
      [
        "передает",
        -8.956377904528509
      ],
      [
        "каса",
        -8.958226860122789
      ],
      [
        "права",
        -8.959618165321254
      ],
      [
        "международных",
        -8.961193724902948
      ],
      [
        "ран",
        -8.961930456103245
      ],
      [
        "дж",
        -8.962978339791267
      ],
      [
        "войска",
        -8.963159432583414
      ],
      [
        "просто",
        -8.964915572548112
      ],
      [
        "ду",
        -8.968662354611519
      ],
      [
        "ters",
        -8.968762871454025
      ],
      [
        "ности",
        -8.969200115333267
      ],
      [
        "нем",
        -8.969464365439523
      ],
      [
        "фирмы",
        -8.970206051964668
      ],
      [
        "сих",
        -8.971187384481585
      ],
      [
        "таких",
        -8.97146240591055
      ],
      [
        "час",
        -8.975783757398396
      ],
      [
        "бюджета",
        -8.976227135004313
      ],
      [
        "фонд",
        -8.976547710621182
      ],
      [
        "избирательно",
        -8.977788568525916
      ],
      [
        "транспорт",
        -8.980362155078428
      ],
      [
        "поиск",
        -8.981415776091449
      ],
      [
        "reu",
        -8.98164948678145
      ],
      [
        "корпорации",
        -8.981685574102038
      ],
      [
        "выразил",
        -8.982960595832445
      ],
      [
        "поэтому",
        -8.983556360577351
      ],
      [
        "щи",
        -8.984461346210528
      ],
      [
        "северо",
        -8.985318690376502
      ],
      [
        "нефть",
        -8.987146520623304
      ],
      [
        "признал",
        -8.987430546289813
      ],
      [
        "кредит",
        -8.989214009270752
      ],
      [
        "рад",
        -8.990745072893601
      ],
      [
        "генеральны",
        -8.991671588120182
      ],
      [
        "кара",
        -8.993438623263994
      ],
      [
        "трое",
        -8.993829738972117
      ],
      [
        "ол",
        -8.994229182446475
      ],
      [
        "списка",
        -8.995943628208416
      ],
      [
        "общественно",
        -8.996136980736694
      ],
      [
        "иль",
        -8.998088296626225
      ],
      [
        "ыми",
        -9.002793399556019
      ],
      [
        "московск",
        -9.003616987087389
      ],
      [
        "радио",
        -9.004261592294272
      ],
      [
        "созда",
        -9.006460204787835
      ],
      [
        "пользовател",
        -9.006510516261628
      ],
      [
        "v",
        -9.007981599105204
      ],
      [
        "команд",
        -9.008058072732869
      ],
      [
        "инди",
        -9.008060277494131
      ],
      [
        "катастроф",
        -9.008279673314167
      ],
      [
        "период",
        -9.008401405544221
      ],
      [
        "акционер",
        -9.00840459425014
      ],
      [
        "значительно",
        -9.008554576672639
      ],
      [
        "половин",
        -9.008599317918634
      ],
      [
        "использование",
        -9.009175843954734
      ],
      [
        "выставк",
        -9.010205554750204
      ],
      [
        "ракет",
        -9.011639383025308
      ],
      [
        "группировк",
        -9.012838215934746
      ],
      [
        "нам",
        -9.013711421557822
      ],
      [
        "вооруженных",
        -9.013748385780206
      ],
      [
        "стици",
        -9.014740216816596
      ],
      [
        "ново",
        -9.015101272545884
      ],
      [
        "составил",
        -9.015572793910419
      ],
      [
        "кита",
        -9.016468508516185
      ],
      [
        "ер",
        -9.018680486295143
      ],
      [
        "пожар",
        -9.019302505168259
      ],
      [
        "регион",
        -9.02130536124609
      ],
      [
        "национальной",
        -9.021334152497609
      ],
      [
        "воз",
        -9.022784878250219
      ],
      [
        "имя",
        -9.023152086199667
      ],
      [
        "ство",
        -9.027566007923204
      ],
      [
        "сообщения",
        -9.0287529967842
      ],
      [
        "московском",
        -9.02979500100138
      ],
      [
        "союз",
        -9.032279854812304
      ],
      [
        "встрече",
        -9.035018463902567
      ],
      [
        "закона",
        -9.03615733285772
      ],
      [
        "конкретны",
        -9.036177066735654
      ],
      [
        "рушайло",
        -9.036177070906147
      ],
      [
        "аэрофлот",
        -9.036188176075688
      ],
      [
        "передач",
        -9.036502996178296
      ],
      [
        "километров",
        -9.037692061016283
      ],
      [
        "штаба",
        -9.039995353204112
      ],
      [
        "анти",
        -9.04025119434961
      ],
      [
        "ходят",
        -9.041104946876882
      ],
      [
        "вал",
        -9.041200547797056
      ],
      [
        "ингушетии",
        -9.041907230841858
      ],
      [
        "попытк",
        -9.04318001529719
      ],
      [
        "автомобиле",
        -9.044290905866333
      ],
      [
        "ночь",
        -9.044675395412657
      ],
      [
        "информационно",
        -9.045123766398675
      ],
      [
        "кредита",
        -9.045228912802788
      ],
      [
        "площад",
        -9.046898532120363
      ],
      [
        "ность",
        -9.04787053986258
      ],
      [
        "спецслужб",
        -9.047941344852722
      ],
      [
        "серьезно",
        -9.048191420325121
      ],
      [
        "совместно",
        -9.048466678458379
      ],
      [
        "контроль",
        -9.051052918131468
      ],
      [
        "соглашение",
        -9.051414662123229
      ],
      [
        "александра",
        -9.05163131965894
      ],
      [
        "обвинения",
        -9.053143978777992
      ],
      [
        "представителя",
        -9.057137185436655
      ],
      [
        "шел",
        -9.058537610265285
      ],
      [
        "особо",
        -9.059027581027232
      ],
      [
        "экспорт",
        -9.059087544397006
      ],
      [
        "восточно",
        -9.060570371300312
      ],
      [
        "наш",
        -9.06306736376499
      ],
      [
        "сдела",
        -9.063109999327253
      ],
      [
        "объект",
        -9.064542073216547
      ],
      [
        "руководства",
        -9.064748494682775
      ],
      [
        "associate",
        -9.064748499658615
      ],
      [
        "пиночет",
        -9.064748564941096
      ],
      [
        "горбачев",
        -9.064748575971151
      ],
      [
        "кампани",
        -9.064751327292585
      ],
      [
        "телевидени",
        -9.064753852431389
      ],
      [
        "одновременно",
        -9.064852464839358
      ],
      [
        "доклад",
        -9.064900222981063
      ],
      [
        "цело",
        -9.064921023250726
      ],
      [
        "эхо",
        -9.06505398545265
      ],
      [
        "связь",
        -9.065629081977804
      ],
      [
        "свой",
        -9.065933023162996
      ],
      [
        "получит",
        -9.066109224614571
      ],
      [
        "массово",
        -9.066139753618515
      ],
      [
        "отношения",
        -9.06657619231451
      ],
      [
        "другим",
        -9.067626761438527
      ],
      [
        "пять",
        -9.067635565243908
      ],
      [
        "чь",
        -9.067668032978478
      ],
      [
        "остальны",
        -9.068212843505117
      ],
      [
        "терроризмом",
        -9.06826489950897
      ],
      [
        "миссии",
        -9.068665984846357
      ],
      [
        "направил",
        -9.068867978480139
      ],
      [
        "никак",
        -9.069499961242961
      ],
      [
        "гражданин",
        -9.069832802552694
      ],
      [
        "nas",
        -9.069880612590497
      ],
      [
        "встреча",
        -9.070229301097715
      ],
      [
        "ения",
        -9.070588580397317
      ],
      [
        "своим",
        -9.071084728155128
      ],
      [
        "белоруссии",
        -9.071721371706799
      ],
      [
        "всей",
        -9.071923149067104
      ],
      [
        "for",
        -9.072192033878501
      ],
      [
        "европейски",
        -9.072427696469124
      ],
      [
        "скую",
        -9.072782285740074
      ],
      [
        "един",
        -9.074898410467217
      ],
      [
        "яко",
        -9.078726503333598
      ],
      [
        "овать",
        -9.079160403549023
      ],
      [
        "прошл",
        -9.079945919018598
      ],
      [
        "re",
        -9.081118994678196
      ],
      [
        "четыре",
        -9.081271323607403
      ],
      [
        "ось",
        -9.081550739987705
      ],
      [
        "су",
        -9.081925202691234
      ],
      [
        "было",
        -9.082677225338148
      ],
      [
        "подразделения",
        -9.082728306363359
      ],
      [
        "продолжают",
        -9.086885813712055
      ],
      [
        "признан",
        -9.087244007706706
      ],
      [
        "нь",
        -9.088353793836813
      ],
      [
        "аэропорт",
        -9.088447720166437
      ],
      [
        "задач",
        -9.08845858080753
      ],
      [
        "согласи",
        -9.090075491304432
      ],
      [
        "кам",
        -9.09153915762505
      ],
      [
        "незаконно",
        -9.092151494001174
      ],
      [
        "голосов",
        -9.093811376566475
      ],
      [
        "прокурор",
        -9.094076819087615
      ],
      [
        "культур",
        -9.094160422306388
      ],
      [
        "вертолет",
        -9.09419773747332
      ],
      [
        "законопроект",
        -9.094213050792277
      ],
      [
        "уровне",
        -9.094214143856192
      ],
      [
        "разработк",
        -9.094237777261325
      ],
      [
        "органам",
        -9.094394196392164
      ],
      [
        "голосовани",
        -9.094571849906878
      ],
      [
        "техник",
        -9.094704815583746
      ],
      [
        "поводу",
        -9.096210018951723
      ],
      [
        "виде",
        -9.0968696938668
      ],
      [
        "семенов",
        -9.097435332748754
      ],
      [
        "правительств",
        -9.100510928984587
      ],
      [
        "государственны",
        -9.101938871840455
      ],
      [
        "серьезны",
        -9.10221679776498
      ],
      [
        "москву",
        -9.102942720988592
      ],
      [
        "боевых",
        -9.10357415035029
      ],
      [
        "заказ",
        -9.105453063152169
      ],
      [
        "условиях",
        -9.105559151053285
      ],
      [
        "бу",
        -9.108184460334442
      ],
      [
        "восточном",
        -9.108616538266483
      ],
      [
        "народ",
        -9.114985669804042
      ],
      [
        "порядка",
        -9.115260770578965
      ],
      [
        "компани",
        -9.115659203371806
      ],
      [
        "союза",
        -9.119763958498492
      ],
      [
        "проекта",
        -9.121996232148826
      ],
      [
        "ости",
        -9.123304847081101
      ],
      [
        "слова",
        -9.123987258305224
      ],
      [
        "?",
        -9.124463289598125
      ],
      [
        "которую",
        -9.124464267013936
      ],
      [
        "женщин",
        -9.124472091630542
      ],
      [
        "отчет",
        -9.124478758017354
      ],
      [
        "ссср",
        -9.124497780174714
      ],
      [
        "вирус",
        -9.124546385213707
      ],
      [
        "решил",
        -9.124870630130385
      ],
      [
        "линии",
        -9.124934466698612
      ],
      [
        "пояснил",
        -9.125008850514783
      ],
      [
        "ru",
        -9.125023488670385
      ],
      [
        "труд",
        -9.12565286263817
      ],
      [
        "стар",
        -9.125797272051773
      ],
      [
        "оно",
        -9.12647736731349
      ],
      [
        "ответственност",
        -9.126723763216354
      ],
      [
        "зон",
        -9.126930477782821
      ],
      [
        "утра",
        -9.127047277463774
      ],
      [
        "весь",
        -9.12854427851121
      ],
      [
        "думы",
        -9.128888426401717
      ],
      [
        "спасател",
        -9.128953927004204
      ],
      [
        "тысячи",
        -9.12959963880583
      ],
      [
        "края",
        -9.129757643855644
      ],
      [
        "ночью",
        -9.130507622457092
      ],
      [
        "следствие",
        -9.130600018254242
      ],
      [
        "система",
        -9.131894949961639
      ],
      [
        "основном",
        -9.13252332350648
      ],
      [
        "оперативно",
        -9.132964265884787
      ],
      [
        "появи",
        -9.133513008805345
      ],
      [
        "федеральной",
        -9.133846899306114
      ],
      [
        "расследования",
        -9.133988256761116
      ],
      [
        "форм",
        -9.134719596157112
      ],
      [
        "государственного",
        -9.135116720691801
      ],
      [
        "экс",
        -9.136554933438388
      ],
      [
        "американско",
        -9.136571905876178
      ],
      [
        "защит",
        -9.138027759894186
      ],
      [
        "авиа",
        -9.138050383193814
      ],
      [
        "след",
        -9.140494404732834
      ],
      [
        "землетрясени",
        -9.140865115505006
      ],
      [
        "бес",
        -9.141246536774116
      ],
      [
        "тяжело",
        -9.142548570784747
      ],
      [
        "позици",
        -9.14304714575065
      ],
      [
        "прокуратуры",
        -9.14425283111977
      ],
      [
        "ранения",
        -9.144416881971736
      ],
      [
        "мере",
        -9.144894013781245
      ],
      [
        "месяца",
        -9.146778692088917
      ],
      [
        "связанны",
        -9.146879042082103
      ],
      [
        "ирак",
        -9.147752753900123
      ],
      [
        "пар",
        -9.148105349205863
      ],
      [
        "специалист",
        -9.150701782336043
      ],
      [
        "чечн",
        -9.150838106001085
      ],
      [
        "марк",
        -9.15257189657012
      ],
      [
        "самом",
        -9.153094801507262
      ],
      [
        "введен",
        -9.153222564273022
      ],
      [
        "ключ",
        -9.154645924218372
      ],
      [
        "шоссе",
        -9.155713723124222
      ],
      [
        "басаев",
        -9.155713919732827
      ],
      [
        "германи",
        -9.155717154772134
      ],
      [
        "найден",
        -9.155741283256072
      ],
      [
        "обыск",
        -9.155812068877495
      ],
      [
        "mab",
        -9.15584920655167
      ],
      [
        "европе",
        -9.156034087159558
      ],
      [
        "ез",
        -9.156795890256118
      ],
      [
        "вся",
        -9.157461292872302
      ],
      [
        "чеченской",
        -9.158175399553631
      ],
      [
        "ожидается",
        -9.158188743628278
      ],
      [
        "боев",
        -9.158413314811888
      ],
      [
        "друг",
        -9.158520185584923
      ],
      [
        "подписан",
        -9.16043134396034
      ],
      [
        "ation",
        -9.1615031524499
      ],
      [
        "отряд",
        -9.16238561910062
      ],
      [
        "провел",
        -9.164447263108526
      ],
      [
        "положение",
        -9.164870561866406
      ],
      [
        "увеличи",
        -9.167171530766046
      ],
      [
        "военного",
        -9.16842751933177
      ],
      [
        "рабочи",
        -9.168761154591984
      ],
      [
        "мар",
        -9.169145118197154
      ],
      [
        "защиты",
        -9.169514685553201
      ],
      [
        "отмеча",
        -9.171739375811974
      ],
      [
        "основани",
        -9.172387881966298
      ],
      [
        "министерств",
        -9.173932123879608
      ],
      [
        "очередно",
        -9.1740642207286
      ],
      [
        "делегаци",
        -9.175473094189714
      ],
      [
        "овал",
        -9.176222458775694
      ],
      [
        "нынешне",
        -9.17674420545403
      ],
      [
        "этом",
        -9.177372101350267
      ],
      [
        "государственн",
        -9.179986761759011
      ],
      [
        "московской",
        -9.182128915059547
      ],
      [
        "кар",
        -9.182469273975876
      ],
      [
        "приняли",
        -9.183753338119438
      ],
      [
        "исключен",
        -9.185114789753547
      ],
      [
        "интерес",
        -9.185727018757259
      ],
      [
        "наде",
        -9.18599868427215
      ],
      [
        "предприятия",
        -9.186117706531592
      ],
      [
        "учены",
        -9.186892872980433
      ],
      [
        "разговор",
        -9.18797401918979
      ],
      [
        "восток",
        -9.187988053991836
      ],
      [
        "ent",
        -9.18802790822338
      ],
      [
        "бензин",
        -9.188034536519297
      ],
      [
        "bb",
        -9.188388923233575
      ],
      [
        "кажды",
        -9.188398504095439
      ],
      [
        "крайне",
        -9.188744093603514
      ],
      [
        "общественны",
        -9.188935677447013
      ],
      [
        "вывод",
        -9.19065262918948
      ],
      [
        "тор",
        -9.190881986411565
      ],
      [
        "финансовых",
        -9.191109494407645
      ],
      [
        "вне",
        -9.191119536302741
      ],
      [
        "россией",
        -9.191867624515758
      ],
      [
        "автобус",
        -9.191950879590808
      ],
      [
        "декабря",
        -9.194254850232367
      ],
      [
        "нс",
        -9.195086931440526
      ],
      [
        "операция",
        -9.195723342180798
      ],
      [
        "основ",
        -9.195882404546316
      ],
      [
        "находящи",
        -9.196064708876143
      ],
      [
        "таможенны",
        -9.196454770120877
      ],
      [
        "указ",
        -9.198362278767956
      ],
      [
        "государств",
        -9.198936815814617
      ],
      [
        "минувш",
        -9.202271995914874
      ],
      [
        "ющего",
        -9.202674513962423
      ],
      [
        "вклад",
        -9.202892780375624
      ],
      [
        "британски",
        -9.20297044088115
      ],
      [
        "продолжает",
        -9.203198012997788
      ],
      [
        "ско",
        -9.203340324394295
      ],
      [
        "правительственны",
        -9.204019211699675
      ],
      [
        "ска",
        -9.204595344327517
      ],
      [
        "состоянии",
        -9.204709657447562
      ],
      [
        "угроз",
        -9.206670335122165
      ],
      [
        "продукт",
        -9.207444821788567
      ],
      [
        "пострадавшим",
        -9.208837718225288
      ],
      [
        "потер",
        -9.209262083826346
      ],
      [
        "взят",
        -9.211900748118094
      ],
      [
        "чер",
        -9.212810644288927
      ],
      [
        "источников",
        -9.212936721066027
      ],
      [
        "одна",
        -9.214312256077234
      ],
      [
        "освобождени",
        -9.215523819290407
      ],
      [
        "ступ",
        -9.215690952569611
      ],
      [
        "запрет",
        -9.218204660361094
      ],
      [
        "достаточно",
        -9.218835073621175
      ],
      [
        "сведения",
        -9.220479996692209
      ],
      [
        "1",
        -9.221211549743831
      ],
      [
        "вызвал",
        -9.221305527697318
      ],
      [
        "клуб",
        -9.221307518530091
      ],
      [
        "совещани",
        -9.22159975099628
      ],
      [
        "находился",
        -9.221615221914913
      ],
      [
        "наше",
        -9.22188215177444
      ],
      [
        "билл",
        -9.221928423042796
      ],
      [
        "необходимости",
        -9.222057139138219
      ],
      [
        "перевод",
        -9.222461702930161
      ],
      [
        "плен",
        -9.222790148246093
      ],
      [
        "склад",
        -9.22280355653342
      ],
      [
        "для",
        -9.223517985752979
      ],
      [
        "рынка",
        -9.223639875319535
      ],
      [
        ">:",
        -9.223959528361531
      ],
      [
        "северн",
        -9.223990860644479
      ],
      [
        "дни",
        -9.224526287814484
      ],
      [
        "телекомпани",
        -9.225017825236359
      ],
      [
        "уверен",
        -9.225325608598723
      ],
      [
        "условия",
        -9.22585487395294
      ],
      [
        "da",
        -9.226393432361323
      ],
      [
        "административно",
        -9.226879311832512
      ],
      [
        "внимание",
        -9.227271205672793
      ],
      [
        "большой",
        -9.227735300319322
      ],
      [
        "выпуск",
        -9.2280833508594
      ],
      [
        "экономически",
        -9.228458832430018
      ],
      [
        "назван",
        -9.231048818757596
      ],
      [
        "первого",
        -9.231486685306868
      ],
      [
        "пла",
        -9.23236786269384
      ],
      [
        "агентств",
        -9.233816534722674
      ],
      [
        "сумма",
        -9.234673463285356
      ],
      [
        "северном",
        -9.23536623266775
      ],
      [
        "банки",
        -9.2361427190868
      ],
      [
        "турции",
        -9.237058294421878
      ],
      [
        "самым",
        -9.23893183254577
      ],
      [
        "чу",
        -9.239019909520199
      ],
      [
        "иде",
        -9.23931544910838
      ],
      [
        "сильно",
        -9.239329347021888
      ],
      [
        "информация",
        -9.239364735470511
      ],
      [
        "уголовно",
        -9.242221302230185
      ],
      [
        "самы",
        -9.243142795162308
      ],
      [
        "институт",
        -9.2440288750923
      ],
      [
        "компьютерны",
        -9.244214006133864
      ],
      [
        "международным",
        -9.24493065651519
      ],
      [
        "прожива",
        -9.24510979916004
      ],
      [
        "пыта",
        -9.245524044667851
      ],
      [
        "черкесск",
        -9.24571539652096
      ],
      [
        "проводи",
        -9.248132616854134
      ],
      [
        "рат",
        -9.248191366641372
      ],
      [
        "активно",
        -9.248272394851115
      ],
      [
        "итог",
        -9.248695360176326
      ],
      [
        "если",
        -9.249494135621262
      ],
      [
        "ась",
        -9.250361723290244
      ],
      [
        "имеют",
        -9.250604568737566
      ],
      [
        "есть",
        -9.251289292253194
      ],
      [
        "отказал",
        -9.251580089063578
      ],
      [
        "разу",
        -9.251745058372968
      ],
      [
        "руководителе",
        -9.252410530740413
      ],
      [
        "ально",
        -9.254802000933509
      ],
      [
        "уничтожен",
        -9.255029532098856
      ],
      [
        "корпораци",
        -9.255375847268857
      ],
      [
        "аппарат",
        -9.255453447905362
      ],
      [
        "села",
        -9.25573118159141
      ],
      [
        "позволит",
        -9.25578752363693
      ],
      [
        "выясни",
        -9.255787848476334
      ],
      [
        "солдат",
        -9.255788906297065
      ],
      [
        "поступил",
        -9.25579506518735
      ],
      [
        "жители",
        -9.255802244536735
      ],
      [
        "включая",
        -9.25580301233764
      ],
      [
        "зарплат",
        -9.255836920384233
      ],
      [
        "сегодняшне",
        -9.255841702996392
      ],
      [
        "берлин",
        -9.255865824906053
      ],
      [
        "хорош",
        -9.255872951323525
      ],
      [
        "учет",
        -9.256224304109658
      ],
      [
        "ядерных",
        -9.256396342862132
      ],
      [
        "европ",
        -9.256401882652188
      ],
      [
        "парламент",
        -9.256635955489664
      ],
      [
        "происшествия",
        -9.258512355577814
      ],
      [
        "западно",
        -9.25863047327958
      ],
      [
        "коммерчески",
        -9.259101234266884
      ],
      [
        "конфликт",
        -9.259621484829399
      ],
      [
        "различных",
        -9.260030602894302
      ],
      [
        "выборы",
        -9.260472132766896
      ],
      [
        "летний",
        -9.26092274596267
      ],
      [
        "высоко",
        -9.263401709821455
      ],
      [
        "николай",
        -9.264057102202857
      ],
      [
        "ость",
        -9.264925680273759
      ],
      [
        "городско",
        -9.265982037469433
      ],
      [
        "неизвестны",
        -9.267234566038296
      ],
      [
        "республике",
        -9.267462620576978
      ],
      [
        "последне",
        -9.268093551867818
      ],
      [
        "доллара",
        -9.2680992416163
      ],
      [
        "направлени",
        -9.26827712527643
      ],
      [
        "положения",
        -9.268283342073998
      ],
      [
        "коре",
        -9.268504721625852
      ],
      [
        "ировать",
        -9.268643383951002
      ],
      [
        "дерев",
        -9.268659137256678
      ],
      [
        "кой",
        -9.270704094115938
      ],
      [
        "жд",
        -9.270951937225552
      ],
      [
        "штата",
        -9.271610696797449
      ],
      [
        "оружие",
        -9.272960713691955
      ],
      [
        "событи",
        -9.27355228810574
      ],
      [
        "часа",
        -9.274562258729512
      ],
      [
        "совершен",
        -9.27558690877641
      ],
      [
        "следующе",
        -9.275759398529313
      ],
      [
        "газа",
        -9.275800583767804
      ],
      [
        "виз",
        -9.276237303583617
      ],
      [
        "предоставлени",
        -9.276271417029562
      ],
      [
        "публикаци",
        -9.27687095062992
      ],
      [
        "вес",
        -9.27793851961569
      ],
      [
        "западны",
        -9.278237218218816
      ],
      [
        "быстро",
        -9.27878221845781
      ],
      [
        "пл",
        -9.279717849481855
      ],
      [
        "ошибк",
        -9.279739042938566
      ],
      [
        "зна",
        -9.279978911645431
      ],
      [
        "лев",
        -9.281367533639113
      ],
      [
        "парламента",
        -9.281467450833803
      ],
      [
        "ладен",
        -9.28166735751651
      ],
      [
        "спутник",
        -9.281739569838834
      ],
      [
        "подпис",
        -9.28197354215882
      ],
      [
        "дума",
        -9.282081332566955
      ],
      [
        "действительно",
        -9.285601601793786
      ],
      [
        "основе",
        -9.287224906908353
      ],
      [
        "цифр",
        -9.288013282701023
      ],
      [
        "службе",
        -9.288043906937986
      ],
      [
        "региона",
        -9.289892090582258
      ],
      [
        "русско",
        -9.290117200432256
      ],
      [
        "отказа",
        -9.290484619645197
      ],
      [
        "держа",
        -9.291044602581694
      ],
      [
        "упал",
        -9.291283453008898
      ],
      [
        "населенны",
        -9.291354329799248
      ],
      [
        "$",
        -9.291501731782564
      ],
      [
        "энергетик",
        -9.291501731785047
      ],
      [
        "швейцари",
        -9.291501731788564
      ],
      [
        "нескольких",
        -9.291501731788646
      ],
      [
        "миротворц",
        -9.291501745806423
      ],
      [
        "комбинат",
        -9.291501916703341
      ],
      [
        "госпитал",
        -9.291501985104455
      ],
      [
        "клиент",
        -9.291503904764078
      ],
      [
        "веществ",
        -9.291538144006067
      ],
      [
        "генпрокурор",
        -9.291603598738142
      ],
      [
        "борту",
        -9.291662317749028
      ],
      [
        "гар",
        -9.291909689377695
      ],
      [
        "обмен",
        -9.292121075409767
      ],
      [
        "ван",
        -9.292245341626142
      ],
      [
        "указал",
        -9.292626693147977
      ],
      [
        "центральной",
        -9.292627786189474
      ],
      [
        "американским",
        -9.292958844580708
      ],
      [
        "сфер",
        -9.294696720995777
      ],
      [
        "сообщают",
        -9.29521216391124
      ],
      [
        "ite",
        -9.295263954111626
      ],
      [
        "ндр",
        -9.297037884595479
      ],
      [
        "июн",
        -9.297413250514538
      ],
      [
        "представляет",
        -9.298246406037848
      ],
      [
        "чрезвычайно",
        -9.298475473289013
      ],
      [
        "снова",
        -9.299958216607072
      ],
      [
        "новом",
        -9.30130372821562
      ],
      [
        "месяц",
        -9.302504905390277
      ],
      [
        "текуще",
        -9.302555107282995
      ],
      [
        "использовать",
        -9.30334835914804
      ],
      [
        "бел",
        -9.30433163638063
      ],
      [
        "следовател",
        -9.305680075937342
      ],
      [
        "гражданско",
        -9.306880954874016
      ],
      [
        "ou",
        -9.307517087976727
      ],
      [
        "возможны",
        -9.308108679257927
      ],
      [
        "страна",
        -9.308373729151986
      ],
      [
        "ге",
        -9.308481213654595
      ],
      [
        "подразделени",
        -9.309857218343572
      ],
      [
        "кандидат",
        -9.309971030317243
      ],
      [
        "недели",
        -9.310667074196544
      ],
      [
        "банковски",
        -9.31218813756573
      ],
      [
        "ющихся",
        -9.313078241969098
      ],
      [
        "сло",
        -9.314053599585165
      ],
      [
        "доступ",
        -9.314279256378832
      ],
      [
        "мат",
        -9.315506216146863
      ],
      [
        "сторонник",
        -9.318553645307874
      ],
      [
        "первом",
        -9.319018392992065
      ],
      [
        "зарегистрирован",
        -9.319309103547667
      ],
      [
        "ировал",
        -9.320098555477127
      ],
      [
        "co",
        -9.320253784095502
      ],
      [
        "ведет",
        -9.321463502229395
      ],
      [
        "избран",
        -9.321600489781863
      ],
      [
        "подписал",
        -9.32246864254441
      ],
      [
        "сообщение",
        -9.322871748344193
      ],
      [
        "терроризм",
        -9.323995139723555
      ],
      [
        "ца",
        -9.324866149175458
      ],
      [
        "провинци",
        -9.327663097081814
      ],
      [
        "ью",
        -9.327741407037239
      ],
      [
        "австрали",
        -9.328232389563874
      ],
      [
        "—",
        -9.3285387688196
      ],
      [
        "бедстви",
        -9.328538794016573
      ],
      [
        "непосредственно",
        -9.328538796637835
      ],
      [
        "выявлен",
        -9.328544356945088
      ],
      [
        "белград",
        -9.328546848162626
      ],
      [
        "доставлен",
        -9.328641348754886
      ],
      [
        "телекоммуникаци",
        -9.32867090611047
      ],
      [
        "российска",
        -9.329131460022946
      ],
      [
        "раис",
        -9.32971967111385
      ],
      [
        "такое",
        -9.329973921068468
      ],
      [
        "мог",
        -9.330122849082835
      ],
      [
        "бен",
        -9.330967631231672
      ],
      [
        "столичн",
        -9.331146477500402
      ],
      [
        "ряда",
        -9.33118950691857
      ],
      [
        "напомнил",
        -9.331414773820395
      ],
      [
        "дат",
        -9.331700994243423
      ],
      [
        "бар",
        -9.332423752870485
      ],
      [
        "ведется",
        -9.334120477346254
      ],
      [
        "соответствующи",
        -9.335729388497448
      ],
      [
        "ства",
        -9.336752169143391
      ],
      [
        "образовани",
        -9.336999948506891
      ],
      [
        "полно",
        -9.337004355737603
      ],
      [
        "проведения",
        -9.337373085044913
      ],
      [
        "дете",
        -9.339104807002332
      ],
      [
        "орбит",
        -9.33955846344301
      ],
      [
        "порядк",
        -9.339776083873566
      ],
      [
        "торговл",
        -9.340400285971064
      ],
      [
        "временно",
        -9.341210763175306
      ],
      [
        "бирже",
        -9.342889314495329
      ],
      [
        "ение",
        -9.34412912165754
      ],
      [
        "кин",
        -9.344577999226756
      ],
      [
        "перво",
        -9.346045775155977
      ],
      [
        "розыск",
        -9.346473730480472
      ],
      [
        "сотн",
        -9.34774518314296
      ],
      [
        "существу",
        -9.350152590817002
      ],
      [
        "точк",
        -9.351062466520528
      ],
      [
        "спас",
        -9.351257212226416
      ],
      [
        "тк",
        -9.352485561090782
      ],
      [
        "цена",
        -9.354242933588251
      ],
      [
        "сери",
        -9.354312080326578
      ],
      [
        "руб",
        -9.355068296076258
      ],
      [
        "тель",
        -9.35551092360466
      ],
      [
        "тора",
        -9.35622985917526
      ],
      [
        "net",
        -9.356747012194143
      ],
      [
        "вопросам",
        -9.356957674770976
      ],
      [
        "нк",
        -9.35805010134088
      ],
      [
        "бориса",
        -9.358443721751527
      ],
      [
        "станци",
        -9.358989914758544
      ],
      [
        "лично",
        -9.35909497265609
      ],
      [
        "особенно",
        -9.359852284880313
      ],
      [
        "имел",
        -9.359927288327487
      ],
      [
        "запрос",
        -9.364623273333818
      ],
      [
        "национальны",
        -9.364824673957095
      ],
      [
        "род",
        -9.366150274550332
      ],
      [
        "следствия",
        -9.366442162032765
      ],
      [
        "2",
        -9.366892565534245
      ],
      [
        "киргизии",
        -9.367000307294472
      ],
      [
        "избирателей",
        -9.367000308581169
      ],
      [
        "степашин",
        -9.367000308813203
      ],
      [
        "пентагон",
        -9.367000308834848
      ],
      [
        "селезнев",
        -9.367000311028676
      ],
      [
        "обстановк",
        -9.36700036864047
      ],
      [
        "постоянно",
        -9.367000837686732
      ],
      [
        "выступил",
        -9.367002137353264
      ],
      [
        "обсуждени",
        -9.367004817411535
      ],
      [
        "примаков",
        -9.367006519361034
      ],
      [
        "сравн",
        -9.367018658113315
      ],
      [
        "тариф",
        -9.367021132959001
      ],
      [
        "офис",
        -9.3670220188388
      ],
      [
        "услуг",
        -9.367027634315063
      ],
      [
        "запас",
        -9.367048679268091
      ],
      [
        "содержит",
        -9.367065247864506
      ],
      [
        "the",
        -9.367109037804738
      ],
      [
        "оборудования",
        -9.367109788453394
      ],
      [
        "чабан",
        -9.367147488932211
      ],
      [
        "ведут",
        -9.367228544530162
      ],
      [
        "крупнейших",
        -9.367333123627184
      ],
      [
        "нефтепродукт",
        -9.367851112833602
      ],
      [
        "получени",
        -9.368211356036927
      ],
      [
        "сделк",
        -9.368606107544592
      ],
      [
        "известны",
        -9.368701934557992
      ],
      [
        "запис",
        -9.368950723935303
      ],
      [
        "верну",
        -9.369223700982488
      ],
      [
        "самолета",
        -9.369542522436117
      ],
      [
        "основны",
        -9.370182066596856
      ],
      [
        "цб",
        -9.37062689296432
      ],
      [
        "ющей",
        -9.370683806749012
      ],
      [
        "w",
        -9.370784378776259
      ],
      [
        "убит",
        -9.37083691766598
      ],
      [
        "ноября",
        -9.373085581762359
      ],
      [
        "комиссия",
        -9.373299391866707
      ],
      [
        "них",
        -9.373495262255329
      ],
      [
        "аб",
        -9.373538934830762
      ],
      [
        "хакер",
        -9.374357236901176
      ],
      [
        "летне",
        -9.375116564712998
      ],
      [
        "кур",
        -9.37534769242636
      ],
      [
        "днем",
        -9.375645536108085
      ],
      [
        "реакци",
        -9.375986165187491
      ],
      [
        "ятся",
        -9.37677799384221
      ],
      [
        "снят",
        -9.37750220803801
      ],
      [
        "боевик",
        -9.378133083418307
      ],
      [
        "убиты",
        -9.378307815804517
      ],
      [
        "далек",
        -9.379165445170896
      ],
      [
        "мост",
        -9.381188634932855
      ],
      [
        "самых",
        -9.382295082688797
      ],
      [
        "июл",
        -9.38332204167067
      ],
      [
        "четырех",
        -9.384188475447058
      ],
      [
        "дет",
        -9.384853161966895
      ],
      [
        "китай",
        -9.384922061328671
      ],
      [
        "груз",
        -9.385026534644407
      ],
      [
        "служба",
        -9.38647679458129
      ],
      [
        "поддержку",
        -9.386552883660967
      ],
      [
        "информационны",
        -9.388071224345126
      ],
      [
        "on",
        -9.388616067335871
      ],
      [
        "be",
        -9.389756402793084
      ],
      [
        "региональны",
        -9.390667396560572
      ],
      [
        "много",
        -9.39166464988016
      ],
      [
        "прошлом",
        -9.393102727797038
      ],
      [
        "определен",
        -9.39506092112033
      ],
      [
        "выполнени",
        -9.395354129645456
      ],
      [
        "ские",
        -9.39667891167863
      ],
      [
        "метро",
        -9.39696254506986
      ],
      [
        "ры",
        -9.397832767180862
      ],
      [
        "шой",
        -9.398139193062418
      ],
      [
        "должности",
        -9.399215675058436
      ],
      [
        "сбор",
        -9.399650451081785
      ],
      [
        "прода",
        -9.40132966739617
      ],
      [
        "тонну",
        -9.403842807217812
      ],
      [
        "океан",
        -9.40436618507088
      ],
      [
        "резерв",
        -9.404374705218668
      ],
      [
        "отвеча",
        -9.404786871406236
      ],
      [
        "иться",
        -9.404913333268203
      ],
      [
        "запуск",
        -9.405333555365832
      ],
      [
        "больше",
        -9.405448745099049
      ],
      [
        "побед",
        -9.40572001155839
      ],
      [
        "преми",
        -9.406173152300077
      ],
      [
        "азербайджан",
        -9.407000307281162
      ],
      [
        "компенсаци",
        -9.407000307347866
      ],
      [
        "доказательств",
        -9.407000307907385
      ],
      [
        "трагеди",
        -9.407000309326031
      ],
      [
        "обеспечит",
        -9.407000322295756
      ],
      [
        "флорид",
        -9.40700032939157
      ],
      [
        "прежнему",
        -9.407000337266147
      ],
      [
        "сегодняшний",
        -9.407000417150087
      ],
      [
        "превыша",
        -9.407000630057887
      ],
      [
        "геннади",
        -9.407000824158139
      ],
      [
        "красноярск",
        -9.407001086239557
      ],
      [
        "соединенны",
        -9.407001456419898
      ],
      [
        "сесси",
        -9.407005984391894
      ],
      [
        "холер",
        -9.407056525282904
      ],
      [
        "одно",
        -9.407093418349412
      ],
      [
        "евгени",
        -9.407094299174076
      ],
      [
        "en",
        -9.40730765143104
      ],
      [
        "алексе",
        -9.40734260526228
      ],
      [
        "ази",
        -9.407430265702008
      ],
      [
        "американские",
        -9.407577645532651
      ],
      [
        "добавил",
        -9.408021217580416
      ],
      [
        "тур",
        -9.408692937146267
      ],
      [
        "эр",
        -9.408990750580845
      ],
      [
        "визит",
        -9.409438992730758
      ],
      [
        "уточнил",
        -9.409802452616066
      ],
      [
        "разрушен",
        -9.410513006357563
      ],
      [
        "создание",
        -9.410528625582103
      ],
      [
        "необходимость",
        -9.41065091811399
      ],
      [
        "фактически",
        -9.410805785977931
      ],
      [
        "состоявше",
        -9.412313766951353
      ],
      [
        "наук",
        -9.413951889392639
      ],
      [
        "первым",
        -9.414200298006694
      ],
      [
        "нынешни",
        -9.414544947033834
      ],
      [
        "подземны",
        -9.414581195593868
      ],
      [
        "остров",
        -9.414842837848244
      ],
      [
        "цы",
        -9.414879562949032
      ],
      [
        "перед",
        -9.41607679564772
      ],
      [
        "вашингтон",
        -9.41715183219568
      ],
      [
        "заседание",
        -9.417342595559061
      ],
      [
        "бумаг",
        -9.418079930469977
      ],
      [
        "делам",
        -9.41826389304828
      ],
      [
        "космически",
        -9.418367089706166
      ],
      [
        "восстановлени",
        -9.418420392518406
      ],
      [
        "готовности",
        -9.419288964142666
      ],
      [
        "строительств",
        -9.420078596593488
      ],
      [
        "ющий",
        -9.420473277454624
      ],
      [
        "учреждения",
        -9.420642829928848
      ],
      [
        "границе",
        -9.42095460890929
      ],
      [
        "дорог",
        -9.421597952825032
      ],
      [
        "продолжа",
        -9.421629902070727
      ],
      [
        "представлен",
        -9.423195831825
      ],
      [
        "ноч",
        -9.423301615324089
      ],
      [
        "финансовой",
        -9.423331320152359
      ],
      [
        "обнаружили",
        -9.425907141361677
      ],
      [
        "решени",
        -9.426306224378349
      ],
      [
        "рассмотрени",
        -9.426342426628345
      ],
      [
        "неизвестно",
        -9.426405622648485
      ],
      [
        "деле",
        -9.427038051836488
      ],
      [
        "конца",
        -9.427872615702281
      ],
      [
        "нарушения",
        -9.428207756572395
      ],
      [
        "данно",
        -9.429279648450443
      ],
      [
        "ции",
        -9.429835808075135
      ],
      [
        "конце",
        -9.430157473236102
      ],
      [
        "ген",
        -9.430807062013566
      ],
      [
        "ракеты",
        -9.431520308555214
      ],
      [
        "индонезии",
        -9.432330603760418
      ],
      [
        "прямо",
        -9.432397406205386
      ],
      [
        "национально",
        -9.432887052781759
      ],
      [
        "восточной",
        -9.43354244061421
      ],
      [
        "вать",
        -9.433868748270202
      ],
      [
        "пяти",
        -9.434114773003982
      ],
      [
        "москв",
        -9.43433034389529
      ],
      [
        "курс",
        -9.434484826726045
      ],
      [
        "дали",
        -9.43552916991489
      ],
      [
        "ранен",
        -9.435860546456167
      ],
      [
        "кро",
        -9.43802178265458
      ],
      [
        "суммы",
        -9.438366217127905
      ],
      [
        "кп",
        -9.438520249762782
      ],
      [
        "вел",
        -9.439082978077108
      ],
      [
        "опубликован",
        -9.439226322578682
      ],
      [
        "необходимы",
        -9.439251938572335
      ],
      [
        "предложен",
        -9.4414036520114
      ],
      [
        "деятельность",
        -9.441988363157591
      ],
      [
        "ским",
        -9.44384507328005
      ],
      [
        "vi",
        -9.444961318308895
      ],
      [
        "la",
        -9.44674561402578
      ],
      [
        "журнал",
        -9.447052083184289
      ],
      [
        "гур",
        -9.447113165141953
      ],
      [
        "проходит",
        -9.44778030227159
      ],
      [
        "тверждают",
        -9.447830605501085
      ],
      [
        "рез",
        -9.448093943584432
      ],
      [
        "близ",
        -9.448292562160196
      ],
      [
        "гаранти",
        -9.44838535984903
      ],
      [
        "мексик",
        -9.448647323573681
      ],
      [
        "якушкин",
        -9.448666976855293
      ],
      [
        "сокращени",
        -9.448667032588677
      ],
      [
        "феврал",
        -9.448667172662653
      ],
      [
        "тюрьм",
        -9.44866718430361
      ],
      [
        "исключает",
        -9.448667728922466
      ],
      [
        "анатолий",
        -9.44866879855473
      ],
      [
        "золото",
        -9.448669489158371
      ],
      [
        "албанц",
        -9.448672878945509
      ],
      [
        "обычно",
        -9.448674941546415
      ],
      [
        "пакет",
        -9.44871098482257
      ],
      [
        "значительны",
        -9.44871165897117
      ],
      [
        "mar",
        -9.44878275297805
      ],
      [
        "сахар",
        -9.448790808307386
      ],
      [
        "предмет",
        -9.448814791245454
      ],
      [
        "предложил",
        -9.448893471132699
      ],
      [
        "рубля",
        -9.448934414543693
      ],
      [
        "сервер",
        -9.449055547554199
      ],
      [
        "госдепартамент",
        -9.449186601433793
      ],
      [
        "березовский",
        -9.449204939795028
      ],
      [
        "подозреваемы",
        -9.449893276387973
      ],
      [
        "московски",
        -9.450198231917213
      ],
      [
        "приказ",
        -9.450214550019602
      ],
      [
        "будет",
        -9.45067202072485
      ],
      [
        "сохрани",
        -9.450866050672968
      ],
      [
        "финансировани",
        -9.45104324306041
      ],
      [
        "китайско",
        -9.451152767123611
      ],
      [
        "возбуждено",
        -9.451396376493449
      ],
      [
        "кири",
        -9.45160014493897
      ],
      [
        "готовы",
        -9.45211106247069
      ],
      [
        "большо",
        -9.452178494679725
      ],
      [
        "резко",
        -9.45328720088262
      ],
      [
        "крупных",
        -9.453304981652263
      ],
      [
        "террористических",
        -9.454637650098073
      ],
      [
        "властям",
        -9.45569717838583
      ],
      [
        "минск",
        -9.456399875722479
      ],
      [
        "полицейски",
        -9.457399325946605
      ],
      [
        "ились",
        -9.45746355416132
      ],
      [
        "призна",
        -9.458919813453154
      ],
      [
        "предотвращени",
        -9.45899133529349
      ],
      [
        "любо",
        -9.458996588899007
      ],
      [
        "японски",
        -9.459202262965452
      ],
      [
        "количеств",
        -9.45937608463348
      ],
      [
        "числа",
        -9.460000557425708
      ],
      [
        "изменения",
        -9.460061640469005
      ],
      [
        "разведк",
        -9.460447437642669
      ],
      [
        "требования",
        -9.460581503529202
      ],
      [
        "британск",
        -9.460737575985993
      ],
      [
        "крупнейше",
        -9.460801025908669
      ],
      [
        "нарушени",
        -9.461244497592077
      ],
      [
        "сильны",
        -9.461790292954866
      ],
      [
        "управление",
        -9.461864228679536
      ],
      [
        "всего",
        -9.462983274701642
      ],
      [
        "имени",
        -9.463178616315568
      ],
      [
        "прекращени",
        -9.463785174086329
      ],
      [
        "полученны",
        -9.464206384861821
      ],
      [
        "карт",
        -9.464477732414004
      ],
      [
        "вызван",
        -9.464865139266884
      ],
      [
        "протеста",
        -9.465966216936527
      ],
      [
        "погибл",
        -9.466603753144573
      ],
      [
        "лес",
        -9.466682574999716
      ],
      [
        "организация",
        -9.467512138711049
      ],
      [
        "gr",
        -9.467666903962764
      ],
      [
        "проверк",
        -9.467977801664272
      ],
      [
        "сб",
        -9.468038201990137
      ],
      [
        "ирует",
        -9.469811033615331
      ],
      [
        "представительств",
        -9.470777031828693
      ],
      [
        "топ",
        -9.471101140748393
      ],
      [
        "восточны",
        -9.471193532443127
      ],
      [
        "переход",
        -9.471309040107535
      ],
      [
        "рао",
        -9.47157934161254
      ],
      [
        "противник",
        -9.47522870267114
      ],
      [
        "обо",
        -9.475585492742114
      ],
      [
        "американской",
        -9.475707692982523
      ],
      [
        "развитие",
        -9.477192796064752
      ],
      [
        "нные",
        -9.477382618016797
      ],
      [
        "вос",
        -9.478101292031806
      ],
      [
        "массовы",
        -9.480164488518117
      ],
      [
        "вашингтоне",
        -9.481207593353322
      ],
      [
        "сообщени",
        -9.481258889025371
      ],
      [
        "татарстан",
        -9.483250650547685
      ],
      [
        "террористам",
        -9.483547253884192
      ],
      [
        "общества",
        -9.483780628937287
      ],
      [
        "сами",
        -9.483985567675546
      ],
      [
        "смерт",
        -9.484182999441652
      ],
      [
        "подготовлен",
        -9.484837569866727
      ],
      [
        "дор",
        -9.485172466138007
      ],
      [
        "вор",
        -9.486121054422682
      ],
      [
        "здани",
        -9.48648296970687
      ],
      [
        "транснефт",
        -9.487449118783413
      ],
      [
        "может",
        -9.488470268555613
      ],
      [
        "напомни",
        -9.488784646793587
      ],
      [
        "могли",
        -9.488926701896855
      ],
      [
        "обвинени",
        -9.490907766189718
      ],
      [
        "секретаря",
        -9.491193307990917
      ],
      [
        "силам",
        -9.491779070710312
      ],
      [
        "'",
        -9.492145234817372
      ],
      [
        "заместителя",
        -9.492145235557624
      ],
      [
        "процедур",
        -9.49214526814168
      ],
      [
        "корпус",
        -9.492145389286005
      ],
      [
        "сергея",
        -9.492148212602988
      ],
      [
        "минимум",
        -9.492148285381196
      ],
      [
        "испани",
        -9.492151390518579
      ],
      [
        "майор",
        -9.492163195535213
      ],
      [
        "текст",
        -9.49216532193593
      ],
      [
        "мужчин",
        -9.492183101918982
      ],
      [
        "dow",
        -9.49240178404975
      ],
      [
        "поздн",
        -9.492415093253594
      ],
      [
        "отказыва",
        -9.492751502064817
      ],
      [
        "платы",
        -9.492798113880637
      ],
      [
        "щик",
        -9.493534965083786
      ],
      [
        "ip",
        -9.49385054685088
      ],
      [
        "de",
        -9.493947973399411
      ],
      [
        "причастност",
        -9.495904942202586
      ],
      [
        "/",
        -9.4963901206699
      ],
      [
        "успешно",
        -9.496492908339542
      ],
      [
        "миротворчески",
        -9.496755988998288
      ],
      [
        "сможет",
        -9.4969266429462
      ],
      [
        "электронно",
        -9.497130336167421
      ],
      [
        "передал",
        -9.497194163735584
      ],
      [
        "предполага",
        -9.49753746198813
      ],
      [
        "привел",
        -9.498588790227805
      ],
      [
        "работает",
        -9.49869906735377
      ],
      [
        "чик",
        -9.499356725290863
      ],
      [
        "независимост",
        -9.499841463486495
      ],
      [
        "военнослужащих",
        -9.49984953927602
      ],
      [
        "каких",
        -9.500708637964225
      ],
      [
        "требует",
        -9.500832287333134
      ],
      [
        "ресурс",
        -9.501521348724998
      ],
      [
        "конференци",
        -9.501728983169283
      ],
      [
        "борьбы",
        -9.502227826110536
      ],
      [
        "ликвидации",
        -9.502941210246824
      ],
      [
        "завода",
        -9.503228580261299
      ],
      [
        "предусматривает",
        -9.503253584766908
      ],
      [
        "даст",
        -9.503781022858263
      ],
      [
        "бер",
        -9.50420272132482
      ],
      [
        "чен",
        -9.505039483780685
      ],
      [
        "усилия",
        -9.506219241053152
      ],
      [
        "взорва",
        -9.506409594946083
      ],
      [
        "она",
        -9.506520678363978
      ],
      [
        "эфире",
        -9.507214355898164
      ],
      [
        "el",
        -9.508042387812147
      ],
      [
        "ится",
        -9.5095887172134
      ],
      [
        "закрыты",
        -9.510259866056336
      ],
      [
        "долга",
        -9.510559230452149
      ],
      [
        "ается",
        -9.512012825798664
      ],
      [
        "вещ",
        -9.512254385489978
      ],
      [
        "домен",
        -9.513220862166309
      ],
      [
        "порт",
        -9.513630724318906
      ],
      [
        "ак",
        -9.51402667010687
      ],
      [
        "участк",
        -9.515958878558532
      ],
      [
        "боевы",
        -9.516512523054306
      ],
      [
        "зыва",
        -9.516820113144634
      ],
      [
        "обязанност",
        -9.516948885699735
      ],
      [
        "бор",
        -9.517311604325442
      ],
      [
        "должност",
        -9.518708680420223
      ],
      [
        "пришл",
        -9.518758872454615
      ],
      [
        "погиб",
        -9.518836674258559
      ],
      [
        "политических",
        -9.520006078121195
      ],
      [
        "преступлени",
        -9.52049779197716
      ],
      [
        "вернуть",
        -9.521007174414033
      ],
      [
        "арестован",
        -9.521428214468301
      ],
      [
        "канала",
        -9.52170036121505
      ],
      [
        "хся",
        -9.523049325273876
      ],
      [
        "открыто",
        -9.523082978827025
      ],
      [
        "акт",
        -9.523214298560587
      ],
      [
        "пенси",
        -9.524141485763343
      ],
      [
        "торгово",
        -9.525118713084405
      ],
      [
        "лидера",
        -9.526236808779498
      ],
      [
        "пришло",
        -9.526508536334612
      ],
      [
        "l",
        -9.527311293965134
      ],
      [
        "чески",
        -9.528169901760439
      ],
      [
        "др",
        -9.528174867511904
      ],
      [
        "северно",
        -9.529287010691803
      ],
      [
        "руководителя",
        -9.53014199990141
      ],
      [
        "стала",
        -9.530169481600236
      ],
      [
        "израил",
        -9.530373548112589
      ],
      [
        "ации",
        -9.531101577970954
      ],
      [
        "изменени",
        -9.531314866348739
      ],
      [
        "продукци",
        -9.531856397592128
      ],
      [
        "спец",
        -9.535025688413562
      ],
      [
        "самой",
        -9.536142305680682
      ],
      [
        "долго",
        -9.536430364060058
      ],
      [
        "побережь",
        -9.537599780411309
      ],
      [
        "суббот",
        -9.537599784718516
      ],
      [
        "организатор",
        -9.537599790961027
      ],
      [
        "облигаци",
        -9.537599791047553
      ],
      [
        "окончани",
        -9.537599857691236
      ],
      [
        "кризис",
        -9.537599877744436
      ],
      [
        "батурин",
        -9.537601200435518
      ],
      [
        "капитал",
        -9.537602210011919
      ],
      [
        "заметил",
        -9.537602765514448
      ],
      [
        "начнет",
        -9.537616809562717
      ],
      [
        "дьяч",
        -9.537632989889559
      ],
      [
        "целя",
        -9.53765413757459
      ],
      [
        "сейчас",
        -9.53768978154432
      ],
      [
        "бандформировани",
        -9.537732372714519
      ],
      [
        "бородин",
        -9.537750826629916
      ],
      [
        "христ",
        -9.537798486033456
      ],
      [
        "центробанк",
        -9.53787114295457
      ],
      [
        "переведен",
        -9.537961918291167
      ],
      [
        "ды",
        -9.538181182140749
      ],
      [
        "иванов",
        -9.538242976706162
      ],
      [
        "кремл",
        -9.538275865026257
      ],
      [
        "освобожден",
        -9.538504517096033
      ],
      [
        "уничтожени",
        -9.53860531514037
      ],
      [
        "здоровь",
        -9.538793947073074
      ],
      [
        "авиаци",
        -9.53958293535741
      ],
      [
        "рыно",
        -9.539621491506304
      ],
      [
        "предложение",
        -9.539634451154077
      ],
      [
        "ному",
        -9.540072903183784
      ],
      [
        "частны",
        -9.540321631762007
      ],
      [
        "услови",
        -9.54054192368748
      ],
      [
        "канал",
        -9.540870711527841
      ],
      [
        "состоится",
        -9.541169102485789
      ],
      [
        "быков",
        -9.541750938574538
      ],
      [
        "слушания",
        -9.541940232510349
      ],
      [
        "сама",
        -9.542035175646784
      ],
      [
        "сайта",
        -9.542224676286246
      ],
      [
        "заседания",
        -9.542247854582266
      ],
      [
        "работают",
        -9.542345883170963
      ],
      [
        "террористическо",
        -9.54248290952299
      ],
      [
        "порядо",
        -9.542679249824248
      ],
      [
        "валерий",
        -9.543328349269666
      ],
      [
        "ваться",
        -9.543732926445484
      ],
      [
        "силу",
        -9.543990548213046
      ],
      [
        "этап",
        -9.546648734651264
      ],
      [
        "администрация",
        -9.547030504818867
      ],
      [
        "толчк",
        -9.547086288049027
      ],
      [
        "авто",
        -9.5475179466983
      ],
      [
        "част",
        -9.547766822964906
      ],
      [
        "объединения",
        -9.547957421190347
      ],
      [
        "убежден",
        -9.548781119235239
      ],
      [
        "партия",
        -9.549024493956896
      ],
      [
        "кредитор",
        -9.549279640591948
      ],
      [
        "коллег",
        -9.549732991758042
      ],
      [
        "пошлин",
        -9.54979372166283
      ],
      [
        "платеж",
        -9.54986566697799
      ],
      [
        "актов",
        -9.551240044360956
      ],
      [
        "посольства",
        -9.55135597562281
      ],
      [
        "андрей",
        -9.552959148139522
      ],
      [
        "начинает",
        -9.555181342751943
      ],
      [
        "сто",
        -9.555372727132651
      ],
      [
        "устройство",
        -9.555534952095549
      ],
      [
        "составит",
        -9.55643243366466
      ],
      [
        "преступления",
        -9.556944005507138
      ],
      [
        "землетрясение",
        -9.559757912254558
      ],
      [
        "экстремист",
        -9.56023150640692
      ],
      [
        "стра",
        -9.560563336224115
      ],
      [
        "боевикам",
        -9.561510106515522
      ],
      [
        "полу",
        -9.565292727580289
      ],
      [
        "заявления",
        -9.565800144402635
      ],
      [
        "раздел",
        -9.566220246789843
      ],
      [
        "председател",
        -9.566480134473215
      ],
      [
        "уд",
        -9.56695818375271
      ],
      [
        "был",
        -9.568061329844154
      ],
      [
        "действова",
        -9.568172553281517
      ],
      [
        "нер",
        -9.570225877371868
      ],
      [
        "храни",
        -9.572087460879798
      ],
      [
        "представит",
        -9.57263700597101
      ],
      [
        "сведени",
        -9.573082442565164
      ],
      [
        "пакистан",
        -9.574018318886608
      ],
      [
        "обратил",
        -9.574467609321854
      ],
      [
        "отделени",
        -9.57582837494785
      ],
      [
        "дополнительны",
        -9.576724511145656
      ],
      [
        "давал",
        -9.577696114362043
      ],
      [
        "жириновск",
        -9.57797463396053
      ],
      [
        "торг",
        -9.578508887190967
      ],
      [
        "последнее",
        -9.579827480465514
      ],
      [
        "режима",
        -9.581272124592662
      ],
      [
        "сколько",
        -9.582880598353558
      ],
      [
        "сот",
        -9.582926369295249
      ],
      [
        "серб",
        -9.584841232133225
      ],
      [
        "оппозици",
        -9.585098590387718
      ],
      [
        "альянс",
        -9.585215092914565
      ],
      [
        "черномырдин",
        -9.585218827906326
      ],
      [
        "референдум",
        -9.585218828191667
      ],
      [
        "волгодонск",
        -9.585218828978324
      ],
      [
        "штраф",
        -9.585218892500734
      ],
      [
        "съезд",
        -9.585219019277297
      ],
      [
        "валентин",
        -9.585219283123697
      ],
      [
        "касьянов",
        -9.585221785952019
      ],
      [
        "происходит",
        -9.58523195510116
      ],
      [
        "лазар",
        -9.58524663884711
      ],
      [
        "архив",
        -9.58525005395291
      ],
      [
        "исследования",
        -9.585289231009076
      ],
      [
        "второ",
        -9.585299664322761
      ],
      [
        "бесед",
        -9.585559839732793
      ],
      [
        "связ",
        -9.586088236261384
      ],
      [
        "секретны",
        -9.586097354931237
      ],
      [
        "повышение",
        -9.586156200105897
      ],
      [
        "достигнут",
        -9.586200441680635
      ],
      [
        "апрел",
        -9.586309520262539
      ],
      [
        "достиг",
        -9.586328961097617
      ],
      [
        "оказать",
        -9.587690972482147
      ],
      [
        "телеканал",
        -9.588332772447687
      ],
      [
        "to",
        -9.589304509292745
      ],
      [
        "данном",
        -9.590916878222044
      ],
      [
        "сеть",
        -9.591279748644865
      ],
      [
        "сахалинск",
        -9.59169959012402
      ],
      [
        "мел",
        -9.591927193397076
      ],
      [
        "сад",
        -9.592393182657625
      ],
      [
        "российско",
        -9.592641586674873
      ],
      [
        "выпуска",
        -9.592986588924024
      ],
      [
        "настоящи",
        -9.593020853807841
      ],
      [
        "lo",
        -9.593684121880369
      ],
      [
        "or",
        -9.59417433144084
      ],
      [
        "наблюда",
        -9.595170918088904
      ],
      [
        "наличи",
        -9.595644735054554
      ],
      [
        "вышл",
        -9.59646785341688
      ],
      [
        "чили",
        -9.596881250869968
      ],
      [
        "америк",
        -9.597849552768908
      ],
      [
        "швейцарски",
        -9.59870792942303
      ],
      [
        "ское",
        -9.599996369826167
      ],
      [
        "московских",
        -9.600873822504475
      ],
      [
        "вели",
        -9.601915318549032
      ],
      [
        "пом",
        -9.602376466079601
      ],
      [
        "ведомств",
        -9.603866977246316
      ],
      [
        "нужно",
        -9.604296075419462
      ],
      [
        "случай",
        -9.604355888517556
      ],
      [
        "столь",
        -9.604581197454294
      ],
      [
        "област",
        -9.605195978899758
      ],
      [
        "нос",
        -9.605303796641437
      ],
      [
        "it",
        -9.606059413385719
      ],
      [
        "соглашения",
        -9.606107426140127
      ],
      [
        "ены",
        -9.607100987597148
      ],
      [
        "департамента",
        -9.60726351678808
      ],
      [
        "полет",
        -9.607694632836408
      ],
      [
        "джи",
        -9.607828728301062
      ],
      [
        "нарушение",
        -9.608653016103695
      ],
      [
        "сс",
        -9.608864661868742
      ],
      [
        "округ",
        -9.610306799915312
      ],
      [
        "фирма",
        -9.610393396936312
      ],
      [
        "говорить",
        -9.610444229486376
      ],
      [
        "копи",
        -9.611946393924626
      ],
      [
        "оборон",
        -9.612091047968123
      ],
      [
        "an",
        -9.6124999924113
      ],
      [
        "подобн",
        -9.613240256200426
      ],
      [
        "осуществля",
        -9.613255014713566
      ],
      [
        "un",
        -9.613608683891373
      ],
      [
        "ении",
        -9.613752914064062
      ],
      [
        "ясно",
        -9.614539797638407
      ],
      [
        "лицензи",
        -9.614726645005739
      ],
      [
        "округа",
        -9.615962502658704
      ],
      [
        "мешк",
        -9.616116153256563
      ],
      [
        "сан",
        -9.618763958515448
      ],
      [
        "явля",
        -9.620231557781956
      ],
      [
        "общи",
        -9.620276233195547
      ],
      [
        "пр",
        -9.620424999535784
      ],
      [
        "медик",
        -9.623219297599025
      ],
      [
        "автор",
        -9.62706489361721
      ],
      [
        "кредитов",
        -9.62741869476925
      ],
      [
        "митинг",
        -9.627633108195326
      ],
      [
        "фр",
        -9.628958630929203
      ],
      [
        "прежде",
        -9.629261769077882
      ],
      [
        "скоро",
        -9.629629116141041
      ],
      [
        "берег",
        -9.629864512706403
      ],
      [
        "отрица",
        -9.630138613130326
      ],
      [
        "нобелевск",
        -9.63048587100526
      ],
      [
        "брать",
        -9.630890071182442
      ],
      [
        "раза",
        -9.631600420733047
      ],
      [
        "полагаю",
        -9.632345654000808
      ],
      [
        "порнографи",
        -9.632837214453124
      ],
      [
        "расследовани",
        -9.633285238335924
      ],
      [
        "помещен",
        -9.633623400587494
      ],
      [
        "мера",
        -9.633899853448277
      ],
      [
        "подчеркивает",
        -9.633945526828509
      ],
      [
        "объединенно",
        -9.634347730063032
      ],
      [
        "березовск",
        -9.634571162528559
      ],
      [
        "мая",
        -9.634762980606006
      ],
      [
        "зрения",
        -9.635131898731084
      ],
      [
        "№",
        -9.635218827890965
      ],
      [
        "столкновени",
        -9.635218827920063
      ],
      [
        "абсолютно",
        -9.635218827938676
      ],
      [
        "присутстви",
        -9.635218828013194
      ],
      [
        "благодар",
        -9.635218894384595
      ],
      [
        "сигнал",
        -9.635218956087986
      ],
      [
        "многочисленны",
        -9.635219897664852
      ],
      [
        "реструктуризаци",
        -9.635220376422117
      ],
      [
        "утечк",
        -9.635221441352193
      ],
      [
        "когда",
        -9.63522428342155
      ],
      [
        "тюмен",
        -9.635244378819493
      ],
      [
        "контакт",
        -9.635259460301102
      ],
      [
        "января",
        -9.635267950137248
      ],
      [
        "чиновник",
        -9.635274988698066
      ],
      [
        "наказани",
        -9.63528483569801
      ],
      [
        "подозрени",
        -9.635308585987687
      ],
      [
        "аться",
        -9.63539732456392
      ],
      [
        "win",
        -9.6354058116332
      ],
      [
        "отдельны",
        -9.635518664191501
      ],
      [
        "век",
        -9.635617969933513
      ],
      [
        "автомашин",
        -9.635630043780157
      ],
      [
        "масштаб",
        -9.63569333879032
      ],
      [
        "туда",
        -9.636120353545248
      ],
      [
        "центрального",
        -9.636129058418412
      ],
      [
        "кфор",
        -9.63652075212243
      ],
      [
        "станция",
        -9.63671886759662
      ],
      [
        "овень",
        -9.6367475668503
      ],
      [
        "итали",
        -9.636849194748073
      ],
      [
        "едино",
        -9.637027286775885
      ],
      [
        "тому",
        -9.637511115443562
      ],
      [
        "ад",
        -9.637867598452239
      ],
      [
        "угроза",
        -9.637991208488064
      ],
      [
        "производство",
        -9.6385967252298
      ],
      [
        "большинств",
        -9.640205465136159
      ],
      [
        "выдач",
        -9.640272622014201
      ],
      [
        "глаз",
        -9.641525488738765
      ],
      [
        "сложност",
        -9.641927881809234
      ],
      [
        "вшая",
        -9.642354762101407
      ],
      [
        "вошл",
        -9.642708573141404
      ],
      [
        "митинга",
        -9.64277157619993
      ],
      [
        "названием",
        -9.644692977182228
      ],
      [
        "попал",
        -9.645074211243328
      ],
      [
        "проверя",
        -9.64564269379547
      ],
      [
        "налоговой",
        -9.645661149284015
      ],
      [
        "оперативны",
        -9.64622038059389
      ],
      [
        "обсужда",
        -9.646719574977833
      ],
      [
        "тера",
        -9.648017338449456
      ],
      [
        "управлении",
        -9.648408033988558
      ],
      [
        "отделения",
        -9.648462781613684
      ],
      [
        "ческих",
        -9.649136652151936
      ],
      [
        "собственны",
        -9.64959337911722
      ],
      [
        "приняла",
        -9.650049823843716
      ],
      [
        "получен",
        -9.651554062664276
      ],
      [
        "бан",
        -9.65161885412471
      ],
      [
        "квартире",
        -9.651649826473307
      ],
      [
        "обязательства",
        -9.652583548759795
      ],
      [
        "поступа",
        -9.653056748674713
      ],
      [
        "падение",
        -9.655154325414614
      ],
      [
        "зим",
        -9.65533363797706
      ],
      [
        "умер",
        -9.655786645372025
      ],
      [
        "ведения",
        -9.656313219136909
      ],
      [
        "назначен",
        -9.65656710621297
      ],
      [
        "космическо",
        -9.656906222035524
      ],
      [
        "прост",
        -9.657697276680922
      ],
      [
        "черно",
        -9.658268159984765
      ],
      [
        "дает",
        -9.65862763995549
      ],
      [
        "экономики",
        -9.659291668440591
      ],
      [
        "вшей",
        -9.659509311576917
      ],
      [
        "опасны",
        -9.659538217884906
      ],
      [
        "разработан",
        -9.659997437177344
      ],
      [
        "районов",
        -9.660194274341503
      ],
      [
        "объединение",
        -9.660759405824036
      ],
      [
        "французски",
        -9.661197152598337
      ],
      [
        "ант",
        -9.662976814794098
      ],
      [
        "st",
        -9.663714158820188
      ],
      [
        "открыти",
        -9.663721617448768
      ],
      [
        "треть",
        -9.66394172750999
      ],
      [
        "sa",
        -9.664367314331168
      ],
      [
        "вполн",
        -9.66505798864642
      ],
      [
        "чтени",
        -9.665727346500782
      ],
      [
        "оценивает",
        -9.665837456916602
      ],
      [
        "сотрудникам",
        -9.66651163095537
      ],
      [
        "подобно",
        -9.667250299968137
      ],
      [
        "итель",
        -9.667775425880878
      ],
      [
        "омон",
        -9.668023739989437
      ],
      [
        "крупнейш",
        -9.670203789879572
      ],
      [
        "овые",
        -9.670564681608269
      ],
      [
        "мид",
        -9.670582585267558
      ],
      [
        "друго",
        -9.670886453104956
      ],
      [
        "роль",
        -9.671713589019138
      ],
      [
        "чест",
        -9.673008629445318
      ],
      [
        "доступа",
        -9.673021473903342
      ],
      [
        "правления",
        -9.673275803711583
      ],
      [
        "тельно",
        -9.674428481921437
      ],
      [
        "суде",
        -9.674548191179053
      ],
      [
        "ладена",
        -9.674711322706901
      ],
      [
        "отмен",
        -9.675787237335246
      ],
      [
        "...",
        -9.675922643003695
      ],
      [
        "пят",
        -9.677355786151976
      ],
      [
        "версия",
        -9.677649320904848
      ],
      [
        "ук",
        -9.679389481284785
      ],
      [
        "su",
        -9.679819946335623
      ],
      [
        "игра",
        -9.679883596677612
      ],
      [
        "голов",
        -9.680149159200607
      ],
      [
        "чеченц",
        -9.68044896179526
      ],
      [
        "дель",
        -9.68126940965492
      ],
      [
        "ожида",
        -9.6819569780876
      ],
      [
        "проголосовал",
        -9.684723069662134
      ],
      [
        "чита",
        -9.684818432077577
      ],
      [
        "конц",
        -9.685613676553352
      ],
      [
        "отдел",
        -9.6866478083889
      ],
      [
        "j",
        -9.687165569961039
      ],
      [
        "сект",
        -9.687525636153616
      ],
      [
        "z",
        -9.687640394685301
      ],
      [
        "коммуникаци",
        -9.687661186899682
      ],
      [
        "пользу",
        -9.68767624024475
      ],
      [
        "вещани",
        -9.687822403807033
      ],
      [
        "памят",
        -9.687822909266455
      ],
      [
        "3",
        -9.687850406838333
      ],
      [
        "обстоятельств",
        -9.687850406917974
      ],
      [
        "лаборатори",
        -9.687850406967017
      ],
      [
        "алмаз",
        -9.687850684904259
      ],
      [
        "флойд",
        -9.687850943988643
      ],
      [
        "завтра",
        -9.687851380414584
      ],
      [
        "станислав",
        -9.687851490266274
      ],
      [
        "воздух",
        -9.687853603784863
      ],
      [
        "добыч",
        -9.687863959910867
      ],
      [
        "хочет",
        -9.687872805199902
      ],
      [
        "призвал",
        -9.687920672271645
      ],
      [
        "аслан",
        -9.687925934678857
      ],
      [
        "талиб",
        -9.687979469245743
      ],
      [
        "надежд",
        -9.688018917189138
      ],
      [
        "опас",
        -9.688079380563487
      ],
      [
        "середин",
        -9.688128328457909
      ],
      [
        "опек",
        -9.688142514835434
      ],
      [
        "пиш",
        -9.688322137937133
      ],
      [
        "зоне",
        -9.688379582987462
      ],
      [
        "оборудование",
        -9.688425112358605
      ],
      [
        "поток",
        -9.688473248989247
      ],
      [
        "повтор",
        -9.68847829605538
      ],
      [
        "страниц",
        -9.688521785076649
      ],
      [
        "свет",
        -9.688673756584208
      ],
      [
        "дочер",
        -9.688805401404192
      ],
      [
        "безопасность",
        -9.68883646636645
      ],
      [
        "балл",
        -9.688880085357155
      ],
      [
        "фер",
        -9.688908920111993
      ],
      [
        "бизнесмен",
        -9.68902861381822
      ],
      [
        "военным",
        -9.689223163021142
      ],
      [
        "указан",
        -9.689466786440454
      ],
      [
        "каширском",
        -9.689619631618346
      ],
      [
        "ньше",
        -9.689758107875651
      ],
      [
        "санкци",
        -9.691398328077053
      ],
      [
        "нефтяной",
        -9.691492622645445
      ],
      [
        "предъявлен",
        -9.691534461125642
      ],
      [
        "представителями",
        -9.692058473425325
      ],
      [
        "дач",
        -9.694815221834931
      ],
      [
        "снижени",
        -9.694979635916718
      ],
      [
        "три",
        -9.696117474195745
      ],
      [
        "срока",
        -9.696771717479582
      ],
      [
        "работал",
        -9.698097114173912
      ],
      [
        "утверждени",
        -9.698500771722157
      ],
      [
        "встреч",
        -9.699573560899486
      ],
      [
        "мероприятия",
        -9.699700760151908
      ],
      [
        "наших",
        -9.69993134814022
      ],
      [
        "чеченских",
        -9.700119876665052
      ],
      [
        "предыдущи",
        -9.700601621643223
      ],
      [
        "жилых",
        -9.701617036262132
      ],
      [
        "меди",
        -9.702064831810565
      ],
      [
        "подозрительны",
        -9.70208990318022
      ],
      [
        "сам",
        -9.703089180218683
      ],
      [
        "афин",
        -9.703263911730112
      ],
      [
        "высказал",
        -9.703542482358882
      ],
      [
        "власть",
        -9.704079352611714
      ],
      [
        "случа",
        -9.704096270402015
      ],
      [
        ">)",
        -9.704524606009679
      ],
      [
        "вани",
        -9.70501119229531
      ],
      [
        "существующи",
        -9.705348617001894
      ],
      [
        "источника",
        -9.705848949827857
      ],
      [
        "ci",
        -9.706585310127561
      ],
      [
        "располага",
        -9.707785400924038
      ],
      [
        "избирательны",
        -9.707818962841854
      ],
      [
        "вокзал",
        -9.70792806535133
      ],
      [
        "um",
        -9.707954956469457
      ],
      [
        "кол",
        -9.708821423629912
      ],
      [
        "обе",
        -9.709557497245209
      ],
      [
        "направления",
        -9.710159995124098
      ],
      [
        "ват",
        -9.710433063436092
      ],
      [
        "этого",
        -9.710516473375117
      ],
      [
        "инициатив",
        -9.711163944653805
      ],
      [
        "енных",
        -9.714070932173705
      ],
      [
        "потерял",
        -9.714886356879395
      ],
      [
        "нных",
        -9.715053062357992
      ],
      [
        "оценка",
        -9.715139283372583
      ],
      [
        "era",
        -9.71610438249904
      ],
      [
        "события",
        -9.716541599459402
      ],
      [
        "кредитны",
        -9.717120823866228
      ],
      [
        "оценк",
        -9.717190526183948
      ],
      [
        "один",
        -9.71807379507036
      ],
      [
        "пути",
        -9.720675506497926
      ],
      [
        "сотрудник",
        -9.720849876934363
      ],
      [
        "дер",
        -9.721638163237145
      ],
      [
        "увеличени",
        -9.721716942325102
      ],
      [
        "держать",
        -9.7218034492413
      ],
      [
        "бит",
        -9.722546200083231
      ],
      [
        "ющая",
        -9.723231925909133
      ],
      [
        "льгот",
        -9.725682282929775
      ],
      [
        "андре",
        -9.726235813040146
      ],
      [
        "ним",
        -9.726259588688364
      ],
      [
        "официальным",
        -9.726488152766246
      ],
      [
        "приняты",
        -9.726883419386674
      ],
      [
        "гося",
        -9.72740638687414
      ],
      [
        "входит",
        -9.727454211973432
      ],
      [
        "проведение",
        -9.727830613327379
      ],
      [
        "здании",
        -9.728726515613701
      ],
      [
        "находи",
        -9.729329890954558
      ],
      [
        "руд",
        -9.730685858849345
      ],
      [
        "север",
        -9.730941627142307
      ],
      [
        "мероприяти",
        -9.73102960284234
      ],
      [
        "мало",
        -9.731735939042977
      ],
      [
        "нести",
        -9.733956725733458
      ],
      [
        "откры",
        -9.734586485749153
      ],
      [
        "дети",
        -9.734823361497137
      ],
      [
        "независимо",
        -9.735012755323424
      ],
      [
        "степен",
        -9.735480852772765
      ],
      [
        "усили",
        -9.73660180870069
      ],
      [
        "курса",
        -9.736606786231429
      ],
      [
        "невозможно",
        -9.736719641358308
      ],
      [
        "следственн",
        -9.736861066652146
      ],
      [
        "правил",
        -9.73733251258555
      ],
      [
        "итальянск",
        -9.738537611945072
      ],
      [
        "опроверг",
        -9.738872958506864
      ],
      [
        "передан",
        -9.73892596227326
      ],
      [
        "иран",
        -9.73926549843361
      ],
      [
        "международны",
        -9.73962737616096
      ],
      [
        "wa",
        -9.73992939610211
      ],
      [
        "мирны",
        -9.740510477280157
      ],
      [
        "семей",
        -9.741074383241951
      ],
      [
        "десят",
        -9.741189221380797
      ],
      [
        "масс",
        -9.742225709459932
      ],
      [
        "подверг",
        -9.742697883195081
      ],
      [
        "поезд",
        -9.743144995657596
      ],
      [
        "прогноз",
        -9.743317615463207
      ],
      [
        "!",
        -9.74340596239389
      ],
      [
        "космодром",
        -9.74340596240362
      ],
      [
        "механизм",
        -9.743405963472828
      ],
      [
        "space",
        -9.743406003464017
      ],
      [
        "соблюдени",
        -9.74340610589151
      ],
      [
        "космос",
        -9.743406111818434
      ],
      [
        "госпитализирован",
        -9.743406144253646
      ],
      [
        "бригад",
        -9.74340645241864
      ],
      [
        "помощник",
        -9.743406933672652
      ],
      [
        "спикер",
        -9.743407210108147
      ],
      [
        "абхази",
        -9.743407751419172
      ],
      [
        "критик",
        -9.743412571091913
      ],
      [
        "соседни",
        -9.743412767852803
      ],
      [
        "пилот",
        -9.74342114565793
      ],
      [
        "договоренност",
        -9.743423683639215
      ],
      [
        "восьми",
        -9.743448278631503
      ],
      [
        "газпром",
        -9.743450215978784
      ],
      [
        "статус",
        -9.743457291634742
      ],
      [
        "преступностью",
        -9.743465017956574
      ],
      [
        "реклам",
        -9.743484892707738
      ],
      [
        "посла",
        -9.743535748600564
      ],
      [
        "автомат",
        -9.743610036364773
      ],
      [
        "ведущих",
        -9.743667017245048
      ],
      [
        "горяч",
        -9.743903685742598
      ],
      [
        "предложения",
        -9.744055006555461
      ],
      [
        "фунт",
        -9.744071980319626
      ],
      [
        "следует",
        -9.744100705926925
      ],
      [
        "прай",
        -9.744203426682741
      ],
      [
        "значает",
        -9.74432837927118
      ],
      [
        "военную",
        -9.744923653603117
      ],
      [
        "потребовал",
        -9.745179361301112
      ],
      [
        "соглашени",
        -9.745704904561343
      ],
      [
        "индонезийски",
        -9.745761045786619
      ],
      [
        "греци",
        -9.745786729432382
      ],
      [
        "десятк",
        -9.746079138247156
      ],
      [
        "устройств",
        -9.746919358731487
      ],
      [
        "нефте",
        -9.747123963653396
      ],
      [
        "диск",
        -9.74726917017937
      ],
      [
        "шенко",
        -9.747774310632547
      ],
      [
        "строев",
        -9.74783100753898
      ],
      [
        "казать",
        -9.747977590167471
      ],
      [
        "меж",
        -9.748266244099282
      ],
      [
        "органа",
        -9.748407069422523
      ],
      [
        "судьб",
        -9.748417845270453
      ],
      [
        "генерально",
        -9.749043247723165
      ],
      [
        "направля",
        -9.749473695986238
      ],
      [
        "транснефть",
        -9.749741179121983
      ],
      [
        "деятельностью",
        -9.750898410009775
      ],
      [
        "генпрокуратуры",
        -9.751153844892169
      ],
      [
        "премию",
        -9.751222469598835
      ],
      [
        "нул",
        -9.751608034585718
      ],
      [
        "людя",
        -9.751645739802296
      ],
      [
        "станут",
        -9.75166361643354
      ],
      [
        "открыва",
        -9.752052571447011
      ],
      [
        "установил",
        -9.752229494974827
      ],
      [
        "важны",
        -9.752659833886575
      ],
      [
        "гре",
        -9.752736726901398
      ],
      [
        "технически",
        -9.754019732758328
      ],
      [
        "работник",
        -9.754487983192512
      ],
      [
        "слух",
        -9.755042230370602
      ],
      [
        "соответствующе",
        -9.755270925754573
      ],
      [
        "требуют",
        -9.75546814612646
      ],
      [
        "террористы",
        -9.755792585264198
      ],
      [
        "пул",
        -9.756763759485294
      ],
      [
        "уход",
        -9.757503081045803
      ],
      [
        "правительственно",
        -9.758084307305163
      ],
      [
        "говорят",
        -9.7580918796549
      ],
      [
        "няя",
        -9.758699016671564
      ],
      [
        "предлагает",
        -9.759742784425569
      ],
      [
        "август",
        -9.759962448880554
      ],
      [
        "кова",
        -9.760086829382455
      ],
      [
        "вания",
        -9.760335966626759
      ],
      [
        "провод",
        -9.761921786385493
      ],
      [
        "международный",
        -9.762680454943071
      ],
      [
        "индонези",
        -9.763679743144737
      ],
      [
        "называемы",
        -9.764168285633273
      ],
      [
        "заключение",
        -9.764350130348225
      ],
      [
        "открыл",
        -9.764439166931494
      ],
      [
        "владельц",
        -9.764470015373307
      ],
      [
        "четверт",
        -9.765120069830916
      ],
      [
        "поста",
        -9.765441088524845
      ],
      [
        "британских",
        -9.76650413446503
      ],
      [
        "шести",
        -9.767417880664823
      ],
      [
        "вооружени",
        -9.767863028303427
      ],
      [
        "бол",
        -9.768909120388862
      ],
      [
        "распоряжение",
        -9.771384503228123
      ],
      [
        "годов",
        -9.771693947236257
      ],
      [
        "рода",
        -9.77234809240596
      ],
      [
        "зер",
        -9.772977206584516
      ],
      [
        "жена",
        -9.774639744151852
      ],
      [
        "департамент",
        -9.774783403741111
      ],
      [
        "автомобиль",
        -9.774848835893625
      ],
      [
        "боя",
        -9.774881691012276
      ],
      [
        "сообщениям",
        -9.775460822705325
      ],
      [
        "него",
        -9.775595152871446
      ],
      [
        "там",
        -9.775747228314078
      ],
      [
        "российском",
        -9.776207406314352
      ],
      [
        "университета",
        -9.776561500719378
      ],
      [
        "радиостанции",
        -9.776933612433778
      ],
      [
        "больны",
        -9.778594157313776
      ],
      [
        "центральны",
        -9.778705063610225
      ],
      [
        "лучши",
        -9.779011515207756
      ],
      [
        "at",
        -9.77910041702456
      ],
      [
        "новым",
        -9.779677270767433
      ],
      [
        "кто",
        -9.780671684663647
      ],
      [
        "na",
        -9.781651949733288
      ],
      [
        "организациям",
        -9.781884053791645
      ],
      [
        "политически",
        -9.782415448212845
      ],
      [
        "верх",
        -9.7833643211725
      ],
      [
        "последним",
        -9.784518515794739
      ],
      [
        "судом",
        -9.785707345988707
      ],
      [
        "действу",
        -9.78829657576129
      ],
      [
        "ers",
        -9.78892980315535
      ],
      [
        "стен",
        -9.789576647632057
      ],
      [
        "чеченски",
        -9.789990951167775
      ],
      [
        "июле",
        -9.790458957799434
      ],
      [
        "ограничени",
        -9.791797873981734
      ],
      [
        "транша",
        -9.792484327164985
      ],
      [
        "грозн",
        -9.793635571300015
      ],
      [
        "процента",
        -9.793747796205528
      ],
      [
        "дальнейше",
        -9.794677586937716
      ],
      [
        "лей",
        -9.794708665388594
      ],
      [
        "us",
        -9.795931434429027
      ],
      [
        "выполня",
        -9.798754544894784
      ],
      [
        "бл",
        -9.799659362995342
      ],
      [
        "преступлениям",
        -9.799745008710023
      ],
      [
        "избирательн",
        -9.799751821611311
      ],
      [
        "федеральным",
        -9.800284603678843
      ],
      [
        "предоставит",
        -9.800430374816399
      ],
      [
        "персонал",
        -9.800444981178252
      ],
      [
        "южн",
        -9.80060723962202
      ],
      [
        "легко",
        -9.801108581243046
      ],
      [
        "спе",
        -9.80159611740057
      ],
      [
        "полковник",
        -9.8016748328419
      ],
      [
        "посту",
        -9.801907456974448
      ],
      [
        "подъезд",
        -9.802173396901356
      ],
      [
        "ешня",
        -9.80220929071097
      ],
      [
        "руководству",
        -9.8022294918057
      ],
      [
        "деклараци",
        -9.802229491840105
      ],
      [
        "афганистан",
        -9.802229491866873
      ],
      [
        "эвакуаци",
        -9.802229492225525
      ],
      [
        "церемони",
        -9.802229492237036
      ],
      [
        "двигателя",
        -9.80222949254103
      ],
      [
        "окончательно",
        -9.802229494803186
      ],
      [
        "савельев",
        -9.802229495209065
      ],
      [
        "избежа",
        -9.802229548010182
      ],
      [
        "золота",
        -9.802229624811691
      ],
      [
        "командование",
        -9.80223058746774
      ],
      [
        "мазут",
        -9.802230839010434
      ],
      [
        "югослави",
        -9.802231553737977
      ],
      [
        "ежегодно",
        -9.80223178769903
      ],
      [
        "представил",
        -9.8022319407036
      ],
      [
        "протокол",
        -9.802232773484215
      ],
      [
        "применя",
        -9.80223450600356
      ],
      [
        "обломк",
        -9.802236481289246
      ],
      [
        "корабл",
        -9.802243873604494
      ],
      [
        "оборот",
        -9.802296786972393
      ],
      [
        "фильм",
        -9.802304310632755
      ],
      [
        "москвич",
        -9.802348594680765
      ],
      [
        "карточк",
        -9.802398716059605
      ],
      [
        "производителе",
        -9.802417294803217
      ],
      [
        "лука",
        -9.802645490624837
      ],
      [
        "реализаци",
        -9.802653259173095
      ],
      [
        "враг",
        -9.802700721775473
      ],
      [
        "использования",
        -9.802784490328447
      ],
      [
        "высокопоставленн",
        -9.802800442596
      ],
      [
        "нного",
        -9.802822036278013
      ],
      [
        "книг",
        -9.802841774074578
      ],
      [
        "игорь",
        -9.802886369668819
      ],
      [
        "иметь",
        -9.803012955797222
      ],
      [
        "тен",
        -9.803183029030171
      ],
      [
        "находились",
        -9.803425998354319
      ],
      [
        "перевоз",
        -9.803440059187992
      ],
      [
        "двор",
        -9.80356492411851
      ],
      [
        "фракци",
        -9.803748497661307
      ],
      [
        "главны",
        -9.803869053756795
      ],
      [
        "делами",
        -9.804459690948814
      ],
      [
        "проводится",
        -9.804936426360335
      ],
      [
        "паник",
        -9.805034765667035
      ],
      [
        "неоднократно",
        -9.805100772374715
      ],
      [
        "брай",
        -9.805672770624739
      ],
      [
        "семи",
        -9.805869941703415
      ],
      [
        "рейс",
        -9.806821842197133
      ],
      [
        "наблюдател",
        -9.806904804502807
      ],
      [
        "концерн",
        -9.807209634622616
      ],
      [
        "расчет",
        -9.807860214878314
      ],
      [
        "свидетельству",
        -9.808307320057567
      ],
      [
        "приводит",
        -9.808940377778924
      ],
      [
        "опасени",
        -9.808944449339613
      ],
      [
        "ками",
        -9.809211472731707
      ],
      [
        "чрезвычайным",
        -9.809406937959078
      ],
      [
        "скры",
        -9.809624325836126
      ],
      [
        "заключения",
        -9.809715197316395
      ],
      [
        "пытались",
        -9.810077521603901
      ],
      [
        "скорость",
        -9.810343643900222
      ],
      [
        "специальн",
        -9.810565938367192
      ],
      [
        "брат",
        -9.811328148612088
      ],
      [
        "предоставлен",
        -9.811545616311347
      ],
      [
        "планет",
        -9.812083676788923
      ],
      [
        "транш",
        -9.812095470950496
      ],
      [
        "ними",
        -9.812427275911732
      ],
      [
        "фотографи",
        -9.812602667082006
      ],
      [
        "осуществлять",
        -9.814282141728086
      ],
      [
        "взрывное",
        -9.814322011058866
      ],
      [
        "мировой",
        -9.814331905670326
      ],
      [
        "твер",
        -9.814422695893931
      ],
      [
        "меньшей",
        -9.814603523740914
      ],
      [
        "совместны",
        -9.814878757090293
      ],
      [
        "ввоз",
        -9.815265166015676
      ],
      [
        "возглавляем",
        -9.8165199403464
      ],
      [
        "обеспечению",
        -9.816571198429084
      ],
      [
        "кус",
        -9.81753062873807
      ],
      [
        "подписали",
        -9.817736920633156
      ],
      [
        "носит",
        -9.818630073058413
      ],
      [
        "беженцам",
        -9.819373313694424
      ],
      [
        "ъ",
        -9.819832243621443
      ],
      [
        "полномочи",
        -9.820531034195184
      ],
      [
        "чеченск",
        -9.821020796722408
      ],
      [
        "членам",
        -9.821490576339706
      ],
      [
        "видео",
        -9.822634722144532
      ],
      [
        "дили",
        -9.824240204641967
      ],
      [
        "давление",
        -9.82553114737711
      ],
      [
        "эн",
        -9.825770468641435
      ],
      [
        "правила",
        -9.826943026812497
      ],
      [
        "университет",
        -9.828573512782468
      ],
      [
        "нанесен",
        -9.828882033754496
      ],
      [
        "круг",
        -9.829412965121142
      ],
      [
        "высоки",
        -9.829542137170979
      ],
      [
        "проведени",
        -9.8326461008234
      ],
      [
        "ядерн",
        -9.833294276875186
      ],
      [
        "судь",
        -9.834451162401981
      ],
      [
        "цк",
        -9.83453541947705
      ],
      [
        "дар",
        -9.835556318114643
      ],
      [
        "руки",
        -9.836496835578316
      ],
      [
        "слу",
        -9.836930572606777
      ],
      [
        "организованн",
        -9.837145013609994
      ],
      [
        "заявля",
        -9.837455037654566
      ],
      [
        "ева",
        -9.837934413796251
      ],
      [
        "поз",
        -9.839187018551197
      ],
      [
        "изации",
        -9.839840854500416
      ],
      [
        "наступлени",
        -9.840703646104407
      ],
      [
        "обнаружи",
        -9.841045543161833
      ],
      [
        "российское",
        -9.841054326939151
      ],
      [
        "радиостанци",
        -9.841194492249217
      ],
      [
        "разрешени",
        -9.841239302495092
      ],
      [
        "вводит",
        -9.842233686386486
      ],
      [
        "кал",
        -9.842952994674054
      ],
      [
        "турист",
        -9.843873101907612
      ],
      [
        "совершенно",
        -9.844147007070685
      ],
      [
        "шев",
        -9.844526708777405
      ],
      [
        "вен",
        -9.845551013894623
      ],
      [
        "кост",
        -9.846402987111903
      ],
      [
        "пуст",
        -9.846439918898419
      ],
      [
        "возможным",
        -9.846531029309396
      ],
      [
        "требовани",
        -9.847530942462141
      ],
      [
        "жириновски",
        -9.848615806380021
      ],
      [
        "принимают",
        -9.849191439720542
      ],
      [
        "пут",
        -9.849297730813735
      ],
      [
        "поставк",
        -9.849830501628846
      ],
      [
        "хозяйств",
        -9.850188024789285
      ],
      [
        "литв",
        -9.850202698425822
      ],
      [
        "террорист",
        -9.850473791765502
      ],
      [
        "расс",
        -9.851263609838735
      ],
      [
        "начать",
        -9.851324566844553
      ],
      [
        "юрт",
        -9.851350172245326
      ],
      [
        "спеш",
        -9.851412930202923
      ],
      [
        "ган",
        -9.851564252084835
      ],
      [
        "арт",
        -9.851832615380761
      ],
      [
        "спи",
        -9.851973043180061
      ],
      [
        "наши",
        -9.852241685772439
      ],
      [
        "декабр",
        -9.852484315532282
      ],
      [
        "рав",
        -9.852743228877092
      ],
      [
        "dell",
        -9.853303886223285
      ],
      [
        "тройк",
        -9.853393500527607
      ],
      [
        "расположенны",
        -9.85471712211185
      ],
      [
        "прошлы",
        -9.854820434369833
      ],
      [
        "медицинско",
        -9.854958836212848
      ],
      [
        "швейцарско",
        -9.8557789533968
      ],
      [
        "возглавля",
        -9.856062919873704
      ],
      [
        "войскам",
        -9.857476733914982
      ],
      [
        "конфликта",
        -9.85771963733387
      ],
      [
        "щие",
        -9.857841688579152
      ],
      [
        "местном",
        -9.85870780723943
      ],
      [
        "зин",
        -9.859301332606563
      ],
      [
        "думаю",
        -9.859642296986337
      ],
      [
        "вечер",
        -9.860495715869588
      ],
      [
        "оставил",
        -9.861212790257428
      ],
      [
        "возник",
        -9.861457914323873
      ],
      [
        "дорож",
        -9.862012194736408
      ],
      [
        "достигл",
        -9.862415779136168
      ],
      [
        "земли",
        -9.862504590571012
      ],
      [
        "индекс",
        -9.862988574998017
      ],
      [
        "буде",
        -9.863134299708461
      ],
      [
        "поставил",
        -9.863337343544416
      ],
      [
        "двер",
        -9.863352511273689
      ],
      [
        "телерадиокомпани",
        -9.863584064234455
      ],
      [
        "телефонно",
        -9.863614309300026
      ],
      [
        "исполнительн",
        -9.86441203513435
      ],
      [
        "процент",
        -9.864465599502466
      ],
      [
        "очь",
        -9.864706933137455
      ],
      [
        "квартал",
        -9.864729487574067
      ],
      [
        "L",
        -9.864729491805662
      ],
      [
        "corrier",
        -9.864729491808635
      ],
      [
        "предварительно",
        -9.864729491991596
      ],
      [
        "махачкал",
        -9.864729492228427
      ],
      [
        "боеприпас",
        -9.864729492243203
      ],
      [
        "вячеслав",
        -9.864729493155503
      ],
      [
        "эпидеми",
        -9.86472949343986
      ],
      [
        "объяснил",
        -9.864729524352725
      ],
      [
        "хаттаб",
        -9.864729546756408
      ],
      [
        "внутри",
        -9.864729617042602
      ],
      [
        "служебн",
        -9.86472962979054
      ],
      [
        "переселенц",
        -9.864729714829085
      ],
      [
        "джордж",
        -9.864729812895956
      ],
      [
        "джеймс",
        -9.864729911778259
      ],
      [
        "согласован",
        -9.864730108999641
      ],
      [
        "депортаци",
        -9.864730771070159
      ],
      [
        "письмо",
        -9.864731999790093
      ],
      [
        "бактери",
        -9.864733642839031
      ],
      [
        "лагеря",
        -9.864738929264504
      ],
      [
        "звонк",
        -9.864739300088276
      ],
      [
        "помимо",
        -9.864742877095159
      ],
      [
        "клиник",
        -9.86474463536493
      ],
      [
        "птиц",
        -9.864755149042718
      ],
      [
        "зафиксирован",
        -9.864765280013723
      ],
      [
        "милиционер",
        -9.864768484871878
      ],
      [
        "баррел",
        -9.864803549459316
      ],
      [
        "brit",
        -9.864844145582957
      ],
      [
        "американц",
        -9.86486967993714
      ],
      [
        "сенат",
        -9.864961364107776
      ],
      [
        "единиц",
        -9.864990569376904
      ],
      [
        "ведомства",
        -9.86506192497129
      ],
      [
        "хлеб",
        -9.865119647664017
      ],
      [
        "современны",
        -9.865122478261174
      ],
      [
        "олег",
        -9.865139584234434
      ],
      [
        "приостановлен",
        -9.865197829820023
      ],
      [
        "цели",
        -9.865200977316977
      ],
      [
        "предназначен",
        -9.865243836273905
      ],
      [
        "досрочно",
        -9.865327783520147
      ],
      [
        "прекратить",
        -9.865375336518087
      ],
      [
        "шкал",
        -9.865383479827464
      ],
      [
        "собрания",
        -9.865396038717217
      ],
      [
        "намечен",
        -9.86543935555429
      ],
      [
        "взлет",
        -9.865750791729536
      ],
      [
        "марте",
        -9.865777554163241
      ],
      [
        "насили",
        -9.865789104976807
      ],
      [
        "использовании",
        -9.865911515208188
      ],
      [
        "падения",
        -9.866014296819369
      ],
      [
        "драк",
        -9.86607852748985
      ],
      [
        "имеющих",
        -9.866182974492554
      ],
      [
        "придется",
        -9.866301448852221
      ],
      [
        "son",
        -9.866420467883497
      ],
      [
        "ii",
        -9.866424396400573
      ],
      [
        "казывать",
        -9.866613283552372
      ],
      [
        "пункта",
        -9.866719965276934
      ],
      [
        "ссыл",
        -9.866864852996036
      ],
      [
        "городски",
        -9.86700707352719
      ],
      [
        "финансовые",
        -9.86704262296148
      ],
      [
        "lt",
        -9.867206775725625
      ],
      [
        "волн",
        -9.867217210754971
      ],
      [
        "сты",
        -9.867223369319653
      ],
      [
        "льный",
        -9.86724449221234
      ],
      [
        "закончи",
        -9.867334854488574
      ],
      [
        "лебедь",
        -9.868200416270042
      ],
      [
        "еще",
        -9.868417001063973
      ],
      [
        "обстрел",
        -9.869367809607557
      ],
      [
        "операционн",
        -9.86945521612783
      ],
      [
        "мал",
        -9.870282929058124
      ],
      [
        "муж",
        -9.870528939533441
      ],
      [
        "распростран",
        -9.870531352668788
      ],
      [
        "дол",
        -9.870947960644807
      ],
      [
        "нефтяны",
        -9.872001908657612
      ],
      [
        "эвакуирован",
        -9.872020956168583
      ],
      [
        "срочно",
        -9.872355183443547
      ],
      [
        "завершил",
        -9.872692787708761
      ],
      [
        "исход",
        -9.873506665406161
      ],
      [
        "законодательство",
        -9.873870487446887
      ],
      [
        "жителям",
        -9.874061465528868
      ],
      [
        "начали",
        -9.874425978067935
      ],
      [
        "имеются",
        -9.874715740983506
      ],
      [
        "содержани",
        -9.87524474611389
      ],
      [
        "урегулировани",
        -9.8757247940809
      ],
      [
        "очевид",
        -9.875784920204168
      ],
      [
        "вынуждены",
        -9.876874381736974
      ],
      [
        "осети",
        -9.876965129021222
      ],
      [
        "рассматрива",
        -9.877219372236835
      ],
      [
        "аэропорта",
        -9.877285636603721
      ],
      [
        "емых",
        -9.879168805521317
      ],
      [
        "вооруженны",
        -9.879334522456828
      ],
      [
        "базе",
        -9.880073848242047
      ],
      [
        "лун",
        -9.880105065519638
      ],
      [
        "молоды",
        -9.880134098300307
      ],
      [
        "шар",
        -9.88051195384351
      ],
      [
        "идут",
        -9.881147945332227
      ],
      [
        "экономическо",
        -9.882854062765603
      ],
      [
        "оль",
        -9.883019066511793
      ],
      [
        "подал",
        -9.883400576883975
      ],
      [
        "прошлого",
        -9.884200755451543
      ],
      [
        "ления",
        -9.884835350899813
      ],
      [
        "сним",
        -9.885208453336567
      ],
      [
        "возвращени",
        -9.885526481220035
      ],
      [
        "попыт",
        -9.886011393071971
      ],
      [
        "решить",
        -9.886164477897296
      ],
      [
        "проблема",
        -9.886558683703019
      ],
      [
        "института",
        -9.886712164841473
      ],
      [
        "кандидата",
        -9.888780873441217
      ],
      [
        "вшись",
        -9.888991551294957
      ],
      [
        "рис",
        -9.889685798205532
      ],
      [
        "сделано",
        -9.890085143506688
      ],
      [
        "собра",
        -9.890537062312438
      ],
      [
        "тан",
        -9.891054972257638
      ],
      [
        "кому",
        -9.891333550344584
      ],
      [
        "планирова",
        -9.891882533967811
      ],
      [
        "усилени",
        -9.893501654261827
      ],
      [
        "сын",
        -9.89376297263203
      ],
      [
        "каждо",
        -9.894315370984236
      ],
      [
        "почт",
        -9.894473866096842
      ],
      [
        "выполнен",
        -9.895137308740297
      ],
      [
        "ra",
        -9.896441461999304
      ],
      [
        "включен",
        -9.89733606688291
      ],
      [
        "электро",
        -9.897694578630524
      ],
      [
        "решен",
        -9.898617866151001
      ],
      [
        "партнер",
        -9.90000232828203
      ],
      [
        "давно",
        -9.900027278973438
      ],
      [
        "заболевани",
        -9.900198804254211
      ],
      [
        "кино",
        -9.900249880124933
      ],
      [
        "основн",
        -9.900443954286839
      ],
      [
        "ia",
        -9.900730566867555
      ],
      [
        "ситуациям",
        -9.900928001102006
      ],
      [
        "устройства",
        -9.901271326846
      ],
      [
        "протест",
        -9.901450947982376
      ],
      [
        "мыс",
        -9.902032016445897
      ],
      [
        "уже",
        -9.902212671867932
      ],
      [
        "стат",
        -9.903398392475417
      ],
      [
        "норм",
        -9.904244400331658
      ],
      [
        "четвер",
        -9.90428657461944
      ],
      [
        "ядерно",
        -9.904406216088312
      ],
      [
        "верховны",
        -9.90449936048866
      ],
      [
        "хар",
        -9.906631171583985
      ],
      [
        "десяти",
        -9.907060099043015
      ],
      [
        "перерегистраци",
        -9.907398220924723
      ],
      [
        "предусмотрен",
        -9.907664775556334
      ],
      [
        "лучше",
        -9.908772721800714
      ],
      [
        "странам",
        -9.909195681622682
      ],
      [
        "размера",
        -9.909349534190794
      ],
      [
        "возвраща",
        -9.910108091971416
      ],
      [
        "минго",
        -9.910290972961919
      ],
      [
        "мирно",
        -9.910430006406123
      ],
      [
        "будуще",
        -9.910524560586547
      ],
      [
        "бандит",
        -9.910930215707694
      ],
      [
        "президентски",
        -9.910940909172576
      ],
      [
        "содержа",
        -9.912092182754675
      ],
      [
        "ниче",
        -9.912164047954832
      ],
      [
        "коллеги",
        -9.913676956145608
      ],
      [
        "писа",
        -9.916125767965786
      ],
      [
        "коммерческо",
        -9.916176539716043
      ],
      [
        "родственник",
        -9.916258120544857
      ],
      [
        "расход",
        -9.916507473123636
      ],
      [
        "фил",
        -9.916797931414262
      ],
      [
        "соверша",
        -9.919146334881392
      ],
      [
        "наруша",
        -9.919831023349623
      ],
      [
        "лит",
        -9.92096753291805
      ],
      [
        "ko",
        -9.921174160598781
      ],
      [
        "название",
        -9.921184457073183
      ],
      [
        "втором",
        -9.921273846775057
      ],
      [
        "\")",
        -9.921982759086607
      ],
      [
        "популярн",
        -9.922546180665645
      ],
      [
        "захват",
        -9.924082703923952
      ],
      [
        "относит",
        -9.924433030326956
      ],
      [
        "предоставля",
        -9.92570209844374
      ],
      [
        "состоит",
        -9.927740826575448
      ],
      [
        "миссия",
        -9.929248670169548
      ],
      [
        "ic",
        -9.92927506804633
      ],
      [
        "категори",
        -9.929679190887914
      ],
      [
        "англи",
        -9.929892077947452
      ],
      [
        "производи",
        -9.930510315418294
      ],
      [
        "ологическо",
        -9.9305223922771
      ],
      [
        "транс",
        -9.93057577907131
      ],
      [
        "техническо",
        -9.930603022930356
      ],
      [
        "проче",
        -9.930806094515995
      ],
      [
        "законодател",
        -9.931069750096501
      ],
      [
        "гиб",
        -9.931092546690031
      ],
      [
        "селени",
        -9.931297253802153
      ],
      [
        "командир",
        -9.931352950817999
      ],
      [
        "R",
        -9.931396158472337
      ],
      [
        "контингент",
        -9.931396158485171
      ],
      [
        "резолюци",
        -9.931396161864065
      ],
      [
        "редактор",
        -9.931396163704282
      ],
      [
        "банкротств",
        -9.93139616629171
      ],
      [
        "оджалан",
        -9.931396190217882
      ],
      [
        "кладбище",
        -9.931396197520455
      ],
      [
        "network",
        -9.931396215105705
      ],
      [
        "таможн",
        -9.93139628053431
      ],
      [
        "покупк",
        -9.931396501846265
      ],
      [
        "задорнов",
        -9.931396962709563
      ],
      [
        "вариант",
        -9.93139696707469
      ],
      [
        "саммерс",
        -9.931397703550012
      ],
      [
        "гейтс",
        -9.931397818161626
      ],
      [
        "откуда",
        -9.931397860877608
      ],
      [
        "возникновени",
        -9.931398599400609
      ],
      [
        "воздушны",
        -9.93140335998915
      ],
      [
        "зарубежных",
        -9.931404088014396
      ],
      [
        "манежн",
        -9.931407710246479
      ],
      [
        "собинбанк",
        -9.931411015628042
      ],
      [
        "испанск",
        -9.931416515451357
      ],
      [
        "вступил",
        -9.931419613871387
      ],
      [
        "принимал",
        -9.931422020906652
      ],
      [
        "конечно",
        -9.931424354791991
      ],
      [
        "взаимодействи",
        -9.931434432149821
      ],
      [
        "фронт",
        -9.93143910477044
      ],
      [
        "предотвратит",
        -9.931458578584
      ],
      [
        "ish",
        -9.931474089714037
      ],
      [
        "месторождени",
        -9.931491599918973
      ],
      [
        "lim",
        -9.931495590000761
      ],
      [
        "опубликовал",
        -9.931556077826501
      ],
      [
        "вред",
        -9.931557404420715
      ],
      [
        "широко",
        -9.93156491082345
      ],
      [
        "минфин",
        -9.931626598190224
      ],
      [
        "принадлежащи",
        -9.931817519485465
      ],
      [
        "we",
        -9.931969778287066
      ],
      [
        "жалоб",
        -9.932015502809481
      ],
      [
        "старши",
        -9.932049581318275
      ],
      [
        "хотел",
        -9.93211241788745
      ],
      [
        "отпуск",
        -9.932154639694257
      ],
      [
        "исполнени",
        -9.932285355229173
      ],
      [
        "находиться",
        -9.932368746037483
      ],
      [
        "финансовыми",
        -9.932459649384672
      ],
      [
        "распространение",
        -9.932669178611988
      ],
      [
        "обвиняемы",
        -9.932759660382146
      ],
      [
        "близки",
        -9.932811707943037
      ],
      [
        "спрос",
        -9.932898660940207
      ],
      [
        "категорическ",
        -9.933117844117637
      ],
      [
        "собственно",
        -9.93342747740149
      ],
      [
        "сетево",
        -9.933434011956537
      ],
      [
        "вывоз",
        -9.933683178565689
      ],
      [
        "минувшие",
        -9.933689706296462
      ],
      [
        "даль",
        -9.933871776698446
      ],
      [
        "целе",
        -9.934017386852535
      ],
      [
        "картин",
        -9.934047726512015
      ],
      [
        "внешне",
        -9.934602287287378
      ],
      [
        "таможенного",
        -9.93492242107332
      ],
      [
        "составляют",
        -9.93494170395882
      ],
      [
        "комментируя",
        -9.935303587795204
      ],
      [
        "втор",
        -9.935532892063183
      ],
      [
        "завал",
        -9.935836659600724
      ],
      [
        "доби",
        -9.936175808991788
      ],
      [
        "народного",
        -9.936239204045023
      ],
      [
        "документа",
        -9.936482164314066
      ],
      [
        "ложил",
        -9.936747067999812
      ],
      [
        "двумя",
        -9.937039380474076
      ],
      [
        "специальны",
        -9.93725181082327
      ],
      [
        "кри",
        -9.937750022866465
      ],
      [
        "шесть",
        -9.937982182922834
      ],
      [
        "толп",
        -9.937986181780952
      ],
      [
        "гер",
        -9.937996780604903
      ],
      [
        "британской",
        -9.939120942070117
      ],
      [
        "миг",
        -9.93927971995241
      ],
      [
        "br",
        -9.93937341956635
      ],
      [
        "программа",
        -9.939423602722805
      ],
      [
        "хотят",
        -9.939787743190635
      ],
      [
        "рабоче",
        -9.940142013965445
      ],
      [
        "где",
        -9.94028083497496
      ],
      [
        "равно",
        -9.941118538684643
      ],
      [
        "тщательно",
        -9.941811423499303
      ],
      [
        "сар",
        -9.941997845641009
      ],
      [
        "прибыль",
        -9.942308236869282
      ],
      [
        "обраща",
        -9.94357429286863
      ],
      [
        "войну",
        -9.943616785465535
      ],
      [
        "огне",
        -9.94459033595322
      ],
      [
        "нападения",
        -9.945258537257185
      ],
      [
        "личност",
        -9.945350784482125
      ],
      [
        "боро",
        -9.945575805308952
      ],
      [
        "мировом",
        -9.945958245774866
      ],
      [
        "проводят",
        -9.946021766017878
      ],
      [
        "получат",
        -9.946192680781003
      ],
      [
        "экономическим",
        -9.94635768389302
      ],
      [
        "случая",
        -9.946632079603313
      ],
      [
        "взял",
        -9.948713413621395
      ],
      [
        "партий",
        -9.94894584163066
      ],
      [
        "веден",
        -9.949012414986603
      ],
      [
        "нефтян",
        -9.949182620097993
      ],
      [
        "op",
        -9.949436535333934
      ],
      [
        "основно",
        -9.949471008221277
      ],
      [
        "оставши",
        -9.951176207646855
      ],
      [
        "единство",
        -9.951412954558831
      ],
      [
        "рус",
        -9.951486753970231
      ],
      [
        "войн",
        -9.951612049910882
      ],
      [
        "сбо",
        -9.951904285736564
      ],
      [
        "вынужденны",
        -9.952278260276966
      ],
      [
        "использован",
        -9.952453410192922
      ],
      [
        "мощны",
        -9.952549814241156
      ],
      [
        "отсутстви",
        -9.95318090614376
      ],
      [
        "щего",
        -9.9536662542708
      ],
      [
        "налогам",
        -9.953698226084079
      ],
      [
        "nta",
        -9.954509906901414
      ],
      [
        "будущем",
        -9.955179248114227
      ],
      [
        "палестинц",
        -9.95565590818108
      ],
      [
        "ракетно",
        -9.955836574547172
      ],
      [
        "экипажа",
        -9.95591621431291
      ],
      [
        "каким",
        -9.95657320179171
      ],
      [
        "емся",
        -9.956659907765227
      ],
      [
        "демократи",
        -9.95695661986873
      ],
      [
        "исламски",
        -9.958055126440588
      ],
      [
        "недел",
        -9.958297368959107
      ],
      [
        "обязан",
        -9.958513419994325
      ],
      [
        "преступник",
        -9.959218714670179
      ],
      [
        "верховн",
        -9.9592727181583
      ],
      [
        "ate",
        -9.959463658770243
      ],
      [
        "судно",
        -9.960741518290199
      ],
      [
        "теракта",
        -9.961240353405167
      ],
      [
        "состояни",
        -9.96142043326875
      ],
      [
        "ойдут",
        -9.96193913601363
      ],
      [
        "поездк",
        -9.961963223455708
      ],
      [
        "знач",
        -9.962836633146642
      ],
      [
        "лишен",
        -9.963391497231134
      ],
      [
        "последн",
        -9.965315169875165
      ],
      [
        "потеря",
        -9.965376993475008
      ],
      [
        "принимать",
        -9.96546696614469
      ],
      [
        "подсчет",
        -9.966113841399181
      ],
      [
        "французск",
        -9.966461322765655
      ],
      [
        "вынужден",
        -9.967408959064874
      ],
      [
        "писал",
        -9.967777919119088
      ],
      [
        "активны",
        -9.969783435631468
      ],
      [
        "вто",
        -9.973124155476093
      ],
      [
        "представленны",
        -9.97410114134167
      ],
      [
        "указывает",
        -9.975389052772103
      ],
      [
        "обеща",
        -9.975605770551017
      ],
      [
        "начина",
        -9.976081360753225
      ],
      [
        "сон",
        -9.977362924070558
      ],
      [
        "ске",
        -9.977751938081731
      ],
      [
        "советски",
        -9.978014618285545
      ],
      [
        "политическ",
        -9.97907798087006
      ],
      [
        "рование",
        -9.979811521962374
      ],
      [
        "дзе",
        -9.979853573934637
      ],
      [
        "овский",
        -9.980724662914973
      ],
      [
        "найт",
        -9.981280657275864
      ],
      [
        "тро",
        -9.981384809417195
      ],
      [
        "повышен",
        -9.98227771974794
      ],
      [
        "выведен",
        -9.983107861516391
      ],
      [
        "шла",
        -9.984172426000484
      ],
      [
        "обеспечение",
        -9.984300254912215
      ],
      [
        "официальный",
        -9.984638710052634
      ],
      [
        "шего",
        -9.98495950517717
      ],
      [
        "взяты",
        -9.985041579021855
      ],
      [
        "сделал",
        -9.98579893935456
      ],
      [
        "иностран",
        -9.987512408752927
      ],
      [
        "призыва",
        -9.987705579172797
      ],
      [
        "типа",
        -9.98841216133269
      ],
      [
        "sc",
        -9.98880505915844
      ],
      [
        "лос",
        -9.989345709373474
      ],
      [
        "дв",
        -9.989627938386176
      ],
      [
        "воинск",
        -9.989769057830628
      ],
      [
        "ro",
        -9.98994079865499
      ],
      [
        "чечней",
        -9.990057194224027
      ],
      [
        "стр",
        -9.990482632891165
      ],
      [
        "аэро",
        -9.99060796497121
      ],
      [
        "личны",
        -9.990759578667356
      ],
      [
        "настояще",
        -9.992512205885712
      ],
      [
        "заверши",
        -9.9937626022667
      ],
      [
        "эффективно",
        -9.995204400115899
      ],
      [
        "народа",
        -9.995966039047328
      ],
      [
        "объема",
        -9.99664096568916
      ],
      [
        "шем",
        -9.996711624006164
      ],
      [
        "полном",
        -9.996889875109648
      ],
      [
        "срочн",
        -9.99819487158972
      ],
      [
        "ден",
        -9.998448923037241
      ],
      [
        "нашли",
        -9.998688253918289
      ],
      [
        "лебед",
        -9.999010830761225
      ],
      [
        "писател",
        -9.999479993479628
      ],
      [
        "говоря",
        -10.000024501208983
      ],
      [
        "топливо",
        -10.000053358194243
      ],
      [
        "оба",
        -10.000197910328705
      ],
      [
        "компьютерно",
        -10.000671880152275
      ],
      [
        "закрыт",
        -10.00073095967161
      ],
      [
        "стихи",
        -10.001966281687949
      ],
      [
        "защите",
        -10.002444300933336
      ],
      [
        "пуск",
        -10.002628206359322
      ],
      [
        "имущества",
        -10.002763632380482
      ],
      [
        "4",
        -10.002824729900928
      ],
      [
        "5",
        -10.002824729900931
      ],
      [
        "таджикистан",
        -10.002824729938238
      ],
      [
        "ассоциаци",
        -10.002824729954318
      ],
      [
        "здравоохранения",
        -10.002824730058437
      ],
      [
        "убежищ",
        -10.002824730120324
      ],
      [
        "индустри",
        -10.00282473145065
      ],
      [
        "конкретно",
        -10.002824731704614
      ],
      [
        "эдвард",
        -10.00282473999782
      ],
      [
        "консультаци",
        -10.002824740215003
      ],
      [
        "возобнови",
        -10.00282478726975
      ],
      [
        "woo",
        -10.002824801654487
      ],
      [
        "погашени",
        -10.002824809595628
      ],
      [
        "угрожа",
        -10.00282483497015
      ],
      [
        "наблюдени",
        -10.00282489132467
      ],
      [
        "приштин",
        -10.002824915403274
      ],
      [
        "аналитик",
        -10.002824962651058
      ],
      [
        "пистолет",
        -10.00282509199853
      ],
      [
        "немецки",
        -10.002825537304862
      ],
      [
        "маршрут",
        -10.002825812460404
      ],
      [
        "раунд",
        -10.00282581693509
      ],
      [
        "леонид",
        -10.002826179282248
      ],
      [
        "обычны",
        -10.002837800012124
      ],
      [
        "филиал",
        -10.002838717548112
      ],
      [
        "произведен",
        -10.002867237192161
      ],
      [
        "каролин",
        -10.002872790491706
      ],
      [
        "васили",
        -10.002894232595818
      ],
      [
        "социально",
        -10.002938729502027
      ],
      [
        "internet",
        -10.00300577755787
      ],
      [
        "денежны",
        -10.003098333835528
      ],
      [
        "очаг",
        -10.003102972769184
      ],
      [
        "страхов",
        -10.003105986445338
      ],
      [
        "разобра",
        -10.00313772018555
      ],
      [
        "беспорядк",
        -10.003275950771847
      ],
      [
        "оказывает",
        -10.003306521987017
      ],
      [
        "шанс",
        -10.003313714229666
      ],
      [
        "покинул",
        -10.003321219812864
      ],
      [
        "моря",
        -10.00333448543996
      ],
      [
        "спасательны",
        -10.003366307204038
      ],
      [
        "bene",
        -10.003452110975012
      ],
      [
        "американский",
        -10.003458968391039
      ],
      [
        "слов",
        -10.003532057656136
      ],
      [
        "крови",
        -10.003669808003519
      ],
      [
        "республиканск",
        -10.0040360549664
      ],
      [
        "столкну",
        -10.004145608926295
      ],
      [
        "покупа",
        -10.00417980898056
      ],
      [
        "почин",
        -10.0043368959291
      ],
      [
        "агент",
        -10.004818731295792
      ],
      [
        "международная",
        -10.005038593431811
      ],
      [
        "прошел",
        -10.005221513614567
      ],
      [
        "разоружени",
        -10.005333154119752
      ],
      [
        "гарантировани",
        -10.00536328345981
      ],
      [
        "американская",
        -10.005444170698112
      ],
      [
        "парти",
        -10.005548247348267
      ],
      [
        "воздержа",
        -10.005672846102595
      ],
      [
        "граждански",
        -10.006062208364998
      ],
      [
        "стихийно",
        -10.006104345306285
      ],
      [
        "тайвань",
        -10.006366589593677
      ],
      [
        "пребывани",
        -10.007220008629801
      ],
      [
        "обязанностей",
        -10.00732763009528
      ],
      [
        "продолжать",
        -10.007823876216301
      ],
      [
        "продолжен",
        -10.007862530811614
      ],
      [
        "вероятно",
        -10.007957981670005
      ],
      [
        "перспектив",
        -10.009354854837467
      ],
      [
        "возраст",
        -10.009460228941789
      ],
      [
        "другом",
        -10.009521096227608
      ],
      [
        "вание",
        -10.00968883222361
      ],
      [
        "нобелевской",
        -10.009699593004852
      ],
      [
        "бомбовы",
        -10.010280803672902
      ],
      [
        "пытаются",
        -10.010310832426612
      ],
      [
        "нной",
        -10.011380039926761
      ],
      [
        "изъято",
        -10.012032067397747
      ],
      [
        "действующе",
        -10.012307827436608
      ],
      [
        "следственны",
        -10.012427387148215
      ],
      [
        "and",
        -10.012687733667974
      ],
      [
        "статье",
        -10.014110485958694
      ],
      [
        "китайски",
        -10.014517860379343
      ],
      [
        "называют",
        -10.015520123464631
      ],
      [
        "силовы",
        -10.016271900419152
      ],
      [
        "расположенном",
        -10.016283846375819
      ],
      [
        "секрет",
        -10.016676210761508
      ],
      [
        "дд",
        -10.016704433930858
      ],
      [
        "думск",
        -10.016705834249692
      ],
      [
        "берегов",
        -10.016955560103897
      ],
      [
        "парк",
        -10.017089818848902
      ],
      [
        "гб",
        -10.017932269943135
      ],
      [
        "собран",
        -10.018371533234202
      ],
      [
        "оплаты",
        -10.018385376433496
      ],
      [
        "nn",
        -10.018389104870636
      ],
      [
        "национальност",
        -10.018983719215486
      ],
      [
        "ton",
        -10.02058407786435
      ],
      [
        "опасно",
        -10.021741969092897
      ],
      [
        "политическим",
        -10.022096889842503
      ],
      [
        "меш",
        -10.023306933402036
      ],
      [
        "замен",
        -10.023751463883132
      ],
      [
        "каки",
        -10.023855640538537
      ],
      [
        "расходов",
        -10.023914279996207
      ],
      [
        "автомобиля",
        -10.026195556116436
      ],
      [
        "быть",
        -10.028782768525387
      ],
      [
        "избирательный",
        -10.029105020363927
      ],
      [
        "алле",
        -10.030337388453557
      ],
      [
        "прием",
        -10.030874942387536
      ],
      [
        "наступление",
        -10.031145461766659
      ],
      [
        "делегация",
        -10.031646327373476
      ],
      [
        "прямом",
        -10.031832423952286
      ],
      [
        "продукты",
        -10.03213200971857
      ],
      [
        "юго",
        -10.033202164990293
      ],
      [
        "спуст",
        -10.033307514998768
      ],
      [
        "сете",
        -10.033496368862654
      ],
      [
        "трет",
        -10.03356584642538
      ],
      [
        "правово",
        -10.033643775271432
      ],
      [
        "si",
        -10.03530631635962
      ],
      [
        "повреждени",
        -10.035473356253133
      ],
      [
        "введение",
        -10.03583010073357
      ],
      [
        "колокола",
        -10.036278031996925
      ],
      [
        "отказ",
        -10.036300336188472
      ],
      [
        "изби",
        -10.036462454219674
      ],
      [
        "танк",
        -10.037078461823969
      ],
      [
        "тайване",
        -10.037156732638124
      ],
      [
        "очно",
        -10.03738020742929
      ],
      [
        "фор",
        -10.038496827677852
      ],
      [
        "федеральном",
        -10.039202417317265
      ],
      [
        "рон",
        -10.03988101993594
      ],
      [
        "глас",
        -10.040374244397306
      ],
      [
        "гигант",
        -10.041907463967572
      ],
      [
        "запрещен",
        -10.04213609697836
      ],
      [
        "лечени",
        -10.042207051498078
      ],
      [
        "доллар",
        -10.042886003488189
      ],
      [
        "дым",
        -10.043151406838646
      ],
      [
        "дальнейшем",
        -10.04320483852599
      ],
      [
        "экономик",
        -10.043504914710146
      ],
      [
        "демонстраци",
        -10.043766576394631
      ],
      [
        "кабинет",
        -10.043858237353774
      ],
      [
        "ms",
        -10.044644452668772
      ],
      [
        "наци",
        -10.045235783964674
      ],
      [
        "пакистана",
        -10.045606369450956
      ],
      [
        "сообщ",
        -10.046917213308097
      ],
      [
        "машина",
        -10.04835027833431
      ],
      [
        "высот",
        -10.048523883692313
      ],
      [
        "выделен",
        -10.048607134161305
      ],
      [
        "мол",
        -10.04891273070378
      ],
      [
        "чеченским",
        -10.049450573774816
      ],
      [
        "сельско",
        -10.049694024317013
      ],
      [
        "турци",
        -10.049811700359575
      ],
      [
        "десятки",
        -10.05013295117989
      ],
      [
        "nt",
        -10.050772875986521
      ],
      [
        "ta",
        -10.051044888357803
      ],
      [
        "заключенны",
        -10.051151493247087
      ],
      [
        "кра",
        -10.051342941576712
      ],
      [
        "офицер",
        -10.051371007613108
      ],
      [
        "экипаж",
        -10.052041340906673
      ],
      [
        "большие",
        -10.052861234614209
      ],
      [
        "обязательно",
        -10.052980508932592
      ],
      [
        "остановить",
        -10.05348724242436
      ],
      [
        "лома",
        -10.054115686878811
      ],
      [
        "кн",
        -10.054131042017595
      ],
      [
        "конкурент",
        -10.054286588771676
      ],
      [
        "акция",
        -10.055526631236944
      ],
      [
        "рук",
        -10.056460492139236
      ],
      [
        "формировани",
        -10.056544960673207
      ],
      [
        "телефону",
        -10.057702998003075
      ],
      [
        "лицам",
        -10.057878407108849
      ],
      [
        "нападени",
        -10.058494632495036
      ],
      [
        "два",
        -10.058676809557872
      ],
      [
        "белорусско",
        -10.059042081887876
      ],
      [
        "общин",
        -10.05923049695752
      ],
      [
        "были",
        -10.059949229094503
      ],
      [
        "никола",
        -10.061536742611686
      ],
      [
        "нужд",
        -10.06173289969728
      ],
      [
        "кат",
        -10.062583481967698
      ],
      [
        "подход",
        -10.062997461589042
      ],
      [
        "находяще",
        -10.06326656986537
      ],
      [
        "платит",
        -10.064574624822725
      ],
      [
        "ливан",
        -10.064956393232729
      ],
      [
        "связаны",
        -10.065596820645773
      ],
      [
        "ноябр",
        -10.066459403756074
      ],
      [
        "храм",
        -10.067491186173939
      ],
      [
        "более",
        -10.067506472384203
      ],
      [
        "льд",
        -10.068794378208565
      ],
      [
        "дополнительно",
        -10.0691754751468
      ],
      [
        "дороги",
        -10.069579897183882
      ],
      [
        "автобуса",
        -10.070105952907262
      ],
      [
        "военн",
        -10.070125148007293
      ],
      [
        "проверка",
        -10.07137586609237
      ],
      [
        "обнаружил",
        -10.072821008419602
      ],
      [
        "концерна",
        -10.073261157610151
      ],
      [
        "класс",
        -10.074001953278641
      ],
      [
        "ракета",
        -10.074114354902827
      ],
      [
        "кого",
        -10.074789693345394
      ],
      [
        "тих",
        -10.074823732029847
      ],
      [
        "man",
        -10.075604511185363
      ],
      [
        "израиль",
        -10.075730633455034
      ],
      [
        "поче",
        -10.076047547308182
      ],
      [
        "освобождение",
        -10.07661851751946
      ],
      [
        "событиям",
        -10.077731719366698
      ],
      [
        "стратеги",
        -10.078301794382591
      ],
      [
        "похити",
        -10.078994926399028
      ],
      [
        "следующи",
        -10.079071662217927
      ],
      [
        "тюрем",
        -10.079440542104283
      ],
      [
        "инвестици",
        -10.079443875679642
      ],
      [
        "террор",
        -10.079497528352883
      ],
      [
        "понят",
        -10.079615507923915
      ],
      [
        "роберт",
        -10.079714106190707
      ],
      [
        "городк",
        -10.079725902022112
      ],
      [
        "реагирова",
        -10.07973245527523
      ],
      [
        "гранат",
        -10.079737964130889
      ],
      [
        "родител",
        -10.07974443603796
      ],
      [
        "6",
        -10.079747806824049
      ],
      [
        "эксплуатаци",
        -10.079747806828935
      ],
      [
        "арбитражно",
        -10.079747806840784
      ],
      [
        "баллотироваться",
        -10.079747807441867
      ],
      [
        "устойчив",
        -10.079747809676297
      ],
      [
        "владивосток",
        -10.0797478126356
      ],
      [
        "озабочен",
        -10.079747812695471
      ],
      [
        "эдуард",
        -10.079747813357839
      ],
      [
        "зданович",
        -10.0797479011666
      ],
      [
        "исламист",
        -10.079747908027567
      ],
      [
        "лауреат",
        -10.079748016750605
      ],
      [
        "практик",
        -10.0797480573323
      ],
      [
        "стерлинг",
        -10.079748082790225
      ],
      [
        "элемент",
        -10.079748147189516
      ],
      [
        "исключил",
        -10.07974818830806
      ],
      [
        "компакт",
        -10.079748271634637
      ],
      [
        "сергеев",
        -10.079748285159297
      ],
      [
        "комментари",
        -10.079748966947557
      ],
      [
        "брошен",
        -10.079749193548725
      ],
      [
        "внутренне",
        -10.07974943763995
      ],
      [
        "фигуриру",
        -10.079749780242945
      ],
      [
        "коммерци",
        -10.07975075282681
      ],
      [
        "стандарт",
        -10.079750771039986
      ],
      [
        "провокаци",
        -10.079752723232033
      ],
      [
        "заключил",
        -10.079755442240087
      ],
      [
        "злоупотреблени",
        -10.079756648664382
      ],
      [
        "тротил",
        -10.079758113342244
      ],
      [
        "немецко",
        -10.079758308573366
      ],
      [
        "обжалова",
        -10.079762014515362
      ],
      [
        "относительно",
        -10.079763831951745
      ],
      [
        "шторм",
        -10.079765742179251
      ],
      [
        "возросл",
        -10.079767461091446
      ],
      [
        "сопротивлени",
        -10.079768531029243
      ],
      [
        "включает",
        -10.079769806622306
      ],
      [
        "целы",
        -10.07977618694177
      ],
      [
        "волков",
        -10.079778381118068
      ],
      [
        "езд",
        -10.079817708021078
      ],
      [
        "отверг",
        -10.079870534582879
      ],
      [
        "кубически",
        -10.079876588173141
      ],
      [
        "расстояни",
        -10.079885639145544
      ],
      [
        "изъяты",
        -10.07992386396704
      ],
      [
        "дальше",
        -10.079934366747612
      ],
      [
        "отрасл",
        -10.079934699003191
      ],
      [
        "сенатор",
        -10.079958686959394
      ],
      [
        "ьянов",
        -10.080017606652142
      ],
      [
        "грози",
        -10.080023037166226
      ],
      [
        "мафи",
        -10.080069164544383
      ],
      [
        "польш",
        -10.080093945646784
      ],
      [
        "посадк",
        -10.080135616953138
      ],
      [
        "пиратск",
        -10.0801447900795
      ],
      [
        "hil",
[...]
