{
  "version": "1.0",
  "truncation": null,
  "padding": null,
  "added_tokens": [],
  "normalizer": null,
  "pre_tokenizer": {
    "type": "Whitespace"
  },
  "post_processor": null,
  "decoder": null,
  "model": {
    "type": "WordPiece",
    "unk_token": "[UNK]",
    "continuing_subword_prefix": "##",
    "max_input_chars_per_word": 100,
    "vocab": {
      "!": 0,
      "\"": 1,
      "$": 2,
      "%": 3,
      "&": 4,
      "'": 5,
      "(": 6,
      ")": 7,
      "*": 8,
      "+": 9,
      ",": 10,
      "-": 11,
      ".": 12,
      "/": 13,
      "0": 14,
      "1": 15,
      "2": 16,
      "3": 17,
      "4": 18,
      "5": 19,
      "6": 20,
      "7": 21,
      "8": 22,
      "9": 23,
      ":": 24,
      ";": 25,
      "<": 26,
      "=": 27,
      ">": 28,
      "?": 29,
      "A": 30,
      "D": 31,
      "E": 32,
      "I": 33,
      "L": 34,
      "M": 35,
      "N": 36,
      "R": 37,
      "T": 38,
      "U": 39,
      "a": 40,
      "b": 41,
      "c": 42,
      "d": 43,
      "e": 44,
      "f": 45,
      "g": 46,
      "h": 47,
      "i": 48,
      "j": 49,
      "k": 50,
      "l": 51,
      "m": 52,
      "n": 53,
      "o": 54,
      "p": 55,
      "q": 56,
      "r": 57,
      "s": 58,
      "t": 59,
      "u": 60,
      "v": 61,
      "w": 62,
      "x": 63,
      "y": 64,
      "z": 65,
      "«": 66,
      "·": 67,
      "»": 68,
      "а": 69,
      "б": 70,
      "в": 71,
      "г": 72,
      "д": 73,
      "е": 74,
      "ж": 75,
      "з": 76,
      "и": 77,
      "й": 78,
      "к": 79,
      "л": 80,
      "м": 81,
      "н": 82,
      "о": 83,
      "п": 84,
      "р": 85,
      "с": 86,
      "т": 87,
      "у": 88,
      "ф": 89,
      "х": 90,
      "ц": 91,
      "ч": 92,
      "ш": 93,
      "щ": 94,
      "ъ": 95,
      "ы": 96,
      "ь": 97,
      "э": 98,
      "ю": 99,
      "я": 100,
      "ё": 101,
      "–": 102,
      "—": 103,
      "’": 104,
      "…": 105,
      "№": 106,
      "##ч": 107,
      "##а": 108,
      "##с": 109,
      "##т": 110,
      "##в": 111,
      "##у": 112,
      "##ю": 113,
      "##щ": 114,
      "##и": 115,
      "##х": 116,
      "##ы": 117,
      "##д": 118,
      "##е": 119,
      "##л": 120,
      "##н": 121,
      "##к": 122,
      "##р": 123,
      "##п": 124,
      "##ь": 125,
      "##ш": 126,
      "##г": 127,
      "##м": 128,
      "##о": 129,
      "##я": 130,
      "##ж": 131,
      "##й": 132,
      "##э": 133,
      "##з": 134,
      "##б": 135,
      "##ц": 136,
      "##o": 137,
      "##k": 138,
      "##h": 139,
      "##i": 140,
      "##d": 141,
      "##ф": 142,
      "##ъ": 143,
      "##u": 144,
      "##g": 145,
      "##a": 146,
      "##n": 147,
      "##?": 148,
      "##l": 149,
      "##b": 150,
      "##r": 151,
      "##t": 152,
      "##p": 153,
      "##c": 154,
      "##e": 155,
      "##w": 156,
      "##m": 157,
      "##s": 158,
      "##x": 159,
      "##<": 160,
      "##v": 161,
      "##j": 162,
      "##y": 163,
      "##f": 164,
      "##,": 165,
      "##1": 166,
      "##-": 167,
      "##A": 168,
      "##T": 169,
      "##E": 170,
      "##z": 171,
      "##3": 172,
      "##9": 173,
      "##.": 174,
      "##5": 175,
      "##7": 176,
      "##6": 177,
      "##\"": 178,
      "##0": 179,
      "##2": 180,
      "##$": 181,
      "##*": 182,
      "##%": 183,
      "##;": 184,
      "##/": 185,
      "##)": 186,
      "##8": 187,
      "##·": 188,
      "##4": 189,
      "##:": 190,
      "##ё": 191,
      "##q": 192,
      "##=": 193,
      "##(": 194,
      "##R": 195,
      "##L": 196,
      "##U": 197,
      "##M": 198,
      "##I": 199,
      "##ст": 200,
      "##ен": 201,
      "##ов": 202,
      "##ан": 203,
      "##ер": 204,
      "##но": 205,
      "пр": 206,
      "##ор": 207,
      "##ск": 208,
      "##ет": 209,
      "##ел": 210,
      "##од": 211,
      "##ит": 212,
      "##ны": 213,
      "##ал": 214,
      "##ол": 215,
      "##ат": 216,
      "##ом": 217,
      "##ед": 218,
      "##ени": 219,
      "##ил": 220,
      "##ин": 221,
      "##он": 222,
      "##ра": 223,
      "##ос": 224,
      "##ии": 225,
      "NU": 226,
      "NUM": 227,
      "##го": 228,
      "##ем": 229,
      "##ств": 230,
      "##ар": 231,
      "##ся": 232,
      "##от": 233,
      "##ав": 234,
      "##ик": 235,
      "##ам": 236,
      "##об": 237,
      "##ак": 238,
      "##ей": 239,
      "##ой": 240,
      "##ий": 241,
      "##ия": 242,
      "##аз": 243,
      "##ас": 244,
      "##им": 245,
      "##ель": 246,
      "##ост": 247,
      "##ир": 248,
      "##их": 249,
      "об": 250,
      "##ек": 251,
      "##ент": 252,
      "##ев": 253,
      "##ных": 254,
      "##ая": 255,
      "##ок": 256,
      "ст": 257,
      "##ив": 258,
      "со": 259,
      "##ес": 260,
      "##ие": 261,
      "##ения": 262,
      "##ист": 263,
      "на": 264,
      "##ич": 265,
      "##ис": 266,
      "##ест": 267,
      "##ной": 268,
      "##ру": 269,
      "##ает": 270,
      "##ад": 271,
      "##ез": 272,
      "##из": 273,
      "от": 274,
      "вы": 275,
      "##ого": 276,
      "##аль": 277,
      "##ут": 278,
      "##ции": 279,
      "##ного": 280,
      "##осс": 281,
      "##ран": 282,
      "##ци": 283,
      "##пр": 284,
      "пред": 285,
      "##ог": 286,
      "##ност": 287,
      "росс": 288,
      "##ать": 289,
      "##оз": 290,
      "##ег": 291,
      "##ид": 292,
      "##ож": 293,
      "под": 294,
      "##ник": 295,
      "##ли": 296,
      "##ение": 297,
      "##уд": 298,
      "##ют": 299,
      "##еч": 300,
      "##ным": 301,
      "##ные": 302,
      "##итель": 303,
      "##ят": 304,
      "##оль": 305,
      "##ыв": 306,
      "ин": 307,
      "##аст": 308,
      "##ур": 309,
      "сл": 310,
      "##еск": 311,
      "##ован": 312,
      "про": 313,
      "##ую": 314,
      "##ах": 315,
      "##общ": 316,
      "##еж": 317,
      "пер": 318,
      "сообщ": 319,
      "св": 320,
      "пол": 321,
      "##отор": 322,
      "ком": 323,
      "##ном": 324,
      "##ить": 325,
      "##оч": 326,
      "##ай": 327,
      "##уж": 328,
      "##оп": 329,
      "##аб": 330,
      "\".": 331,
      "котор": 332,
      "##иц": 333,
      "##ный": 334,
      "раз": 335,
      "##оск": 336,
      "##ическ": 337,
      "##вл": 338,
      "мин": 339,
      "##ход": 340,
      "\",": 341,
      "##ства": 342,
      "из": 343,
      "##ами": 344,
      "##уб": 345,
      "##ской": 346,
      "кон": 347,
      "##ул": 348,
      "##ности": 349,
      "нов": 350,
      "##или": 351,
      "год": 352,
      "##аг": 353,
      "ок": 354,
      "##ки": 355,
      "##ум": 356,
      "##рем": 357,
      "не": 358,
      "##ков": 359,
      "эт": 360,
      "сп": 361,
      "прав": 362,
      "##уп": 363,
      "##ают": 364,
      "так": 365,
      "##еш": 366,
      "##ых": 367,
      "##ще": 368,
      "##ации": 369,
      "##асс": 370,
      "моск": 371,
      "дол": 372,
      "во": 373,
      "##лен": 374,
      "##ня": 375,
      "##сп": 376,
      "##ство": 377,
      "##иб": 378,
      "##ые": 379,
      "##ского": 380,
      "##ое": 381,
      "##ря": 382,
      "##уч": 383,
      "##ект": 384,
      "од": 385,
      "##ач": 386,
      "россии": 387,
      "##ствен": 388,
      "##став": 389,
      "##ка": 390,
      "за": 391,
      "##ител": 392,
      "##анд": 393,
      "##ении": 394,
      "##оя": 395,
      "##ред": 396,
      "ос": 397,
      "##ских": 398,
      "##али": 399,
      "##ерж": 400,
      "воз": 401,
      "комп": 402,
      "россий": 403,
      "##ган": 404,
      "##ению": 405,
      "тер": 406,
      "##атель": 407,
      "##ре": 408,
      "оп": 409,
      "ав": 410,
      "##же": 411,
      "##орм": 412,
      "##не": 413,
      "##дан": 414,
      "##ное": 415,
      "зая": 416,
      "##тер": 417,
      "врем": 418,
      "зак": 419,
      "##ены": 420,
      "##ми": 421,
      "##яз": 422,
      "ск": 423,
      "##ко": 424,
      "##мер": 425,
      "вз": 426,
      "ор": 427,
      "минист": 428,
      "##ый": 429,
      "##ается": 430,
      "москв": 431,
      "##ета": 432,
      "##есп": 433,
      "##ись": 434,
      "дел": 435,
      "##вил": 436,
      "##ости": 437,
      "##гл": 438,
      "##остав": 439,
      "##цион": 440,
      "##ус": 441,
      "##есс": 442,
      "##ыт": 443,
      "##ун": 444,
      "##еп": 445,
      "##ется": 446,
      "##убл": 447,
      "##ша": 448,
      "##иров": 449,
      "вл": 450,
      "##лед": 451,
      "##ная": 452,
      "##ция": 453,
      "##кт": 454,
      "##стр": 455,
      "##ании": 456,
      "##лю": 457,
      "##пра": 458,
      "мил": 459,
      "пос": 460,
      "##ше": 461,
      "##нов": 462,
      "##яб": 463,
      "пров": 464,
      "терр": 465,
      "##ью": 466,
      "##тор": 467,
      "гос": 468,
      "##ию": 469,
      "также": 470,
      "##анов": 471,
      "гор": 472,
      "им": 473,
      "##ля": 474,
      "##ания": 475,
      "##ский": 476,
      "представ": 477,
      "сов": 478,
      "##лав": 479,
      "сша": 480,
      "##ющ": 481,
      "года": 482,
      "##ло": 483,
      "уч": 484,
      "##ала": 485,
      "дв": 486,
      "пост": 487,
      "##рыв": 488,
      "##арт": 489,
      "##руп": 490,
      "милли": 491,
      "##егод": 492,
      "##ирован": 493,
      "##форм": 494,
      "##езид": 495,
      "орган": 496,
      "##аш": 497,
      "##елов": 498,
      "дан": 499,
      "##ября": 500,
      "##вер": 501,
      "##ежд": 502,
      "##ень": 503,
      "##езидент": 504,
      "##ина": 505,
      "раб": 506,
      "сч": 507,
      "это": 508,
      "прод": 509,
      "##егодня": 510,
      "сам": 511,
      "##ось": 512,
      "##ро": 513,
      "##уш": 514,
      "##ым": 515,
      "сообщил": 516,
      "сегодня": 517,
      "президент": 518,
      "интер": 519,
      "##рат": 520,
      "челов": 521,
      "##ную": 522,
      "##овор": 523,
      "слов": 524,
      "сообщает": 525,
      "сред": 526,
      "##дел": 527,
      "##аж": 528,
      "по": 529,
      "объ": 530,
      "отм": 531,
      "##пол": 532,
      "##ена": 533,
      "##раж": 534,
      "##иа": 535,
      "прин": 536,
      "##ими": 537,
      "##аров": 538,
      "стран": 539,
      "##ском": 540,
      "пок": 541,
      "связ": 542,
      "человек": 543,
      "##руг": 544,
      "кор": 545,
      "цент": 546,
      "бан": 547,
      "##ни": 548,
      "##чер": 549,
      "##ераль": 550,
      "правитель": 551,
      "заявил": 552,
      "время": 553,
      "рас": 554,
      "соб": 555,
      "чеч": 556,
      "нач": 557,
      "##ател": 558,
      "##ку": 559,
      "одн": 560,
      "прот": 561,
      "##сл": 562,
      "суд": 563,
      "##ла": 564,
      "##ших": 565,
      "##ке": 566,
      "##енных": 567,
      "сер": 568,
      "ит": 569,
      "буд": 570,
      "наз": 571,
      "глав": 572,
      "##ено": 573,
      "реш": 574,
      "##орт": 575,
      "работ": 576,
      "мест": 577,
      "##ех": 578,
      "##люч": 579,
      "##ейств": 580,
      "словам": 581,
      "##иль": 582,
      "##ными": 583,
      "взрыв": 584,
      "##правл": 585,
      "##цию": 586,
      "##асти": 587,
      "фед": 588,
      "##да": 589,
      "##ики": 590,
      "исп": 591,
      "##ений": 592,
      "кр": 593,
      "ру": 594,
      "##арод": 595,
      "##уль": 596,
      "##сяч": 597,
      "информ": 598,
      "##ится": 599,
      "перв": 600,
      "ар": 601,
      "##азал": 602,
      "##ников": 603,
      "город": 604,
      "##тат": 605,
      "##ней": 606,
      "##ность": 607,
      "##екс": 608,
      "сво": 609,
      "ал": 610,
      "ан": 611,
      "##она": 612,
      "отк": 613,
      "##раз": 614,
      "новости": 615,
      "##ские": 616,
      "долж": 617,
      "ты": 618,
      "тел": 619,
      "пл": 620,
      "##ыл": 621,
      "ген": 622,
      "дом": 623,
      "произ": 624,
      "риа": 625,
      ">-": 626,
      "##акт": 627,
      "##иг": 628,
      "тысяч": 629,
      "##икан": 630,
      "##прос": 631,
      "##рет": 632,
      "ут": 633,
      "##цев": 634,
      "##ров": 635,
      "##оны": 636,
      "##ера": 637,
      "рез": 638,
      "##ана": 639,
      "##юд": 640,
      "##ее": 641,
      "##удар": 642,
      "долл": 643,
      "##руд": 644,
      "##er": 645,
      "##циаль": 646,
      "##онов": 647,
      "##емь": 648,
      "##ако": 649,
      "пом": 650,
      "вн": 651,
      "##ась": 652,
      "##итор": 653,
      "вер": 654,
      "##уще": 655,
      "зад": 656,
      "газ": 657,
      "тасс": 658,
      "эк": 659,
      "получ": 660,
      "боль": 661,
      "##кой": 662,
      "##ужб": 663,
      "долларов": 664,
      "##ила": 665,
      "однако": 666,
      "рф": 667,
      "##ковод": 668,
      "сот": 669,
      "##ещ": 670,
      "##ольз": 671,
      "##or": 672,
      "вс": 673,
      "##ять": 674,
      "государ": 675,
      "##аться": 676,
      "против": 677,
      "руковод": 678,
      "ад": 679,
      "##ская": 680,
      "наход": 681,
      "аг": 682,
      "амер": 683,
      "сил": 684,
      "пов": 685,
      "##ующ": 686,
      "бор": 687,
      "##на": 688,
      "##ший": 689,
      "##отв": 690,
      "спе": 691,
      "##ара": 692,
      "##тов": 693,
      "итар": 694,
      "##вест": 695,
      "##бор": 696,
      "бо": 697,
      "пресс": 698,
      "обл": 699,
      "согл": 700,
      "влад": 701,
      "действ": 702,
      "част": 703,
      "будут": 704,
      "док": 705,
      "зав": 706,
      "ук": 707,
      "##ув": 708,
      "##ники": 709,
      "зап": 710,
      "нед": 711,
      "##ающ": 712,
      "##an": 713,
      "##рад": 714,
      "##вля": 715,
      "втор": 716,
      "пор": 717,
      "##сов": 718,
      "##иш": 719,
      "##фт": 720,
      "лет": 721,
      "сент": 722,
      "##роп": 723,
      "##иту": 724,
      ">%": 725,
      "##мож": 726,
      "##яд": 727,
      "расс": 728,
      "##ора": 729,
      "##ением": 730,
      "##нач": 731,
      "##ощ": 732,
      "которые": 733,
      "рай": 734,
      "состав": 735,
      "##иру": 736,
      "воен": 737,
      "федераль": 738,
      "##ух": 739,
      "##еб": 740,
      "пог": 741,
      "ран": 742,
      "##онд": 743,
      "##станов": 744,
      "друг": 745,
      "фин": 746,
      "##ому": 747,
      "##хран": 748,
      "послед": 749,
      "террор": 750,
      "##раждан": 751,
      "того": 752,
      "организ": 753,
      "американ": 754,
      "ак": 755,
      "след": 756,
      "без": 757,
      "межд": 758,
      "##ош": 759,
      "граждан": 760,
      "##бир": 761,
      "сотруд": 762,
      "##еты": 763,
      "##ународ": 764,
      "вой": 765,
      "##ций": 766,
      "ев": 767,
      "ист": 768,
      "##обл": 769,
      "##ителей": 770,
      "сентября": 771,
      "##вод": 772,
      "##оне": 773,
      "конт": 774,
      "авт": 775,
      "москве": 776,
      "пот": 777,
      "##ступ": 778,
      "москвы": 779,
      "мв": 780,
      "##ству": 781,
      "участ": 782,
      "рег": 783,
      "служб": 784,
      "##инг": 785,
      "##иков": 786,
      "министр": 787,
      "международ": 788,
      "##ращ": 789,
      "данным": 790,
      "финан": 791,
      "##пл": 792,
      "##оло": 793,
      "соз": 794,
      "территор": 795,
      "##иж": 796,
      "##ание": 797,
      "уд": 798,
      "прог": 799,
      "кол": 800,
      "##ования": 801,
      "около": 802,
      "##аются": 803,
      "##реб": 804,
      "##рупп": 805,
      "агент": 806,
      "деп": 807,
      "##нул": 808,
      "приз": 809,
      "##ультат": 810,
      "бр": 811,
      "##еся": 812,
      "##истра": 813,
      "вопрос": 814,
      "##ало": 815,
      "##рам": 816,
      "##ация": 817,
      "##вед": 818,
      "##ием": 819,
      "##ком": 820,
      "##алист": 821,
      "##олж": 822,
      "счит": 823,
      "зам": 824,
      "пут": 825,
      "сс": 826,
      "стор": 827,
      "##ль": 828,
      "боев": 829,
      "сост": 830,
      "##уст": 831,
      "окт": 832,
      "##истем": 833,
      "##иск": 834,
      "##ыш": 835,
      "##исс": 836,
      "групп": 837,
      "мн": 838,
      "году": 839,
      "тех": 840,
      "результат": 841,
      "прим": 842,
      "##шие": 843,
      "##еспубл": 844,
      "##фер": 845,
      "премь": 846,
      "##аты": 847,
      "##атов": 848,
      "-<": 849,
      "явля": 850,
      "##ления": 851,
      "даг": 852,
      "полит": 853,
      "##опас": 854,
      "центр": 855,
      "систем": 856,
      "##ям": 857,
      "стол": 858,
      "возмож": 859,
      "связи": 860,
      "дагест": 861,
      "оф": 862,
      "мер": 863,
      "республ": 864,
      "##раб": 865,
      "##стве": 866,
      "москов": 867,
      "##черк": 868,
      "кл": 869,
      "ник": 870,
      "нам": 871,
      "бл": 872,
      "##аем": 873,
      "##вин": 874,
      "##рыт": 875,
      "##ард": 876,
      "##облем": 877,
      "##енно": 878,
      "подчерк": 879,
      "чер": 880,
      "проблем": 881,
      "вед": 882,
      "люд": 883,
      "##нер": 884,
      "##гр": 885,
      "миллионов": 886,
      "##алось": 887,
      "чис": 888,
      "##ущ": 889,
      "кос": 890,
      "нал": 891,
      "нас": 892,
      "##ели": 893,
      "##умент": 894,
      "основ": 895,
      "##них": 896,
      "прош": 897,
      "##ужд": 898,
      "октября": 899,
      "##верж": 900,
      "##пис": 901,
      "компании": 902,
      "министер": 903,
      "финансов": 904,
      "поз": 905,
      "уб": 906,
      "управл": 907,
      "##етил": 908,
      "нефт": 909,
      "##мин": 910,
      "обор": 911,
      "##евер": 912,
      "необ": 913,
      "соглас": 914,
      "безопас": 915,
      "тран": 916,
      "##ын": 917,
      "помощ": 918,
      "премьер": 919,
      "мир": 920,
      "пока": 921,
      "больш": 922,
      "##мот": 923,
      "##стоя": 924,
      "##ерш": 925,
      "погиб": 926,
      "террорист": 927,
      "##рамм": 928,
      "иск": 929,
      "##окур": 930,
      "##пред": 931,
      "##ожд": 932,
      "проц": 933,
      "который": 934,
      "использ": 935,
      "##лад": 936,
      "##es": 937,
      "##енко": 938,
      "случ": 939,
      "юр": 940,
      "##един": 941,
      "##иче": 942,
      "##есколь": 943,
      "##ному": 944,
      "президента": 945,
      "документ": 946,
      "ссыл": 947,
      "##ацию": 948,
      "объя": 949,
      "##сед": 950,
      "##ице": 951,
      "правительства": 952,
      "вост": 953,
      "перед": 954,
      "име": 955,
      "##вержд": 956,
      "день": 957,
      "##ван": 958,
      "##енные": 959,
      "##ова": 960,
      "прив": 961,
      "алекс": 962,
      "ост": 963,
      "##амент": 964,
      "отно": 965,
      "##ника": 966,
      "инд": 967,
      "##ических": 968,
      "эксп": 969,
      "несколь": 970,
      "стан": 971,
      "бел": 972,
      "##ья": 973,
      "##ант": 974,
      "обн": 975,
      "интерн": 976,
      "ne": 977,
      "##ион": 978,
      "##шей": 979,
      "##ются": 980,
      "##ители": 981,
      "решение": 982,
      "##ино": 983,
      "##ины": 984,
      "##рав": 985,
      "##ходим": 986,
      "мнению": 987,
      "рубл": 988,
      "##шего": 989,
      "состоя": 990,
      "пар": 991,
      "##то": 992,
      "##атор": 993,
      "том": 994,
      "##ле": 995,
      "##ящ": 996,
      "##in": 997,
      "##ерт": 998,
      "обще": 999,
      "##ование": 1000,
      "##ителя": 1001,
      "пон": 1002,
      "ре": 1003,
      "##мест": 1004,
      "##ским": 1005,
      "необходим": 1006,
      "##иф": 1007,
      "##ние": 1008,
      "##держ": 1009,
      "##ерб": 1010,
      "##ались": 1011,
      "##ади": 1012,
      "продолж": 1013,
      "государствен": 1014,
      "безопасности": 1015,
      "север": 1016,
      "##руж": 1017,
      "чечни": 1018,
      "##ицы": 1019,
      "кра": 1020,
      "поп": 1021,
      "##оно": 1022,
      "приб": 1023,
      "##иться": 1024,
      "план": 1025,
      "встр": 1026,
      "лиц": 1027,
      "опер": 1028,
      "области": 1029,
      "быв": 1030,
      "мэ": 1031,
      "мог": 1032,
      "##уск": 1033,
      "##ира": 1034,
      "##ему": 1035,
      "##ирект": 1036,
      "председ": 1037,
      "сказал": 1038,
      "ссылкой": 1039,
      "нар": 1040,
      "##ией": 1041,
      "##лож": 1042,
      "прич": 1043,
      "##ился": 1044,
      "##ият": 1045,
      "##ести": 1046,
      "отв": 1047,
      "лид": 1048,
      "территории": 1049,
      "акт": 1050,
      "вк": 1051,
      "круп": 1052,
      "ситу": 1053,
      "##ался": 1054,
      "##атив": 1055,
      "##мен": 1056,
      "##ног": 1057,
      "выбор": 1058,
      "производ": 1059,
      "##уществ": 1060,
      "владим": 1061,
      "подчеркнул": 1062,
      "гран": 1063,
      "ель": 1064,
      "нез": 1065,
      "##ец": 1066,
      "##рен": 1067,
      "##ятель": 1068,
      "обнар": 1069,
      "ув": 1070,
      "##ти": 1071,
      "##ициаль": 1072,
      "##еф": 1073,
      "прест": 1074,
      "минув": 1075,
      "право": 1076,
      "депут": 1077,
      "обнаруж": 1078,
      "директ": 1079,
      "чет": 1080,
      "##енной": 1081,
      "извест": 1082,
      "результате": 1083,
      "час": 1084,
      "##ап": 1085,
      "##лект": 1086,
      "##ках": 1087,
      "##орг": 1088,
      "##верг": 1089,
      "##цией": 1090,
      "##ически": 1091,
      "преступ": 1092,
      "ход": 1093,
      "##te": 1094,
      "европ": 1095,
      "пят": 1096,
      "тем": 1097,
      "##дум": 1098,
      "##on": 1099,
      "##оруж": 1100,
      "##ете": 1101,
      "##щее": 1102,
      "дагестан": 1103,
      "александ": 1104,
      "шт": 1105,
      "##ление": 1106,
      "##ева": 1107,
      "##лиж": 1108,
      "зар": 1109,
      "##ним": 1110,
      "##овать": 1111,
      "обесп": 1112,
      "##ировать": 1113,
      "контр": 1114,
      "он": 1115,
      "##ыч": 1116,
      "##ьб": 1117,
      "##еров": 1118,
      "##прият": 1119,
      "программ": 1120,
      "здан": 1121,
      "кред": 1122,
      "##ьют": 1123,
      "##ма": 1124,
      "настоя": 1125,
      "проект": 1126,
      "##ицу": 1127,
      "информации": 1128,
      "##ответ": 1129,
      "автом": 1130,
      "##истрации": 1131,
      "является": 1132,
      "new": 1133,
      "рублей": 1134,
      "владимир": 1135,
      "оон": 1136,
      "##рес": 1137,
      "##итан": 1138,
      "обвин": 1139,
      "официаль": 1140,
      "ср": 1141,
      "##охран": 1142,
      "##але": 1143,
      "##оме": 1144,
      "##екрет": 1145,
      "##ятся": 1146,
      "пострад": 1147,
      "отметил": 1148,
      "##работ": 1149,
      "ден": 1150,
      "лиш": 1151,
      "то": 1152,
      "усл": 1153,
      "##овой": 1154,
      "##обр": 1155,
      "##альной": 1156,
      "избир": 1157,
      "##ляет": 1158,
      "утвержд": 1159,
      "восточ": 1160,
      "зан": 1161,
      "##олн": 1162,
      "нап": 1163,
      "##ностью": 1164,
      "подпис": 1165,
      "##ического": 1166,
      "российских": 1167,
      "задерж": 1168,
      "источ": 1169,
      "##ферен": 1170,
      "встреч": 1171,
      ").": 1172,
      "ид": 1173,
      "ун": 1174,
      "##азыв": 1175,
      "##шее": 1176,
      "ельц": 1177,
      "гот": 1178,
      "##сс": 1179,
      "##ний": 1180,
      "направл": 1181,
      "##ателей": 1182,
      "как": 1183,
      "##сн": 1184,
      "##лет": 1185,
      "##ги": 1186,
      "##ic": 1187,
      "соответ": 1188,
      "##руз": 1189,
      "##ительно": 1190,
      "##урн": 1191,
      "админ": 1192,
      "войск": 1193,
      "намер": 1194,
      "мет": 1195,
      "нек": 1196,
      "тр": 1197,
      "##гор": 1198,
      "##олов": 1199,
      "##ата": 1200,
      "выс": 1201,
      "поддерж": 1202,
      "##лены": 1203,
      "счет": 1204,
      "кроме": 1205,
      "произош": 1206,
      "несколько": 1207,
      "обеспеч": 1208,
      "сум": 1209,
      "##яж": 1210,
      "##енного": 1211,
      "##аны": 1212,
      "##ентов": 1213,
      "россия": 1214,
      "##ической": 1215,
      "страны": 1216,
      "##ork": 1217,
      "зас": 1218,
      "##иции": 1219,
      "##нут": 1220,
      "при": 1221,
      "##ились": 1222,
      "компьют": 1223,
      "самол": 1224,
      "дж": 1225,
      "журн": 1226,
      "закон": 1227,
      "##коном": 1228,
      "внут": 1229,
      "насел": 1230,
      "отнош": 1231,
      "ближ": 1232,
      "##уз": 1233,
      "##цы": 1234,
      "##атур": 1235,
      "сообщили": 1236,
      "чечен": 1237,
      "создан": 1238,
      "ban": 1239,
      "бер": 1240,
      "вид": 1241,
      "де": 1242,
      "пал": 1243,
      "установ": 1244,
      "##ащ": 1245,
      "##инов": 1246,
      "##раф": 1247,
      "##готов": 1248,
      "##ствия": 1249,
      "##ук": 1250,
      "##ством": 1251,
      "##ока": 1252,
      "которых": 1253,
      "##него": 1254,
      ">\"": 1255,
      "кв": 1256,
      "##скую": 1257,
      "##олос": 1258,
      "национ": 1259,
      "##андид": 1260,
      "провер": 1261,
      "представитель": 1262,
      "##en": 1263,
      "##ализ": 1264,
      "##акс": 1265,
      "выступ": 1266,
      "провед": 1267,
      ">-<": 1268,
      "аэ": 1269,
      "кандид": 1270,
      "сдел": 1271,
      "##му": 1272,
      "вторник": 1273,
      "мвд": 1274,
      "беж": 1275,
      "ед": 1276,
      "меся": 1277,
      "поя": 1278,
      "парт": 1279,
      "сел": 1280,
      "ус": 1281,
      "##ателя": 1282,
      "расслед": 1283,
      "республики": 1284,
      "говор": 1285,
      "дост": 1286,
      "см": 1287,
      "секрет": 1288,
      "торг": 1289,
      "##бр": 1290,
      "выз": 1291,
      "##полаг": 1292,
      "готов": 1293,
      "bank": 1294,
      "доб": 1295,
      "##енс": 1296,
      "общ": 1297,
      "двух": 1298,
      "борьб": 1299,
      "агентство": 1300,
      "интернет": 1301,
      "дог": 1302,
      "кур": 1303,
      "ог": 1304,
      "рак": 1305,
      "элект": 1306,
      "##нем": 1307,
      "##пор": 1308,
      "конц": 1309,
      "российской": 1310,
      "запад": 1311,
      "стороны": 1312,
      "##охранитель": 1313,
      "мили": 1314,
      "##ери": 1315,
      "##езд": 1316,
      "##ург": 1317,
      "города": 1318,
      "службы": 1319,
      "призн": 1320,
      "оч": 1321,
      "эконом": 1322,
      "прокур": 1323,
      "##едель": 1324,
      "осв": 1325,
      "власти": 1326,
      "исключ": 1327,
      "york": 1328,
      "вал": 1329,
      "зат": 1330,
      "##ское": 1331,
      "##омб": 1332,
      "дело": 1333,
      "вел": 1334,
      "##шим": 1335,
      "##ита": 1336,
      "##ика": 1337,
      "заявл": 1338,
      "движ": 1339,
      "мвф": 1340,
      "налог": 1341,
      "ближай": 1342,
      "дум": 1343,
      "мат": 1344,
      "сет": 1345,
      "##ter": 1346,
      "предлож": 1347,
      "конферен": 1348,
      "законо": 1349,
      "министра": 1350,
      "генераль": 1351,
      "правоохранитель": 1352,
      "бежен": 1353,
      "договор": 1354,
      "зем": 1355,
      "##лив": 1356,
      "##ске": 1357,
      "##олог": 1358,
      "обяз": 1359,
      "образ": 1360,
      "частности": 1361,
      "нес": 1362,
      "треб": 1363,
      "##енный": 1364,
      "##ило": 1365,
      "##руш": 1366,
      "выд": 1367,
      "предостав": 1368,
      "совет": 1369,
      "##скому": 1370,
      "засед": 1371,
      "внутрен": 1372,
      "тур": 1373,
      "уг": 1374,
      "фран": 1375,
      "##ацион": 1376,
      "##ром": 1377,
      "##ениям": 1378,
      "британ": 1379,
      "согласно": 1380,
      "случа": 1381,
      "четверг": 1382,
      "фир": 1383,
      "##ян": 1384,
      "##al": 1385,
      "##ечение": 1386,
      "миллиард": 1387,
      "прошл": 1388,
      "наруш": 1389,
      "директор": 1390,
      "деятель": 1391,
      "дем": 1392,
      "сн": 1393,
      "##вар": 1394,
      "##ость": 1395,
      "##ностран": 1396,
      "которая": 1397,
      "госдум": 1398,
      "соверш": 1399,
      "объедин": 1400,
      "##едельник": 1401,
      "ат": 1402,
      "бы": 1403,
      "иностран": 1404,
      "нем": 1405,
      "оруж": 1406,
      "сем": 1407,
      "##аний": 1408,
      "##атр": 1409,
      "началь": 1410,
      "путин": 1411,
      "денег": 1412,
      "освоб": 1413,
      "доп": 1414,
      "кил": 1415,
      "мед": 1416,
      "##сб": 1417,
      "##вол": 1418,
      "##ar": 1419,
      "обс": 1420,
      "##пров": 1421,
      "разв": 1422,
      "вооруж": 1423,
      "принят": 1424,
      "банка": 1425,
      "##юдж": 1426,
      "специаль": 1427,
      "считает": 1428,
      "соответств": 1429,
      "ноч": 1430,
      "ряд": 1431,
      "##овых": 1432,
      "над": 1433,
      "##озр": 1434,
      "борис": 1435,
      "услов": 1436,
      "журналист": 1437,
      "##аев": 1438,
      "##иях": 1439,
      "##изн": 1440,
      "подготов": 1441,
      "##еспонд": 1442,
      "средств": 1443,
      "приня": 1444,
      "замест": 1445,
      "некотор": 1446,
      "до": 1447,
      "луж": 1448,
      "сод": 1449,
      "##мы": 1450,
      "##елич": 1451,
      "перег": 1452,
      "свед": 1453,
      "телеф": 1454,
      "бюдж": 1455,
      "рек": 1456,
      "##ческ": 1457,
      "##кес": 1458,
      "##ово": 1459,
      "##ике": 1460,
      "##ального": 1461,
      "подт": 1462,
      "команд": 1463,
      "комисс": 1464,
      "##нее": 1465,
      "of": 1466,
      "кит": 1467,
      "мар": 1468,
      "нак": 1469,
      "там": 1470,
      "##респонд": 1471,
      "##густ": 1472,
      "сто": 1473,
      "компания": 1474,
      "среду": 1475,
      "специ": 1476,
      "других": 1477,
      "лужков": 1478,
      "гр": 1479,
      "течение": 1480,
      "штат": 1481,
      "##та": 1482,
      "##юз": 1483,
      "##пон": 1484,
      "##so": 1485,
      "##иты": 1486,
      "полож": 1487,
      "российского": 1488,
      "времени": 1489,
      "провод": 1490,
      "##роф": 1491,
      "серг": 1492,
      "генер": 1493,
      "управления": 1494,
      "понедельник": 1495,
      "ходе": 1496,
      "бомб": 1497,
      "вос": 1498,
      "вмест": 1499,
      "груз": 1500,
      "мен": 1501,
      "мног": 1502,
      "очер": 1503,
      "ра": 1504,
      "род": 1505,
      "тим": 1506,
      "##вал": 1507,
      "##бан": 1508,
      "##оду": 1509,
      "перев": 1510,
      "свое": 1511,
      "спас": 1512,
      "никак": 1513,
      "людей": 1514,
      "увелич": 1515,
      "настоящее": 1516,
      "либ": 1517,
      "юж": 1518,
      "##ницу": 1519,
      "##ине": 1520,
      "##альных": 1521,
      "проис": 1522,
      "заключ": 1523,
      "##ублик": 1524,
      "дома": 1525,
      "избиратель": 1526,
      "компьютер": 1527,
      "##респондент": 1528,
      "дет": 1529,
      "каж": 1530,
      "лонд": 1531,
      "рус": 1532,
      "тон": 1533,
      "член": 1534,
      "##ура": 1535,
      "##om": 1536,
      "##ti": 1537,
      "##авших": 1538,
      "глава": 1539,
      "черкес": 1540,
      "##предел": 1541,
      "ответ": 1542,
      "масс": 1543,
      "сан": 1544,
      "сай": 1545,
      "цен": 1546,
      "##ищ": 1547,
      "##омет": 1548,
      "##щего": 1549,
      "опас": 1550,
      "среди": 1551,
      "##актически": 1552,
      "косм": 1553,
      "лидер": 1554,
      "уголов": 1555,
      "очеред": 1556,
      "кара": 1557,
      "лю": 1558,
      "мих": 1559,
      "пет": 1560,
      "поск": 1561,
      "тай": 1562,
      "##пуск": 1563,
      "##ьез": 1564,
      "##ерн": 1565,
      "##илась": 1566,
      "комит": 1567,
      "защ": 1568,
      "##люд": 1569,
      "##прав": 1570,
      "цел": 1571,
      "##са": 1572,
      "##нев": 1573,
      "##ях": 1574,
      "##ано": 1575,
      "подозр": 1576,
      "##ольку": 1577,
      "##аче": 1578,
      "##рех": 1579,
      "представители": 1580,
      "поступ": 1581,
      "отмеч": 1582,
      "правительство": 1583,
      "работы": 1584,
      "своих": 1585,
      "автомоб": 1586,
      "переговор": 1587,
      "поскольку": 1588,
      "in": 1589,
      "аб": 1590,
      "знач": 1591,
      "кам": 1592,
      "ож": 1593,
      "реж": 1594,
      "сб": 1595,
      "##скими": 1596,
      "##рукт": 1597,
      "предполаг": 1598,
      "размер": 1599,
      "первый": 1600,
      "включ": 1601,
      "усил": 1602,
      "ули": 1603,
      "шв": 1604,
      "##ламент": 1605,
      "##рез": 1606,
      "##пер": 1607,
      "подоб": 1608,
      "конк": 1609,
      "теракт": 1610,
      "август": 1611,
      "пох": 1612,
      "банк": 1613,
      "серьез": 1614,
      "обороны": 1615,
      "##ца": 1616,
      "##рах": 1617,
      "этих": 1618,
      "особ": 1619,
      "всем": 1620,
      "боевиков": 1621,
      "могут": 1622,
      "председатель": 1623,
      "конференции": 1624,
      "специалист": 1625,
      "нан": 1626,
      "##ман": 1627,
      "##энер": 1628,
      "##ro": 1629,
      "##ерации": 1630,
      "##онез": 1631,
      "##истов": 1632,
      "##ранич": 1633,
      "списк": 1634,
      "##ственных": 1635,
      "власт": 1636,
      "совета": 1637,
      "корреспондент": 1638,
      "срок": 1639,
      "кварт": 1640,
      "либо": 1641,
      "вице": 1642,
      "даль": 1643,
      "зал": 1644,
      "заб": 1645,
      "оц": 1646,
      "рын": 1647,
      "ради": 1648,
      "осуществ": 1649,
      "опера": 1650,
      "банков": 1651,
      "ранее": 1652,
      "актив": 1653,
      "случае": 1654,
      ">.": 1655,
      "голос": 1656,
      "мы": 1657,
      "поб": 1658,
      "##енз": 1659,
      "##оре": 1660,
      "##ину": 1661,
      "##остран": 1662,
      "конст": 1663,
      "человека": 1664,
      "открыт": 1665,
      "##ирует": 1666,
      "лишь": 1667,
      "вод": 1668,
      "япон": 1669,
      "##уг": 1670,
      "##ыми": 1671,
      "##матр": 1672,
      "##овали": 1673,
      "##алась": 1674,
      "##убеж": 1675,
      "российские": 1676,
      "скор": 1677,
      "интерф": 1678,
      "арест": 1679,
      "указ": 1680,
      "районе": 1681,
      "александр": 1682,
      "штаб": 1683,
      "контрол": 1684,
      "заним": 1685,
      "беженцев": 1686,
      "##матрив": 1687,
      "кат": 1688,
      "постав": 1689,
      "фсб": 1690,
      "##иной": 1691,
      "##лог": 1692,
      "##стан": 1693,
      "##онч": 1694,
      "##еком": 1695,
      "выпол": 1696,
      "##иция": 1697,
      "назнач": 1698,
      "созд": 1699,
      "##ышлен": 1700,
      "парламент": 1701,
      "электр": 1702,
      "интерфакс": 1703,
      "пак": 1704,
      "польз": 1705,
      "хот": 1706,
      "##ыск": 1707,
      "##истр": 1708,
      "##ункт": 1709,
      "федерации": 1710,
      "европей": 1711,
      "люб": 1712,
      ">,": 1713,
      "жителей": 1714,
      "остав": 1715,
      "##дер": 1716,
      "##ia": 1717,
      "##илось": 1718,
      "выя": 1719,
      "которой": 1720,
      "##верд": 1721,
      "центра": 1722,
      "пример": 1723,
      "позвол": 1724,
      "крупней": 1725,
      "пятницу": 1726,
      "секретар": 1727,
      "фл": 1728,
      "##прин": 1729,
      "##полож": 1730,
      "соглаш": 1731,
      "числе": 1732,
      "##мотр": 1733,
      "миллиардов": 1734,
      "дор": 1735,
      "дня": 1736,
      "нат": 1737,
      "народ": 1738,
      "##im": 1739,
      "прев": 1740,
      "стро": 1741,
      "союз": 1742,
      "наш": 1743,
      "##про": 1744,
      "изра": 1745,
      "ави": 1746,
      "распр": 1747,
      "сотрудн": 1748,
      "участие": 1749,
      "количе": 1750,
      "деньги": 1751,
      "торгов": 1752,
      "километ": 1753,
      "тамож": 1754,
      "веч": 1755,
      "ию": 1756,
      "нев": 1757,
      "угр": 1758,
      "##дж": 1759,
      "##датель": 1760,
      "##цар": 1761,
      "##енным": 1762,
      "пром": 1763,
      "прек": 1764,
      "##итр": 1765,
      "стать": 1766,
      "##изм": 1767,
      "##избир": 1768,
      "##ербург": 1769,
      "самолет": 1770,
      "милиции": 1771,
      "внутренних": 1772,
      "освобожд": 1773,
      "содерж": 1774,
      "телефон": 1775,
      "мит": 1776,
      "семь": 1777,
      "##ват": 1778,
      "##леж": 1779,
      "##пании": 1780,
      "##це": 1781,
      "##ойд": 1782,
      "выпл": 1783,
      "разработ": 1784,
      "интерв": 1785,
      "взрыва": 1786,
      "действия": 1787,
      "клин": 1788,
      "министерства": 1789,
      "петербург": 1790,
      "),": 1791,
      "гер": 1792,
      "дости": 1793,
      "пункт": 1794,
      "что": 1795,
      "##аций": 1796,
      "##лич": 1797,
      "##нолог": 1798,
      "прис": 1799,
      "##орус": 1800,
      "##алов": 1801,
      "##ейцар": 1802,
      "##ениях": 1803,
      "##раздел": 1804,
      "должен": 1805,
      "должны": 1806,
      "системы": 1807,
      "часов": 1808,
      "напом": 1809,
      "менее": 1810,
      "кажд": 1811,
      "режим": 1812,
      "примерно": 1813,
      "вол": 1814,
      "губ": 1815,
      "кан": 1816,
      "каз": 1817,
      "##ует": 1818,
      "которого": 1819,
      "конф": 1820,
      "##ирования": 1821,
      "органов": 1822,
      "информацион": 1823,
      "белорус": 1824,
      "миха": 1825,
      "швейцар": 1826,
      "ном": 1827,
      "пож": 1828,
      "##as": 1829,
      "##енд": 1830,
      "##особ": 1831,
      "##арда": 1832,
      "##иктор": 1833,
      "##исим": 1834,
      "предприят": 1835,
      "новый": 1836,
      "оказал": 1837,
      "эта": 1838,
      "назыв": 1839,
      "плат": 1840,
      "блок": 1841,
      "индонез": 1842,
      "един": 1843,
      "велик": 1844,
      "матери": 1845,
      "ожид": 1846,
      "интервью": 1847,
      "аф": 1848,
      "вок": 1849,
      "воск": 1850,
      "введ": 1851,
      "дек": 1852,
      "деся": 1853,
      "зн": 1854,
      "ко": 1855,
      "нет": 1856,
      "форм": 1857,
      "ядер": 1858,
      "##анию": 1859,
      "став": 1860,
      "наб": 1861,
      "##изации": 1862,
      "вын": 1863,
      "военных": 1864,
      "##спорт": 1865,
      "отмыв": 1866,
      "центре": 1867,
      "свои": 1868,
      "газета": 1869,
      "##ынеш": 1870,
      "попыт": 1871,
      "оператив": 1872,
      "высок": 1873,
      "вместе": 1874,
      "##избирком": 1875,
      "пло": 1876,
      "эф": 1877,
      "як": 1878,
      "##чат": 1879,
      "подраздел": 1880,
      "##строй": 1881,
      "связан": 1882,
      "поряд": 1883,
      "потер": 1884,
      "технолог": 1885,
      "погибли": 1886,
      "распростран": 1887,
      "бал": 1888,
      "виктор": 1889,
      "гар": 1890,
      "миров": 1891,
      "нынеш": 1892,
      "определ": 1893,
      "тю": 1894,
      "##его": 1895,
      "##лов": 1896,
      "##каз": 1897,
      "##эт": 1898,
      "##ером": 1899,
      "##акон": 1900,
      "обрат": 1901,
      "запр": 1902,
      "объем": 1903,
      "арм": 1904,
      "находится": 1905,
      "укра": 1906,
      "регистрации": 1907,
      "удалось": 1908,
      "сторон": 1909,
      "косово": 1910,
      "##ертв": 1911,
      "мэра": 1912,
      "дагестане": 1913,
      "кредит": 1914,
      "##олнитель": 1915,
      "ельцина": 1916,
      "развит": 1917,
      "доход": 1918,
      "воскрес": 1919,
      "ди": 1920,
      "жел": 1921,
      "нью": 1922,
      "энер": 1923,
      "##чет": 1924,
      "##енном": 1925,
      "приш": 1926,
      "##авказ": 1927,
      "##ократ": 1928,
      "выдел": 1929,
      "спис": 1930,
      "##ающих": 1931,
      "другие": 1932,
      "проблемы": 1933,
      "бывший": 1934,
      "заместитель": 1935,
      "##руктур": 1936,
      "кир": 1937,
      "##тож": 1938,
      "практически": 1939,
      "##орв": 1940,
      "##еле": 1941,
      "##ичтож": 1942,
      "##ряс": 1943,
      "возник": 1944,
      "главы": 1945,
      "взрывчат": 1946,
      "спец": 1947,
      "американских": 1948,
      "уничтож": 1949,
      "тонн": 1950,
      "re": 1951,
      "вв": 1952,
      "мом": 1953,
      "маш": 1954,
      "четы": 1955,
      "##ol": 1956,
      "##оров": 1957,
      "##раг": 1958,
      "##ота": 1959,
      "##евой": 1960,
      "##альные": 1961,
      "##альный": 1962,
      "##ические": 1963,
      "изб": 1964,
      "измен": 1965,
      "нового": 1966,
      "государства": 1967,
      "##отвор": 1968,
      "операции": 1969,
      "известно": 1970,
      "##атуры": 1971,
      "августа": 1972,
      "великобр": 1973,
      "момент": 1974,
      "баз": 1975,
      "банд": 1976,
      "мор": 1977,
      "##шая": 1978,
      "##мент": 1979,
      "##оном": 1980,
      "##яр": 1981,
      "коммер": 1982,
      "##очно": 1983,
      "разруш": 1984,
      "неиз": 1985,
      "##ектив": 1986,
      "##ственно": 1987,
      "столицы": 1988,
      "министерство": 1989,
      "помощь": 1990,
      "законодатель": 1991,
      "образом": 1992,
      "генерал": 1993,
      "промышлен": 1994,
      "бесп": 1995,
      "вход": 1996,
      "мас": 1997,
      "рам": 1998,
      "##ип": 1999,
      "##шую": 2000,
      "##гос": 2001,
      "##осто": 2002,
      "стало": 2003,
      "##истан": 2004,
      "отдел": 2005,
      "дела": 2006,
      "##глав": 2007,
      "##артамент": 2008,
      "##енье": 2009,
      "сообщила": 2010,
      "##реть": 2011,
      "составляет": 2012,
      "сотрудников": 2013,
      "юрий": 2014,
      "борьбе": 2015,
      "китай": 2016,
      "аз": 2017,
      "гл": 2018,
      "жертв": 2019,
      "топ": 2020,
      "##аю": 2021,
      "##ея": 2022,
      "##реш": 2023,
      "##режд": 2024,
      "##el": 2025,
      "##онах": 2026,
      "стр": 2027,
      "стал": 2028,
      "##прокур": 2029,
      "##ывает": 2030,
      "постанов": 2031,
      "стране": 2032,
      "##атели": 2033,
      "руководство": 2034,
      "##ующих": 2035,
      "##арак": 2036,
      "потреб": 2037,
      "транспорт": 2038,
      "большин": 2039,
      "незакон": 2040,
      "ракет": 2041,
      "госдумы": 2042,
      "##энерго": 2043,
      "сотрудниче": 2044,
      "дав": 2045,
      "жив": 2046,
      "йор": 2047,
      "карт": 2048,
      "маг": 2049,
      "мисс": 2050,
      "уров": 2051,
      "##лении": 2052,
      "##рь": 2053,
      "##ода": 2054,
      "наиб": 2055,
      "сканд": 2056,
      "суда": 2057,
      "##ульт": 2058,
      "своей": 2059,
      "повыш": 2060,
      "часть": 2061,
      "число": 2062,
      "залож": 2063,
      "угроз": 2064,
      "список": 2065,
      "pr": 2066,
      "пасс": 2067,
      "силь": 2068,
      "шк": 2069,
      "##сии": 2070,
      "##ню": 2071,
      "##ры": 2072,
      "##яет": 2073,
      "##ствие": 2074,
      "##ависим": 2075,
      "своб": 2076,
      "##ственной": 2077,
      "##служ": 2078,
      "##орту": 2079,
      "ант": 2080,
      "меры": 2081,
      "##сслед": 2082,
      "##нуть": 2083,
      "населения": 2084,
      "иностранных": 2085,
      "десят": 2086,
      "воскресенье": 2087,
      "бол": 2088,
      "зв": 2089,
      "каче": 2090,
      "лич": 2091,
      "мира": 2092,
      "пыт": 2093,
      "тяж": 2094,
      "уп": 2095,
      "уст": 2096,
      "##рос": 2097,
      "##ско": 2098,
      "##онда": 2099,
      "##рач": 2100,
      "##ику": 2101,
      "##евид": 2102,
      "##ивает": 2103,
      "предвар": 2104,
      "##ечь": 2105,
      "##ечат": 2106,
      "проход": 2107,
      "перес": 2108,
      "котором": 2109,
      "различ": 2110,
      "неп": 2111,
      "именно": 2112,
      "совмест": 2113,
      "миллиона": 2114,
      "сегодняш": 2115,
      "месте": 2116,
      "телеком": 2117,
      "верх": 2118,
      "помощи": 2119,
      "миротвор": 2120,
      "ситуация": 2121,
      "деятельности": 2122,
      "начальник": 2123,
      "обсужд": 2124,
      "корреспонденту": 2125,
      "губерн": 2126,
      "михаил": 2127,
      "пассаж": 2128,
      "ис": 2129,
      "сут": 2130,
      "сах": 2131,
      "##сь": 2132,
      "##сно": 2133,
      "##ты": 2134,
      "##лон": 2135,
      "##ких": 2136,
      "##овые": 2137,
      "##ерс": 2138,
      "##алин": 2139,
      "##идет": 2140,
      "##овании": 2141,
      "##ический": 2142,
      "заяв": 2143,
      "событ": 2144,
      "недав": 2145,
      "регион": 2146,
      "считают": 2147,
      "дагестана": 2148,
      "имеет": 2149,
      "депутат": 2150,
      "никаких": 2151,
      "пользов": 2152,
      "великобрит": 2153,
      "неизвест": 2154,
      "ап": 2155,
      "зах": 2156,
      "исслед": 2157,
      "охран": 2158,
      "чрез": 2159,
      "##др": 2160,
      "##нии": 2161,
      "##итар": 2162,
      "##олев": 2163,
      "способ": 2164,
      "##ряд": 2165,
      "одной": 2166,
      "возд": 2167,
      "делу": 2168,
      "представителей": 2169,
      "рабоч": 2170,
      "приним": 2171,
      "располож": 2172,
      "информацию": 2173,
      "городе": 2174,
      "домов": 2175,
      "заверш": 2176,
      "следов": 2177,
      "сотрудники": 2178,
      "процесс": 2179,
      "независим": 2180,
      "очень": 2181,
      "оружия": 2182,
      "##изнес": 2183,
      "многие": 2184,
      "карач": 2185,
      "вечером": 2186,
      "топлив": 2187,
      "бу": 2188,
      "ош": 2189,
      "тек": 2190,
      "ущ": 2191,
      "##тон": 2192,
      "##шем": 2193,
      "##мах": 2194,
      "##еля": 2195,
      "##аку": 2196,
      "##ально": 2197,
      "##уратов": 2198,
      "слож": 2199,
      "проф": 2200,
      "новой": 2201,
      "оказ": 2202,
      "одного": 2203,
      "##нефт": 2204,
      "закрыт": 2205,
      "миллиарда": 2206,
      "генпрокур": 2207,
      "силы": 2208,
      "организации": 2209,
      "ведом": 2210,
      "##ing": 2211,
      "##ычай": 2212,
      "кандидатов": 2213,
      "правоохранительных": 2214,
      "подтверд": 2215,
      "выполн": 2216,
      "нато": 2217,
      "наблюд": 2218,
      "##арактер": 2219,
      "карачаев": 2220,
      "(<": 2221,
      "бир": 2222,
      "еж": 2223,
      "жен": 2224,
      "жил": 2225,
      "мол": 2226,
      "сос": 2227,
      "факт": 2228,
      "##чит": 2229,
      "##те": 2230,
      "##вычай": 2231,
      "##пит": 2232,
      "##et": 2233,
      "##ану": 2234,
      "##алы": 2235,
      "най": 2236,
      "выход": 2237,
      "предотв": 2238,
      "##егистр": 2239,
      "##ече": 2240,
      "пере": 2241,
      "разреш": 2242,
      "возглав": 2243,
      "##имира": 2244,
      "назад": 2245,
      "##ируется": 2246,
      "##ess": 2247,
      "##летряс": 2248,
      "предваритель": 2249,
      "чрезвычай": 2250,
      "as": 2251,
      "tim": 2252,
      "нав": 2253,
      "рост": 2254,
      "трех": 2255,
      "фонда": 2256,
      "хол": 2257,
      "##вок": 2258,
      "##лик": 2259,
      "##лег": 2260,
      "##ft": 2261,
      "прос": 2262,
      "предприн": 2263,
      "##никами": 2264,
      "полностью": 2265,
      "разг": 2266,
      "возв": 2267,
      "скуратов": 2268,
      "адрес": 2269,
      "адвок": 2270,
      "агентства": 2271,
      "люди": 2272,
      "транс": 2273,
      "процентов": 2274,
      "объявл": 2275,
      "землетряс": 2276,
      "своего": 2277,
      "лондон": 2278,
      "улице": 2279,
      "гарант": 2280,
      "times": 2281,
      "виз": 2282,
      "зол": 2283,
      "ира": 2284,
      "оз": 2285,
      "цель": 2286,
      "##дель": 2287,
      "##ками": 2288,
      "##шли": 2289,
      "##ме": 2290,
      "##йн": 2291,
      "##енности": 2292,
      "##аков": 2293,
      "обращ": 2294,
      "##ениями": 2295,
      "##ованы": 2296,
      "которое": 2297,
      "данные": 2298,
      "корп": 2299,
      "внеш": 2300,
      "владимира": 2301,
      "##ающие": 2302,
      "района": 2303,
      "военно": 2304,
      "федеральных": 2305,
      "последние": 2306,
      "акции": 2307,
      "группа": 2308,
      "группы": 2309,
      "документы": 2310,
      "отношении": 2311,
      "##ащих": 2312,
      "валют": 2313,
      "автомобил": 2314,
      "квартир": 2315,
      "достиг": 2316,
      "бес": 2317,
      "бизнес": 2318,
      "ваш": 2319,
      "вчер": 2320,
      "дм": 2321,
      "поч": 2322,
      "публик": 2323,
      "сми": 2324,
      "тол": 2325,
      "ура": 2326,
      "устрой": 2327,
      "##вид": 2328,
      "##гу": 2329,
      "##un": 2330,
      "##ового": 2331,
      "##нок": 2332,
      "##ары": 2333,
      "##обы": 2334,
      "степ": 2335,
      "выск": 2336,
      "компаний": 2337,
      "делег": 2338,
      "##ющих": 2339,
      "органы": 2340,
      "серб": 2341,
      "##яться": 2342,
      "истор": 2343,
      "ельцин": 2344,
      "конкрет": 2345,
      "конститу": 2346,
      "площ": 2347,
      "карачаево": 2348,
      "вес": 2349,
      "цик": 2350,
      "##таб": 2351,
      "##is": 2352,
      "##орд": 2353,
      "##олее": 2354,
      "##обус": 2355,
      "##иса": 2356,
      "отс": 2357,
      "отстав": 2358,
      "выпуск": 2359,
      "предус": 2360,
      "##ическое": 2361,
      "минут": 2362,
      "оконч": 2363,
      "##ленных": 2364,
      "осн": 2365,
      "возб": 2366,
      "компл": 2367,
      "австр": 2368,
      "##нова": 2369,
      "интерес": 2370,
      "##ратив": 2371,
      "##служб": 2372,
      "место": 2373,
      "##ующие": 2374,
      "действий": 2375,
      "террористов": 2376,
      "объявил": 2377,
      "##ted": 2378,
      "аэроп": 2379,
      "доступ": 2380,
      "заседании": 2381,
      "некоторые": 2382,
      "бюджет": 2383,
      "##tion": 2384,
      "ошиб": 2385,
      "ураган": 2386,
      "достав": 2387,
      "кас": 2388,
      "кавказ": 2389,
      "мч": 2390,
      "сол": 2391,
      "суще": 2392,
      "фун": 2393,
      "характер": 2394,
      "##аф": 2395,
      "##ри": 2396,
      "##мет": 2397,
      "##сто": 2398,
      "##енная": 2399,
      "##овер": 2400,
      "##илл": 2401,
      "стар": 2402,
      "инст": 2403,
      "свидет": 2404,
      "конгр": 2405,
      "сообщило": 2406,
      "газеты": 2407,
      "находящ": 2408,
      "федерального": 2409,
      "оборуд": 2410,
      "мире": 2411,
      "##мотря": 2412,
      "контроль": 2413,
      "пострадав": 2414,
      "##icro": 2415,
      "администрации": 2416,
      "месяцев": 2417,
      "несмотря": 2418,
      "журналистам": 2419,
      "комитета": 2420,
      "press": 2421,
      "великобритании": 2422,
      "дмитр": 2423,
      "комплекс": 2424,
      "мчс": 2425,
      "конгресс": 2426,
      "ma": 2427,
      "micro": 2428,
      "зд": 2429,
      "заст": 2430,
      "лег": 2431,
      "мощ": 2432,
      "существ": 2433,
      "тов": 2434,
      "усп": 2435,
      "##ацией": 2436,
      "##уют": 2437,
      "##рыл": 2438,
      "##ями": 2439,
      "##цами": 2440,
      "##ъя": 2441,
      "##еры": 2442,
      "прож": 2443,
      "приг": 2444,
      "прям": 2445,
      "##етии": 2446,
      "выстав": 2447,
      "##егос": 2448,
      "##ционной": 2449,
      "##стро": 2450,
      "поиск": 2451,
      "задолж": 2452,
      "получили": 2453,
      "военные": 2454,
      "реги": 2455,
      "эксперт": 2456,
      "мэр": 2457,
      "вклад": 2458,
      "минувший": 2459,
      "источники": 2460,
      "секретарь": 2461,
      "митинг": 2462,
      "декаб": 2463,
      "рамках": 2464,
      "наиболее": 2465,
      "кар": 2466,
      "пенс": 2467,
      "##ваку": 2468,
      "##лин": 2469,
      "##лением": 2470,
      "##га": 2471,
      "##ял": 2472,
      "##da": 2473,
      "##ерв": 2474,
      "##еть": 2475,
      "##онст": 2476,
      "##остан": 2477,
      "сохран": 2478,
      "##адлеж": 2479,
      "##астроф": 2480,
      "которым": 2481,
      "конс": 2482,
      "этим": 2483,
      "представителя": 2484,
      "счета": 2485,
      "своем": 2486,
      "должно": 2487,
      "нефти": 2488,
      "нефтя": 2489,
      "погибших": 2490,
      "зарегистр": 2491,
      "программы": 2492,
      "идет": 2493,
      "ближайшее": 2494,
      "сергей": 2495,
      "восстанов": 2496,
      "##егося": 2497,
      "ес": 2498,
      "ман": 2499,
      "муж": 2500,
      "роз": 2501,
      "части": 2502,
      "##виж": 2503,
      "##ици": 2504,
      "##хо": 2505,
      "##итут": 2506,
      "##ракт": 2507,
      "стали": 2508,
      "##иверс": 2509,
      "##ностей": 2510,
      "развед": 2511,
      "##ическим": 2512,
      "новая": 2513,
      "одном": 2514,
      "##оян": 2515,
      "российский": 2516,
      "авар": 2517,
      "госпит": 2518,
      "продаж": 2519,
      "##осьб": 2520,
      "принадлеж": 2521,
      "корруп": 2522,
      "должна": 2523,
      "задач": 2524,
      "второй": 2525,
      "войны": 2526,
      "##ствует": 2527,
      "призыв": 2528,
      "состо": 2529,
      "блока": 2530,
      "государственной": 2531,
      "ситуации": 2532,
      "расследование": 2533,
      "движения": 2534,
      "соответствии": 2535,
      "гроз": 2536,
      "##soft": 2537,
      "предполагается": 2538,
      "количество": 2539,
      "номер": 2540,
      "вашинг": 2541,
      "microsoft": 2542,
      "вступ": 2543,
      "лд": 2544,
      "лад": 2545,
      "норм": 2546,
      "пад": 2547,
      "фбр": 2548,
      "##уется": 2549,
      "##хад": 2550,
      "##кин": 2551,
      "##град": 2552,
      "##енное": 2553,
      "##овал": 2554,
      "преж": 2555,
      "просьб": 2556,
      "##ате": 2557,
      "##истратив": 2558,
      "отече": 2559,
      "##ованием": 2560,
      "##ицей": 2561,
      "миним": 2562,
      "этому": 2563,
      "##лено": 2564,
      "##ированы": 2565,
      "средства": 2566,
      "собой": 2567,
      "##лара": 2568,
      "арх": 2569,
      "получил": 2570,
      ">%.": 2571,
      "столице": 2572,
      "московского": 2573,
      "председателя": 2574,
      "выборах": 2575,
      "берез": 2576,
      "огранич": 2577,
      "сведениям": 2578,
      "комиссии": 2579,
      "членов": 2580,
      "качестве": 2581,
      "тяжел": 2582,
      "лин": 2583,
      "сей": 2584,
      "увер": 2585,
      "цены": 2586,
      "эваку": 2587,
      "##ыс": 2588,
      "##енность": 2589,
      "##оволь": 2590,
      "##ноз": 2591,
      "##енив": 2592,
      "##око": 2593,
      "##ивать": 2594,
      "##цид": 2595,
      "##уда": 2596,
      "инг": 2597,
      "сообщению": 2598,
      "##кова": 2599,
      "таким": 2600,
      "##ителем": 2601,
      "##ательно": 2602,
      "##правил": 2603,
      "показ": 2604,
      "терроризм": 2605,
      "являются": 2606,
      "центризбирком": 2607,
      "говорится": 2608,
      "вызв": 2609,
      "демократ": 2610,
      "подозрев": 2611,
      "израиль": 2612,
      "вынужд": 2613,
      "свобод": 2614,
      "asso": 2615,
      "березов": 2616,
      "бед": 2617,
      "жиз": 2618,
      "лу": 2619,
      "лик": 2620,
      "май": 2621,
      "##сон": 2622,
      "##нил": 2623,
      "##жал": 2624,
      "##бл": 2625,
      "##il": 2626,
      "##итет": 2627,
      "##ента": 2628,
      "##оком": 2629,
      "новых": 2630,
      "отмет": 2631,
      "собран": 2632,
      "анал": 2633,
      "вним": 2634,
      "возможность": 2635,
      "обществен": 2636,
      "выборов": 2637,
      "произошел": 2638,
      "смог": 2639,
      "##ters": 2640,
      "накану": 2641,
      "черкесии": 2642,
      "строитель": 2643,
      "конфлик": 2644,
      "пожар": 2645,
      "верхов": 2646,
      "##махи": 2647,
      "возвращ": 2648,
      "институт": 2649,
      "лдпр": 2650,
      "ингуш": 2651,
      "накануне": 2652,
      "вир": 2653,
      "дер": 2654,
      "дев": 2655,
      "исл": 2656,
      "ноя": 2657,
      "тал": 2658,
      "ур": 2659,
      "шаг": 2660,
      "##чис": 2661,
      "##во": 2662,
      "##вор": 2663,
      "##над": 2664,
      "##пар": 2665,
      "##мещ": 2666,
      "##ъезд": 2667,
      "##ri": 2668,
      "##ерг": 2669,
      "прем": 2670,
      "##орож": 2671,
      "##ела": 2672,
      "##ари": 2673,
      "##имость": 2674,
      "напр": 2675,
      "выраз": 2676,
      "преду": 2677,
      "##егор": 2678,
      "перер": 2679,
      "коммент": 2680,
      "округ": 2681,
      "##лена": 2682,
      "##ировал": 2683,
      "данных": 2684,
      "распор": 2685,
      "итог": 2686,
      "назван": 2687,
      "##орта": 2688,
      "работу": 2689,
      "уточ": 2690,
      "находятся": 2691,
      "област": 2692,
      "##ающей": 2693,
      "рассматрив": 2694,
      "организация": 2695,
      "автобус": 2696,
      "примен": 2697,
      "необходимо": 2698,
      "границы": 2699,
      "встречи": 2700,
      "палест": 2701,
      "затем": 2702,
      "семен": 2703,
      "спецслужб": 2704,
      "коммерческ": 2705,
      "com": 2706,
      "крем": 2707,
      "луч": 2708,
      "нуж": 2709,
      "сект": 2710,
      "##чик": 2711,
      "##укт": 2712,
      "##лот": 2713,
      "##гиз": 2714,
      "##оят": 2715,
      "##енными": 2716,
      "##овым": 2717,
      "##ска": 2718,
      "##ату": 2719,
      "россию": 2720,
      "проп": 2721,
      "полном": 2722,
      "посоль": 2723,
      "##ировано": 2724,
      "продукт": 2725,
      "поэт": 2726,
      "корпор": 2727,
      "собира": 2728,
      "протест": 2729,
      "помещ": 2730,
      "##шиеся": 2731,
      "зарубеж": 2732,
      "утверждает": 2733,
      "задержан": 2734,
      "административ": 2735,
      "проверки": 2736,
      "##ent": 2737,
      "партии": 2738,
      "сети": 2739,
      "очередь": 2740,
      "переговоры": 2741,
      "специалисты": 2742,
      "нанес": 2743,
      "оцен": 2744,
      "электрон": 2745,
      "хотя": 2746,
      "прекращ": 2747,
      "энерг": 2748,
      "масхад": 2749,
      "транснефт": 2750,
      "вся": 2751,
      "внов": 2752,
      "дней": 2753,
      "лит": 2754,
      "ом": 2755,
      "останов": 2756,
      "точ": 2757,
      "##ср": 2758,
      "##вы": 2759,
      "##ули": 2760,
      "##бит": 2761,
      "##bc": 2762,
      "##елев": 2763,
      "##аком": 2764,
      "##иринов": 2765,
      "##ивают": 2766,
      "наступ": 2767,
      "##альным": 2768,
      "##ограф": 2769,
      "инцид": 2770,
      "перек": 2771,
      "полиции": 2772,
      "полиция": 2773,
      "орт": 2774,
      "##ющий": 2775,
      "чечне": 2776,
      "начала": 2777,
      "одним": 2778,
      "судеб": 2779,
      "назв": 2780,
      "решения": 2781,
      "доме": 2782,
      "тысячи": 2783,
      "##ущего": 2784,
      "экст": 2785,
      "все": 2786,
      "##ующий": 2787,
      "акций": 2788,
      "финанс": 2789,
      "территорию": 2790,
      "никол": 2791,
      "убий": 2792,
      "депутатов": 2793,
      "виде": 2794,
      "добав": 2795,
      "генерального": 2796,
      "обязан": 2797,
      "дополнитель": 2798,
      "ответствен": 2799,
      "уголовное": 2800,
      "##iated": 2801,
      "вокруг": 2802,
      "киргиз": 2803,
      "ущерб": 2804,
      "ликвид": 2805,
      "вновь": 2806,
      "врач": 2807,
      "лив": 2808,
      "мос": 2809,
      "мах": 2810,
      "остр": 2811,
      "ры": 2812,
      "рест": 2813,
      "рубеж": 2814,
      "те": 2815,
      "треть": 2816,
      "фонд": 2817,
      "шест": 2818,
      "##роч": 2819,
      "##поз": 2820,
      "##яется": 2821,
      "##us": 2822,
      "##ce": 2823,
      "##анием": 2824,
      "##аясь": 2825,
      "##оке": 2826,
      "структур": 2827,
      "##ивается": 2828,
      "свой": 2829,
      "спут": 2830,
      "таких": 2831,
      "закона": 2832,
      "взят": 2833,
      "##ировали": 2834,
      "горб": 2835,
      "уча": 2836,
      "двое": 2837,
      "президентом": 2838,
      "англ": 2839,
      "неделе": 2840,
      "контракт": 2841,
      "международного": 2842,
      "группиров": 2843,
      "экспер": 2844,
      "состояние": 2845,
      "бывшего": 2846,
      "здания": 2847,
      "произошло": 2848,
      "фирмы": 2849,
      "происход": 2850,
      "санкт": 2851,
      "тайван": 2852,
      "казах": 2853,
      "армии": 2854,
      "##йнак": 2855,
      "отсут": 2856,
      "жизни": 2857,
      "ислам": 2858,
      "жест": 2859,
      "нос": 2860,
      "пис": 2861,
      "рей": 2862,
      "рад": 2863,
      "речь": 2864,
      "сих": 2865,
      "суб": 2866,
      "##чин": 2867,
      "##иод": 2868,
      "##лаг": 2869,
      "##uters": 2870,
      "прес": 2871,
      "##онт": 2872,
      "##раст": 2873,
      "##авший": 2874,
      "##имо": 2875,
      "##олько": 2876,
      "##ическая": 2877,
      "новые": 2878,
      "опублик": 2879,
      "авиа": 2880,
      "##ляют": 2881,
      "отмен": 2882,
      "испыт": 2883,
      "верс": 2884,
      "руководитель": 2885,
      "##увд": 2886,
      "международной": 2887,
      "департамент": 2888,
      "##истрация": 2889,
      "ведущ": 2890,
      "станции": 2891,
      "преступления": 2892,
      "намерен": 2893,
      "метров": 2894,
      "договора": 2895,
      "начальника": 2896,
      "побед": 2897,
      "##проект": 2898,
      "reuters": 2899,
      "губернатор": 2900,
      "заявили": 2901,
      ".\"": 2902,
      "гувд": 2903,
      "заг": 2904,
      "ль": 2905,
      "много": 2906,
      "смер": 2907,
      "хоз": 2908,
      "чт": 2909,
      "##чета": 2910,
      "##оприят": 2911,
      "##яли": 2912,
      "##стана": 2913,
      "прик": 2914,
      "##орон": 2915,
      "##атол": 2916,
      "##уры": 2917,
      "права": 2918,
      "##ленные": 2919,
      "автор": 2920,
      "имя": 2921,
      "##ирование": 2922,
      "заявила": 2923,
      "##шихся": 2924,
      "анатол": 2925,
      "организаций": 2926,
      "акцион": 2927,
      "евро": 2928,
      "коллег": 2929,
      "документов": 2930,
      "настоящ": 2931,
      "войска": 2932,
      "бюджета": 2933,
      "списка": 2934,
      "дальней": 2935,
      "рынке": 2936,
      "штаба": 2937,
      "##ойдет": 2938,
      "буйнак": 2939,
      "предприним": 2940,
      "возбужд": 2941,
      "дмитрий": 2942,
      "палестин": 2943,
      "поэтому": 2944,
      "nas": 2945,
      "вд": 2946,
      "важ": 2947,
      "оно": 2948,
      "пись": 2949,
      "хр": 2950,
      "##тол": 2951,
      "##ыр": 2952,
      "##ье": 2953,
      "##he": 2954,
      "##be": 2955,
      "просто": 2956,
      "##атар": 2957,
      "##атура": 2958,
      "обыч": 2959,
      "##исты": 2960,
      "##пром": 2961,
      "##ований": 2962,
      "полов": 2963,
      "##айло": 2964,
      "##ицин": 2965,
      "изъ": 2966,
      "##няя": 2967,
      "времен": 2968,
      "две": 2969,
      "собствен": 2970,
      "начин": 2971,
      "отказал": 2972,
      "вероят": 2973,
      "всей": 2974,
      "завод": 2975,
      "ранен": 2976,
      "ранены": 2977,
      "техн": 2978,
      "возможно": 2979,
      "мероприят": 2980,
      "налич": 2981,
      "передает": 2982,
      "привл": 2983,
      "станет": 2984,
      "##шейся": 2985,
      "депутаты": 2986,
      "директора": 2987,
      "александра": 2988,
      "пострадавших": 2989,
      "напад": 2990,
      "сумму": 2991,
      "аэроф": 2992,
      "поясн": 2993,
      "движение": 2994,
      "франц": 2995,
      "вооруженных": 2996,
      "властей": 2997,
      "заболев": 2998,
      "катастроф": 2999,
      "выясн": 3000,
      "соглашение": 3001,
      "дорог": 3002,
      "оказались": 3003,
      "эфф": 3004,
      "промышленности": 3005,
      "большинство": 3006,
      "школ": 3007,
      "предварительным": 3008,
      "золот": 3009,
      "военнослуж": 3010,
      "вчера": 3011,
      "assoc": 3012,
      "нояб": 3013,
      "корпорации": 3014,
      ">:": 3015,
      "бин": 3016,
      "вещ": 3017,
      "кап": 3018,
      "оа": 3019,
      "пав": 3020,
      "пино": 3021,
      "руш": 3022,
      "##лом": 3023,
      "##лось": 3024,
      "##яч": 3025,
      "##стиции": 3026,
      "##ерий": 3027,
      "##алии": 3028,
      "##отив": 3029,
      "##евич": 3030,
      "вык": 3031,
      "##ительной": 3032,
      "полаг": 3033,
      "окруж": 3034,
      "##ременно": 3035,
      "однов": 3036,
      "склад": 3037,
      "##ашин": 3038,
      "покуп": 3039,
      "назвал": 3040,
      "главного": 3041,
      "места": 3042,
      "албан": 3043,
      "утром": 3044,
      "повтор": 3045,
      "международных": 3046,
      "столк": 3047,
      "возможности": 3048,
      "юрия": 3049,
      "край": 3050,
      "восточного": 3051,
      "палаты": 3052,
      "фирм": 3053,
      "демонст": 3054,
      "принято": 3055,
      "южной": 3056,
      "якобы": 3057,
      "миссии": 3058,
      "найд": 3059,
      "экстрем": 3060,
      "горбач": 3061,
      "француз": 3062,
      "бог": 3063,
      "вет": 3064,
      "впер": 3065,
      "жиринов": 3066,
      "мод": 3067,
      "мень": 3068,
      "ноб": 3069,
      "ох": 3070,
      "ред": 3071,
      "сок": 3072,
      "цер": 3073,
      "эхо": 3074,
      "юстиции": 3075,
      "##роб": 3076,
      "##штаб": 3077,
      "##ation": 3078,
      "пре": 3079,
      "##осред": 3080,
      "##амб": 3081,
      "##останов": 3082,
      "стат": 3083,
      "стих": 3084,
      "инт": 3085,
      "иници": 3086,
      "##ующего": 3087,
      "##ица": 3088,
      "##ическими": 3089,
      "##уляр": 3090,
      "##уман": 3091,
      "провести": 3092,
      "первой": 3093,
      "арт": 3094,
      "отказ": 3095,
      "доказ": 3096,
      "доклад": 3097,
      "недост": 3098,
      "боевых": 3099,
      "нефть": 3100,
      "лица": 3101,
      "причин": 3102,
      "причаст": 3103,
      "производства": 3104,
      "здание": 3105,
      "кредита": 3106,
      "универс": 3107,
      "трое": 3108,
      "законопроект": 3109,
      "правоохранительные": 3110,
      "обязатель": 3111,
      "франции": 3112,
      "медицин": 3113,
      "переговоров": 3114,
      "конкур": 3115,
      "пакистан": 3116,
      "километров": 3117,
      "белоруссии": 3118,
      "называем": 3119,
      "предотвращ": 3120,
      "опубликован": 3121,
      "изъят": 3122,
      "associated": 3123,
      "рушайло": 3124,
      "нобелев": 3125,
      "for": 3126,
      "ам": 3127,
      "ауд": 3128,
      "бас": 3129,
      "муз": 3130,
      "опров": 3131,
      "пан": 3132,
      "пять": 3133,
      "сбор": 3134,
      "хак": 3135,
      "циф": 3136,
      "члены": 3137,
      "##ыд": 3138,
      "##епр": 3139,
      "##лению": 3140,
      "##рор": 3141,
      "##шими": 3142,
      "##ec": 3143,
      "##ереж": 3144,
      "прие": 3145,
      "##атом": 3146,
      "##ариф": 3147,
      "##иям": 3148,
      "##иями": 3149,
      "##адж": 3150,
      "подз": 3151,
      "##ывать": 3152,
      "период": 3153,
      "сообщения": 3154,
      "##ачи": 3155,
      "##ителям": 3156,
      "оппоз": 3157,
      "##ратить": 3158,
      "крит": 3159,
      "телевид": 3160,
      "резерв": 3161,
      "вертол": 3162,
      "руководства": 3163,
      "поводу": 3164,
      "запуск": 3165,
      "##ающий": 3166,
      "поруч": 3167,
      "рассмотр": 3168,
      "путина": 3169,
      "помощью": 3170,
      "экспорт": 3171,
      "северо": 3172,
      "края": 3173,
      "лиценз": 3174,
      "расследования": 3175,
      "достат": 3176,
      "ночь": 3177,
      "условиях": 3178,
      "подтвержд": 3179,
      "похищ": 3180,
      "присут": 3181,
      "желез": 3182,
      "четыре": 3183,
      "аппар": 3184,
      "подтвердил": 3185,
      "сосед": 3186,
      "свидетель": 3187,
      "эксперты": 3188,
      "вирус": 3189,
      "участв": 3190,
      "бум": 3191,
      "бенз": 3192,
      "дос": 3193,
      "каш": 3194,
      "культ": 3195,
      "мекс": 3196,
      "уз": 3197,
      "шосс": 3198,
      "##лат": 3199,
      "##кам": 3200,
      "##кий": 3201,
      "##яем": 3202,
      "##ow": 3203,
      "##фор": 3204,
      "##..": 3205,
      "##рас": 3206,
      "##ире": 3207,
      "страх": 3208,
      "##альное": 3209,
      "##оссий": 3210,
      "##прежд": 3211,
      "предъя": 3212,
      "предлаг": 3213,
      "##ительных": 3214,
      "инвест": 3215,
      "слуш": 3216,
      "такие": 3217,
      "москву": 3218,
      "учрежд": 3219,
      "работе": 3220,
      "взрывов": 3221,
      "федеральной": 3222,
      "федеральный": 3223,
      "участников": 3224,
      "службу": 3225,
      "ссср": 3226,
      "мере": 3227,
      "московской": 3228,
      "московскому": 3229,
      "основном": 3230,
      "остается": 3231,
      "причиной": 3232,
      "отвеч": 3233,
      "##tex": 3234,
      "проекта": 3235,
      "восточном": 3236,
      "национальной": 3237,
      "заявление": 3238,
      "думы": 3239,
      "прошлой": 3240,
      "ночью": 3241,
      "лужкова": 3242,
      "тиморе": 3243,
      "перевод": 3244,
      "происше": 3245,
      "радиостан": 3246,
      "интерфаксу": 3247,
      "союза": 3248,
      "километрах": 3249,
      "топлива": 3250,
      "женщ": 3251,
      "весь": 3252,
      "терроризмом": 3253,
      "ингушетии": 3254,
      "хозя": 3255,
      "христ": 3256,
      ">:<": 3257,
      "оао": 3258,
      "бар": 3259,
      "дал": 3260,
      "дра": 3261,
      "ив": 3262,
      "лей": 3263,
      "пам": 3264,
      "са": 3265,
      "труд": 3266,
      "траг": 3267,
      "хор": 3268,
      "хран": 3269,
      "эд": 3270,
      "##боль": 3271,
      "##it": 3272,
      "##енную": 3273,
      "##еради": 3274,
      "##нос": 3275,
      "прист": 3276,
      "##емон": 3277,
      "обещ": 3278,
      "##истана": 3279,
      "направил": 3280,
      "вып": 3281,
      "россией": 3282,
      "##ывают": 3283,
      "которую": 3284,
      "оказыв": 3285,
      "непр": 3286,
      "этом": 3287,
      "запрос": 3288,
      "заказ": 3289,
      "постоян": 3290,
      "поезд": 3291,
      "##ниж": 3292,
      "районах": 3293,
      "удары": 3294,
      "политики": 3295,
      "никто": 3296,
      "финансовых": 3297,
      "объясн": 3298,
      "относ": 3299,
      "##ьян": 3300,
      "красно": 3301,
      "##город": 3302,
      "берег": 3303,
      "##муника": 3304,
      "общей": 3305,
      "заявлении": 3306,
      "генеральный": 3307,
      "директоров": 3308,
      "стоимость": 3309,
      "контроля": 3310,
      "платеж": 3311,
      "ожидается": 3312,
      "непосред": 3313,
      "пассажиров": 3314,
      "сахалин": 3315,
      "разговор": 3316,
      "целью": 3317,
      "успеш": 3318,
      "декабря": 3319,
      "отечество": 3320,
      "предупрежд": 3321,
      "собирается": 3322,
      "энергет": 3323,
      "одновременно": 3324,
      "...": 3325,
      "гост": 3326,
      "жизн": 3327,
      "кли": 3328,
      "круг": 3329,
      "леб": 3330,
      "мик": 3331,
      "печат": 3332,
      "суп": 3333,
      "сух": 3334,
      "татар": 3335,
      "эм": 3336,
      "##тв": 3337,
      "##тра": 3338,
      "##иев": 3339,
      "##ицион": 3340,
      "##деп": 3341,
      "##лять": 3342,
      "##кон": 3343,
      "##кции": 3344,
      "##год": 3345,
      "##яда": 3346,
      "##бин": 3347,
      "прид": 3348,
      "##ород": 3349,
      "##елен": 3350,
      "##ите": 3351,
      "##атора": 3352,
      "##оту": 3353,
      "##окол": 3354,
      "##иваться": 3355,
      "соедин": 3356,
      "##изма": 3357,
      "вывод": 3358,
      "служ": 3359,
      "##кип": 3360,
      "российским": 3361,
      "##глаш": 3362,
      "посл": 3363,
      "##тора": 3364,
      "##ляем": 3365,
      "соврем": 3366,
      "двиг": 3367,
      "самом": 3368,
      "##ратег": 3369,
      "слова": 3370,
      "объект": 3371,
      "банки": 3372,
      "работать": 3373,
      "исполн": 3374,
      "информация": 3375,
      "первого": 3376,
      "внес": 3377,
      "находился": 3378,
      "##ируют": 3379,
      "военного": 3380,
      "федеральные": 3381,
      "участия": 3382,
      "клуб": 3383,
      "близ": 3384,
      "имеют": 3385,
      "состоянии": 3386,
      "реак": 3387,
      "государственного": 3388,
      "северном": 3389,
      "четвер": 3390,
      "европе": 3391,
      "задержаны": 3392,
      "источников": 3393,
      "встрече": 3394,
      "чеченской": 3395,
      "месяца": 3396,
      "прокуратуры": 3397,
      "турции": 3398,
      "принял": 3399,
      "приняли": 3400,
      "положение": 3401,
      "защиты": 3402,
      "размере": 3403,
      "японии": 3404,
      "израил": 3405,
      "герм": 3406,
      "индонезий": 3407,
      "подразделения": 3408,
      "запрещ": 3409,
      "избран": 3410,
      "постановление": 3411,
      "миротворческ": 3412,
      "сутки": 3413,
      "предусматрив": 3414,
      "пострадавшим": 3415,
      "инцидент": 3416,
      "##betex": 3417,
      "шоссе": 3418,
      "лебед": 3419,
      "bbc": 3420,
      "ге": 3421,
      "гиб": 3422,
      "доч": 3423,
      "жители": 3424,
      "каб": 3425,
      "меж": 3426,
      "март": 3427,
      "экип": 3428,
      "ян": 3429,
      "##час": 3430,
      "##вые": 3431,
      "##вящ": 3432,
      "##еще": 3433,
      "##наз": 3434,
      "##нему": 3435,
      "##re": 3436,
      "##инд": 3437,
      "##авать": 3438,
      "##имин": 3439,
      "стратег": 3440,
      "##адем": 3441,
      "##никам": 3442,
      "##лиг": 3443,
      "##айм": 3444,
      "размещ": 3445,
      "компенс": 3446,
      "посвящ": 3447,
      "##новения": 3448,
      "провин": 3449,
      "##ированных": 3450,
      "продук": 3451,
      "связь": 3452,
      "газете": 3453,
      "академ": 3454,
      "большой": 3455,
      "использование": 3456,
      "##равн": 3457,
      "##ифик": 3458,
      "прибыл": 3459,
      "зарпл": 3460,
      "обвинения": 3461,
      "налогов": 3462,
      "было": 3463,
      "немец": 3464,
      "оружие": 3465,
      "некоторых": 3466,
      "стоит": 3467,
      "тимора": 3468,
      "##одукт": 3469,
      "детей": 3470,
      "комитет": 3471,
      "включая": 3472,
      "терактов": 3473,
      "списке": 3474,
      "семьи": 3475,
      "ядерных": 3476,
      "йорк": 3477,
      "заложников": 3478,
      "различных": 3479,
      "молод": 3480,
      "площади": 3481,
      "солд": 3482,
      "mabetex": 3483,
      "внимание": 3484,
      "распоряж": 3485,
      "nasa": 3486,
      "эффектив": 3487,
      "впервые": 3488,
      "подзем": 3489,
      "бумаг": 3490,
      "cor": 3491,
      "асс": 3492,
      "борту": 3493,
      "ввод": 3494,
      "вести": 3495,
      "гол": 3496,
      "гуман": 3497,
      "диск": 3498,
      "игор": 3499,
      "су": 3500,
      "сд": 3501,
      "сиг": 3502,
      "сниж": 3503,
      "уход": 3504,
      "##ченко": 3505,
      "##тона": 3506,
      "##ык": 3507,
      "##лам": 3508,
      "##кцион": 3509,
      "##под": 3510,
      "##шегося": 3511,
      "##эс": 3512,
      "##эн": 3513,
      "##oo": 3514,
      "##de": 3515,
      "##остью": 3516,
      "отр": 3517,
      "выв": 3518,
      "инф": 3519,
      "комбин": 3520,
      "##айдж": 3521,
      "разб": 3522,
      "доллара": 3523,
      "##ряз": 3524,
      "законом": 3525,
      "вза": 3526,
      "##унд": 3527,
      "совещ": 3528,
      "самого": 3529,
      "расход": 3530,
      "одна": 3531,
      "отклон": 3532,
      "утра": 3533,
      "государств": 3534,
      "противор": 3535,
      "недели": 3536,
      "район": 3537,
      "военной": 3538,
      "американского": 3539,
      "##ствуют": 3540,
      "вопросы": 3541,
      "центральной": 3542,
      "черном": 3543,
      "проблемой": 3544,
      "основе": 3545,
      "прошед": 3546,
      "позд": 3547,
      "убит": 3548,
      "нескольких": 3549,
      "##ителями": 3550,
      "северной": 3551,
      "планирует": 3552,
      "выборы": 3553,
      "сумма": 3554,
      "бориса": 3555,
      "сведения": 3556,
      "положения": 3557,
      "южно": 3558,
      "оценив": 3559,
      "категор": 3560,
      "парламента": 3561,
      "предприятий": 3562,
      "запрет": 3563,
      "украины": 3564,
      "развития": 3565,
      "недавно": 3566,
      "професс": 3567,
      "скуратова": 3568,
      "автомобилей": 3569,
      "талиб": 3570,
      "полномоч": 3571,
      "николай": 3572,
      "экспертов": 3573,
      "приез": 3574,
      "происшествия": 3575,
      "экипаж": 3576,
      "веще": 3577,
      "госс": 3578,
      "дру": 3579,
      "ест": 3580,
      "лаб": 3581,
      "норв": 3582,
      "ол": 3583,
      "сен": 3584,
      "уж": 3585,
      "фот": 3586,
      "шир": 3587,
      "эп": 3588,
      "##сен": 3589,
      "##ту": 3590,
      "##иенко": 3591,
      "##лись": 3592,
      "##ане": 3593,
      "прир": 3594,
      "##инский": 3595,
      "##равл": 3596,
      "##евр": 3597,
      "##окой": 3598,
      "##езн": 3599,
      "отряд": 3600,
      "отдель": 3601,
      "выш": 3602,
      "подроб": 3603,
      "##ником": 3604,
      "##ительного": 3605,
      "##ованной": 3606,
      "перем": 3607,
      "полицей": 3608,
      "новое": 3609,
      "деле": 3610,
      "##убликов": 3611,
      "##ябре": 3612,
      "имуще": 3613,
      "самым": 3614,
      "принять": 3615,
      "начале": 3616,
      "местных": 3617,
      "городской": 3618,
      "##роволь": 3619,
      "газа": 3620,
      "больн": 3621,
      "##ующей": 3622,
      "порног": 3623,
      "летний": 3624,
      "проголос": 3625,
      "республике": 3626,
      "##аемых": 3627,
      "##гром": 3628,
      "привед": 3629,
      "net": 3630,
      "состояв": 3631,
      "необходимости": 3632,
      "лидеров": 3633,
      "обеспечения": 3634,
      ">\".": 3635,
      "доброволь": 3636,
      "грузии": 3637,
      "##банка": 3638,
      "лондоне": 3639,
      "автомобиль": 3640,
      "inter": 3641,
      "радио": 3642,
      "осуществля": 3643,
      "операция": 3644,
      "голосов": 3645,
      "выявл": 3646,
      "превыш": 3647,
      "клинтон": 3648,
      "афган": 3649,
      "воздуш": 3650,
      "адвокат": 3651,
      "корпора": 3652,
      "толч": 3653,
      "прожив": 3654,
      "коррупции": 3655,
      "пиночета": 3656,
      "сокращ": 3657,
      "инициатив": 3658,
      "порнограф": 3659,
      "the": 3660,
      "ано": 3661,
      "вов": 3662,
      "вск": 3663,
      "держ": 3664,
      "мост": 3665,
      "но": 3666,
      "пент": 3667,
      "сор": 3668,
      "сраз": 3669,
      "сфер": 3670,
      "снова": 3671,
      "тариф": 3672,
      "шой": 3673,
      "##юр": 3674,
      "##лан": 3675,
      "##луч": 3676,
      "##мень": 3677,
      "##яв": 3678,
      "##цов": 3679,
      "##енции": 3680,
      "##олю": 3681,
      "##илли": 3682,
      "##аки": 3683,
      "обстанов": 3684,
      "обыск": 3685,
      "##езда": 3686,
      "##альную": 3687,
      "##альян": 3688,
      "##утся": 3689,
      "предел": 3690,
      "##озмож": 3691,
      "##ительные": 3692,
      "##овано": 3693,
      "сообщают": 3694,
      "##очных": 3695,
      "##абан": 3696,
      "##ессии": 3697,
      "учен": 3698,
      "##ирована": 3699,
      "располаг": 3700,
      "соблюд": 3701,
      "главе": 3702,
      "первом": 3703,
      "должности": 3704,
      "телеради": 3705,
      "получить": 3706,
      "##ующим": 3707,
      "запас": 3708,
      "следствия": 3709,
      "службе": 3710,
      "вопросу": 3711,
      "систему": 3712,
      "столич": 3713,
      "республикан": 3714,
      "ведется": 3715,
      "нефтепр": 3716,
      "привод": 3717,
      "реализ": 3718,
      "ситуацию": 3719,
      "официально": 3720,
      "официальные": 3721,
      "денеж": 3722,
      "избирателей": 3723,
      "метал": 3724,
      "счетов": 3725,
      "приостанов": 3726,
      "компьютеров": 3727,
      "самолета": 3728,
      "проведения": 3729,
      "вызван": 3730,
      "снят": 3731,
      "наде": 3732,
      "китая": 3733,
      "особенно": 3734,
      "специалистов": 3735,
      "нанос": 3736,
      "скорее": 3737,
      "позволит": 3738,
      "флор": 3739,
      "выплат": 3740,
      "напомнил": 3741,
      "ввс": 3742,
      "четырех": 3743,
      "уровне": 3744,
      "землетрясения": 3745,
      "истории": 3746,
      "кавказе": 3747,
      "задолженности": 3748,
      "розыск": 3749,
      "ноября": 3750,
      "отриц": 3751,
      "пентаг": 3752,
      "сразу": 3753,
      "шойгу": 3754,
      "нефтепродукт": 3755,
      "ru": 3756,
      "вас": 3757,
      "ги": 3758,
      "днем": 3759,
      "куб": 3760,
      "мож": 3761,
      "мус": 3762,
      "нтв": 3763,
      "пат": 3764,
      "порт": 3765,
      "ряда": 3766,
      "сравн": 3767,
      "фили": 3768,
      "хим": 3769,
      "чабан": 3770,
      "##сом": 3771,
      "##тоне": 3772,
      "##дин": 3773,
      "##лась": 3774,
      "##пания": 3775,
      "##яют": 3776,
      "##яются": 3777,
      "##um": 3778,
      "##at": 3779,
      "##ys": 3780,
      "##анией": 3781,
      "##оряд": 3782,
      "##оратор": 3783,
      "##инского": 3784,
      "##оник": 3785,
      "##рай": 3786,
      "##ека": 3787,
      "стрем": 3788,
      "##ивший": 3789,
      "##альная": 3790,
      "предыд": 3791,
      "##огда": 3792,
      "##ограмм": 3793,
      "##ида": 3794,
      "##ожид": 3795,
      "сообщение": 3796,
      "##ическом": 3797,
      "##ическую": 3798,
      "такая": 3799,
      "российская": 3800,
      "делам": 3801,
      "##ироваться": 3802,
      "самых": 3803,
      "##ателем": 3804,
      "итальян": 3805,
      "городах": 3806,
      "открыл": 3807,
      "поврежд": 3808,
      "ранения": 3809,
      "убежд": 3810,
      "юрид": 3811,
      "интернета": 3812,
      "##ербайдж": 3813,
      "границу": 3814,
      "минувшую": 3815,
      "кредитор": 3816,
      "поддержку": 3817,
      "сделать": 3818,
      "выдвин": 3819,
      "прошлом": 3820,
      "снг": 3821,
      "условия": 3822,
      "наказ": 3823,
      "рао": 3824,
      "сайт": 3825,
      "отмечается": 3826,
      "рынка": 3827,
      "операций": 3828,
      "крупнейших": 3829,
      "материалы": 3830,
      "вокз": 3831,
      "ставроп": 3832,
      "тонну": 3833,
      "бандит": 3834,
      "скандал": 3835,
      "пользователей": 3836,
      "здоров": 3837,
      "если": 3838,
      "ладен": 3839,
      "прежнему": 3840,
      "линии": 3841,
      "семенова": 3842,
      "мосгор": 3843,
      "капит": 3844,
      "демонстра": 3845,
      "редак": 3846,
      "доказатель": 3847,
      "опроверг": 3848,
      "трагед": 3849,
      "краснояр": 3850,
      "январ": 3851,
      "гуманитар": 3852,
      "intern": 3853,
      "аноним": 3854,
      ">)": 3855,
      "del": 3856,
      "деж": 3857,
      "довер": 3858,
      "жиль": 3859,
      "коп": 3860,
      "лаз": 3861,
      "моб": 3862,
      "меш": 3863,
      "ниж": 3864,
      "ов": 3865,
      "пир": 3866,
      "рос": 3867,
      "рав": 3868,
      "смож": 3869,
      "тан": 3870,
      "теп": 3871,
      "фиг": 3872,
      "февр": 3873,
      "##тр": 3874,
      "##еи": 3875,
      "##лу": 3876,
      "##кие": 3877,
      "##шир": 3878,
      "##оф": 3879,
      "##оев": 3880,
      "##os": 3881,
      "##ur": 3882,
      "##le": 3883,
      "##pa": 3884,
      "##ович": 3885,
      "##анных": 3886,
      "##ерх": 3887,
      "прет": 3888,
      "##ело": 3889,
      "##итер": 3890,
      "##икс": 3891,
      "##икам": 3892,
      "##обрет": 3893,
      "##ива": 3894,
      "##альном": 3895,
      "предстоя": 3896,
      "персон": 3897,
      "годы": 3898,
      "такое": 3899,
      "долг": 3900,
      "возраст": 3901,
      "заявля": 3902,
      "сказ": 3903,
      "##ционных": 3904,
      "госдеп": 3905,
      "имени": 3906,
      "представляет": 3907,
      "##ющие": 3908,
      "банках": 3909,
      "суде": 3910,
      "сервер": 3911,
      "работа": 3912,
      "исполнитель": 3913,
      "первую": 3914,
      "первым": 3915,
      "своим": 3916,
      "геннад": 3917,
      "экс": 3918,
      "руководителей": 3919,
      "силами": 3920,
      ">%,": 3921,
      "евг": 3922,
      "министром": 3923,
      "вопросам": 3924,
      "система": 3925,
      "проблеме": 3926,
      "случай": 3927,
      "белград": 3928,
      "прибы": 3929,
      "часа": 3930,
      "восточной": 3931,
      "подписан": 3932,
      "метро": 3933,
      "суммы": 3934,
      "отношения": 3935,
      "установлен": 3936,
      "появил": 3937,
      "ракеты": 3938,
      "конца": 3939,
      "конце": 3940,
      "ближайшие": 3941,
      "требования": 3942,
      "заседание": 3943,
      "освобод": 3944,
      "специально": 3945,
      "комиссия": 3946,
      "генерала": 3947,
      "родствен": 3948,
      "спасатель": 3949,
      "целом": 3950,
      "отмечает": 3951,
      "невозмож": 3952,
      "швейцарии": 3953,
      "индонезии": 3954,
      "якуш": 3955,
      "порядка": 3956,
      "порядке": 3957,
      "тюрь": 3958,
      "азербайдж": 3959,
      "сотрудничества": 3960,
      "магаз": 3961,
      "##нюю": 3962,
      "переход": 3963,
      "конституции": 3964,
      "оборудования": 3965,
      "товаров": 3966,
      "приговор": 3967,
      "березовский": 3968,
      "аналог": 3969,
      "выразил": 3970,
      "перерег": 3971,
      "киргизии": 3972,
      "приказ": 3973,
      "анатолий": 3974,
      "возбуждено": 3975,
      "артилл": 3976,
      "достаточно": 3977,
      "памят": 3978,
      "друго": 3979,
      "предыдущ": 3980,
      "ставрополь": 3981,
      "дежур": 3982,
      "\")": 3983,
      "mar": 3984,
      "to": 3985,
      "вне": 3986,
      "вось": 3987,
      "гур": 3988,
      "для": 3989,
      "дья": 3990,
      "зр": 3991,
      "иран": 3992,
      "поль": 3993,
      "тру": 3994,
      "фр": 3995,
      "фактически": 3996,
      "хоч": 3997,
      "цена": 3998,
      "##чив": 3999,
      "##се": 4000,
      "##сня": 4001,
      "##уем": 4002,
      "##де": 4003,
      "##порт": 4004,
      "##ге": 4005,
      "##опров": 4006,
      "##жения": 4007,
      "##цент": 4008,
      "##up": 4009,
      "##la": 4010,
      "##овав": 4011,
      "##овала": 4012,
      "##етом": 4013,
      "##одейств": 4014,
      "##ствием": 4015,
      "##аря": 4016,
      "##обнов": 4017,
      "##имер": 4018,
      "стала": 4019,
      "##есур": 4020,
      "##естр": 4021,
      "##езнев": 4022,
      "##иды": 4023,
      "подверг": 4024,
      "##ительный": 4025,
      "переп": 4026,
      "оке": 4027,
      "одно": 4028,
      "одобр": 4029,
      "##ственным": 4030,
      "опл": 4031,
      "взор": 4032,
      "орб": 4033,
      "##уса": 4034,
      "странах": 4035,
      "всего": 4036,
      "силу": 4037,
      "бород": 4038,
      "завер": 4039,
      "указал": 4040,
      "указыв": 4041,
      "рассчит": 4042,
      "последний": 4043,
      "гражданин": 4044,
      "служба": 4045,
      "##плом": 4046,
      "прогноз": 4047,
      "колон": 4048,
      "агентству": 4049,
      "пути": 4050,
      "премьера": 4051,
      "##рабат": 4052,
      "числа": 4053,
      "финансовой": 4054,
      "террористических": 4055,
      "рубля": 4056,
      "##аторов": 4057,
      "продолжает": 4058,
      "продолжают": 4059,
      "лидера": 4060,
      "крупных": 4061,
      "минувшее": 4062,
      "обнаружили": 4063,
      "пострадали": 4064,
      "утверждают": 4065,
      "источник": 4066,
      "создание": 4067,
      "селезнев": 4068,
      "готовности": 4069,
      "борьбы": 4070,
      "очевид": 4071,
      "деятельность": 4072,
      "раск": 4073,
      "компьютерных": 4074,
      "абс": 4075,
      "подобные": 4076,
      "петербурга": 4077,
      "канал": 4078,
      "развитие": 4079,
      "диплом": 4080,
      "сегодняшний": 4081,
      "захват": 4082,
      "окончатель": 4083,
      "вашингтоне": 4084,
      "просьбой": 4085,
      "минимум": 4086,
      "дерев": 4087,
      "протеста": 4088,
      "транснефти": 4089,
      "##битраж": 4090,
      "остров": 4091,
      "раненых": 4092,
      "германии": 4093,
      "сможет": 4094,
      "госдепартамент": 4095,
      "али": 4096,
      "бен": 4097,
      "бой": 4098,
      "батур": 4099,
      "вп": 4100,
      "вм": 4101,
      "кал": 4102,
      "кру": 4103,
      "кино": 4104,
      "ма": 4105,
      "миг": 4106,
      "мино": 4107,
      "оск": 4108,
      "огром": 4109,
      "роб": 4110,
      "ток": 4111,
      "таб": 4112,
      "трет": 4113,
      "тадж": 4114,
      "умер": 4115,
      "цру": 4116,
      "шан": 4117,
      "юго": 4118,
      "##щиков": 4119,
      "##хожд": 4120,
      "##ну": 4121,
      "##нет": 4122,
      "##ния": 4123,
      "##нения": 4124,
      "##нется": 4125,
      "##нув": 4126,
      "##кого": 4127,
      "##рот": 4128,
      "##шись": 4129,
      "##ho": 4130,
      "##ex": 4131,
      "##ене": 4132,
      "##ани": 4133,
      "##еред": 4134,
      "преп": 4135,
      "прежд": 4136,
      "##елей": 4137,
      "##илет": 4138,
      "##илий": 4139,
      "##ону": 4140,
      "##отреб": 4141,
      "##обан": 4142,
      "##евых": 4143,
      "наст": 4144,
      "##ично": 4145,
      "##есточ": 4146,
      "отправл": 4147,
      "отчет": 4148,
      "выше": 4149,
      "подс": 4150,
      "##ительства": 4151,
      "переч": 4152,
      "##айн": 4153,
      "##опостав": 4154,
      "которому": 4155,
      "раза": 4156,
      "##агод": 4157,
      "этап": 4158,
      "такого": 4159,
      "возобнов": 4160,
      "##глас": 4161,
      "посад": 4162,
      "##ирований": 4163,
      "покин": 4164,
      "правительству": 4165,
      "начал": 4166,
      "будет": 4167,
      "работает": 4168,
      "работают": 4169,
      "местные": 4170,
      "криз": 4171,
      "андр": 4172,
      "отказыв": 4173,
      "руководителя": 4174,
      "американские": 4175,
      "боевики": 4176,
      "##устить": 4177,
      "примор": 4178,
      "политических": 4179,
      "центробан": 4180,
      "системе": 4181,
      "офиц": 4182,
      "##мотреть": 4183,
      "погибло": 4184,
      "процед": 4185,
      "индии": 4186,
      "интернете": 4187,
      "минувшей": 4188,
      "обнаружены": 4189,
      "обеспечить": 4190,
      "палат": 4191,
      "села": 4192,
      "электро": 4193,
      "валерий": 4194,
      "серге": 4195,
      "сергея": 4196,
      "вместо": 4197,
      "тимор": 4198,
      "перевед": 4199,
      "кампании": 4200,
      "##энерг": 4201,
      "побереж": 4202,
      "создать": 4203,
      "секретаря": 4204,
      "июля": 4205,
      "петербурге": 4206,
      "герман": 4207,
      "пунктов": 4208,
      "режима": 4209,
      "технологий": 4210,
      "текст": 4211,
      "бирже": 4212,
      "ежегод": 4213,
      "навод": 4214,
      "площад": 4215,
      "комплекса": 4216,
      "конгресса": 4217,
      "застав": 4218,
      "состоится": 4219,
      "например": 4220,
      "электронной": 4221,
      "добавил": 4222,
      "ликвидации": 4223,
      "рынок": 4224,
      "многочис": 4225,
      "кашир": 4226,
      "слушания": 4227,
      "иванов": 4228,
      "хорош": 4229,
      "жизнь": 4230,
      "кабин": 4231,
      "взаим": 4232,
      "приезж": 4233,
      "есть": 4234,
      "андрей": 4235,
      "ser": 4236,
      "апр": 4237,
      "всп": 4238,
      "гей": 4239,
      "дни": 4240,
      "его": 4241,
      "жал": 4242,
      "код": 4243,
      "кад": 4244,
      "кась": 4245,
      "мая": 4246,
      "мех": 4247,
      "плен": 4248,
      "рел": 4249,
      "рат": 4250,
      "руб": 4251,
      "ресур": 4252,
      "сх": 4253,
      "сы": 4254,
      "сель": 4255,
      "сами": 4256,
      "сним": 4257,
      "угл": 4258,
      "филь": 4259,
      "югос": 4260,
      "явл": 4261,
      "##аева": 4262,
      "##тим": 4263,
      "##топ": 4264,
      "##вач": 4265,
      "##уются": 4266,
      "##ио": 4267,
      "##иан": 4268,
      "##ище": 4269,
      "##хаз": 4270,
      "##лы": 4271,
      "##ким": 4272,
      "##па": 4273,
      "##ub": 4274,
      "##овую": 4275,
      "проник": 4276,
      "##итета": 4277,
      "##олют": 4278,
      "##илия": 4279,
      "##иками": 4280,
      "##ображ": 4281,
      "обе": 4282,
      "обмен": 4283,
      "обруш": 4284,
      "##екан": 4285,
      "##енты": 4286,
      "##еслав": 4287,
      "##ислав": 4288,
      "предмет": 4289,
      "##оза": 4290,
      "##лиш": 4291,
      "##уре": 4292,
      "слия": 4293,
      "##ованию": 4294,
      "##обще": 4295,
      "##абил": 4296,
      "изм": 4297,
      "изуч": 4298,
      "##ственного": 4299,
      "посел": 4300,
      "двум": 4301,
      "органами": 4302,
      "##ражд": 4303,
      "правительством": 4304,
      "##ателям": 4305,
      "кров": 4306,
      "кримин": 4307,
      "арбитраж": 4308,
      "альян": 4309,
      "утеч": 4310,
      "версии": 4311,
      "вернуть": 4312,
      "силой": 4313,
      "##вести": 4314,
      "##бороны": 4315,
      "завед": 4316,
      "завода": 4317,
      "##ируя": 4318,
      "последнее": 4319,
      "американской": 4320,
      "гражданской": 4321,
      "депорт": 4322,
      "мнс": 4323,
      "московских": 4324,
      "##аемые": 4325,
      "транз": 4326,
      "использовать": 4327,
      "##ящей": 4328,
      "референ": 4329,
      "государственных": 4330,
      "популяр": 4331,
      "европы": 4332,
      "пяти": 4333,
      "направлении": 4334,
      "администрация": 4335,
      "поддержки": 4336,
      ">\",": 4337,
      "выступая": 4338,
      "кандидат": 4339,
      "##брос": 4340,
      "готовы": 4341,
      "признал": 4342,
      "объединения": 4343,
      "атом": 4344,
      "килограмм": 4345,
      "очередной": 4346,
      "карамахи": 4347,
      "абхаз": 4348,
      "всемир": 4349,
      "европейского": 4350,
      "торговли": 4351,
      "клинтона": 4352,
      "напомним": 4353,
      "каждый": 4354,
      "волгод": 4355,
      "сторону": 4356,
      "доходов": 4357,
      "##ающего": 4358,
      "йорке": 4359,
      "телекоммуника": 4360,
      "пассажир": 4361,
      "исход": 4362,
      "исследования": 4363,
      "текущего": 4364,
      "ирак": 4365,
      "высказал": 4366,
      "##стоятель": 4367,
      "уточн": 4368,
      "посольства": 4369,
      "масхадов": 4370,
      "ответственности": 4371,
      "казахстана": 4372,
      "субб": 4373,
      "льго": 4374,
      "смерт": 4375,
      "буйнакске": 4376,
      "отказался": 4377,
      "выкуп": 4378,
      "хозяй": 4379,
      "приступ": 4380,
      "клиентов": 4381,
      "черномыр": 4382,
      "фотограф": 4383,
      "чабанмахи": 4384,
      "предстоящ": 4385,
      "абсолют": 4386,
      "минобороны": 4387,
      "таджик": 4388,
      "касья": 4389,
      "югослав": 4390,
      "референдум": 4391,
      "волгодон": 4392,
      "st": 4393,
      "win": 4394,
      "бат": 4395,
      "билл": 4396,
      "винов": 4397,
      "зоне": 4398,
      "кост": 4399,
      "ла": 4400,
      "лес": 4401,
      "мо": 4402,
      "мал": 4403,
      "низ": 4404,
      "нег": 4405,
      "пт": 4406,
      "раст": 4407,
      "сим": 4408,
      "сев": 4409,
      "тих": 4410,
      "тому": 4411,
      "упл": 4412,
      "физ": 4413,
      "хас": 4414,
      "яв": 4415,
      "ябл": 4416,
      "##вард": 4417,
      "##юн": 4418,
      "##иоз": 4419,
      "##ыше": 4420,
      "##лем": 4421,
      "##пт": 4422,
      "##маз": 4423,
      "##жен": 4424,
      "##цам": 4425,
      "##ac": 4426,
      "##lo": 4427,
      "##стран": 4428,
      "##анные": 4429,
      "##нод": 4430,
      "##оры": 4431,
      "##ором": 4432,
      "##орган": 4433,
      "##етов": 4434,
      "##илов": 4435,
      "##инах": 4436,
      "##интер": 4437,
      "##авлив": 4438,
      "##амен": 4439,
      "##акова": 4440,
      "столь": 4441,
      "##ивших": 4442,
      "##иваются": 4443,
      "науч": 4444,
      "##руч": 4445,
      "выраж": 4446,
      "##егул": 4447,
      "##оже": 4448,
      "подп": 4449,
      "##удов": 4450,
      "##ывается": 4451,
      "##ывания": 4452,
      "полтора": 4453,
      "##абот": 4454,
      "раздел": 4455,
      "новую": 4456,
      "##агер": 4457,
      "неод": 4458,
      "неболь": 4459,
      "неожид": 4460,
      "##ственные": 4461,
      "компанией": 4462,
      "опубликов": 4463,
      "##стрел": 4464,
      "милиция": 4465,
      "имен": 4466,
      "покуш": 4467,
      "будущ": 4468,
      "первых": 4469,
      "первые": 4470,
      "анд": 4471,
      "телекан": 4472,
      "##ere": 4473,
      "владель": 4474,
      "действительно": 4475,
      "действиях": 4476,
      "районов": 4477,
      "составля": 4478,
      "погранич": 4479,
      "участники": 4480,
      "удар": 4481,
      "##нулись": 4482,
      "результаты": 4483,
      "центрального": 4484,
      "управлении": 4485,
      "документе": 4486,
      "##ящих": 4487,
      "планируется": 4488,
      "могли": 4489,
      "актов": 4490,
      "границе": 4491,
      "штраф": 4492,
      "подписал": 4493,
      "каких": 4494,
      "намерена": 4495,
      "произошла": 4496,
      "самолеты": 4497,
      "создания": 4498,
      "появл": 4499,
      "партия": 4500,
      "прокуратур": 4501,
      "исключает": 4502,
      "валент": 4503,
      "заседания": 4504,
      "семей": 4505,
      "журналистов": 4506,
      "заместителя": 4507,
      "содейств": 4508,
      "сведений": 4509,
      "массовой": 4510,
      "сайта": 4511,
      "отмечают": 4512,
      "значительно": 4513,
      "усилия": 4514,
      "воды": 4515,
      "арестован": 4516,
      "выполня": 4517,
      "авиаком": 4518,
      "предприятия": 4519,
      "материалов": 4520,
      "оперативно": 4521,
      "эфире": 4522,
      "взрывчатки": 4523,
      "изменения": 4524,
      "бандформ": 4525,
      "карточ": 4526,
      "звон": 4527,
      "губернатора": 4528,
      "бирж": 4529,
      "означ": 4530,
      "квартиры": 4531,
      "аэропорту": 4532,
      "касается": 4533,
      "##day": 4534,
      "госпитализ": 4535,
      "сейчас": 4536,
      "бедствия": 4537,
      "названием": 4538,
      "обязанности": 4539,
      "реструктур": 4540,
      "пояснил": 4541,
      "военнослужащих": 4542,
      "##ational": 4543,
      "музык": 4544,
      "присутств": 4545,
      "культуры": 4546,
      "непосредственно": 4547,
      "успешно": 4548,
      "##окола": 4549,
      "сигн": 4550,
      "лаборатор": 4551,
      "гиган": 4552,
      "января": 4553,
      "лазар": 4554,
      "геннадий": 4555,
      "белграде": 4556,
      "якушкин": 4557,
      "дьяченко": 4558,
      "орбиту": 4559,
      "асл": 4560,
      "бак": 4561,
      "брат": 4562,
      "впол": 4563,
      "го": 4564,
      "гон": 4565,
      "гре": 4566,
      "лев": 4567,
      "лагер": 4568,
      "мон": 4569,
      "мух": 4570,
      "нел": 4571,
      "ндр": 4572,
      "реп": 4573,
      "сав": 4574,
      "слиш": 4575,
      "тор": 4576,
      "чинов": 4577,
      "эр": 4578,
      "##со": 4579,
      "##вяз": 4580,
      "##ином": 4581,
      "##ицию": 4582,
      "##дов": 4583,
      "##дет": 4584,
      "##лся": 4585,
      "##лиз": 4586,
      "##лота": 4587,
      "##нение": 4588,
      "##кое": 4589,
      "##рей": 4590,
      "##шел": 4591,
      "##йти": 4592,
      "##эк": 4593,
      "##ran": 4594,
      "##ci": 4595,
      "##енциаль": 4596,
      "##ерл": 4597,
      "прост": 4598,
      "##омед": 4599,
      "##енин": 4600,
      "##осн": 4601,
      "##икой": 4602,
      "##образ": 4603,
      "##ейм": 4604,
      "##ойти": 4605,
      "##азд": 4606,
      "##имся": 4607,
      "##иход": 4608,
      "облиг": 4609,
      "обстоятель": 4610,
      "стра": 4611,
      "социаль": 4612,
      "##ады": 4613,
      "##уть": 4614,
      "##ечены": 4615,
      "##ующее": 4616,
      "##ежной": 4617,
      "свыше": 4618,
      "правления": 4619,
      "долга": 4620,
      "##ственный": 4621,
      "##каш": 4622,
      "опыт": 4623,
      "##ировании": 4624,
      "данный": 4625,
      "пошли": 4626,
      "начался": 4627,
      "##игр": 4628,
      "##ers": 4629,
      "сотни": 4630,
      "состава": 4631,
      "составит": 4632,
      "##ируем": 4633,
      "контакт": 4634,
      "брон": 4635,
      "политической": 4636,
      "московский": 4637,
      "##рыть": 4638,
      "убиты": 4639,
      "управление": 4640,
      "##представ": 4641,
      "остан": 4642,
      "индий": 4643,
      "индекс": 4644,
      "станция": 4645,
      "станислав": 4646,
      "общего": 4647,
      "общественных": 4648,
      "необходимость": 4649,
      "причем": 4650,
      "обнаружен": 4651,
      "news": 4652,
      "обвиняем": 4653,
      "восточный": 4654,
      "встреча": 4655,
      "приобрет": 4656,
      "население": 4657,
      "населенных": 4658,
      "чеченских": 4659,
      "установлены": 4660,
      "появ": 4661,
      "партнер": 4662,
      "добыч": 4663,
      "курс": 4664,
      "прокуратура": 4665,
      "госдума": 4666,
      "рядом": 4667,
      "приняла": 4668,
      "марш": 4669,
      "избирательного": 4670,
      "сайте": 4671,
      "космод": 4672,
      "##roup": 4673,
      "позволяет": 4674,
      "самолетов": 4675,
      "коорд": 4676,
      "подразделений": 4677,
      "порядок": 4678,
      "баллот": 4679,
      "нынешнего": 4680,
      "обратился": 4681,
      "отделения": 4682,
      "сотрудничество": 4683,
      "событий": 4684,
      "воздух": 4685,
      "генпрокурора": 4686,
      "корпус": 4687,
      "квартире": 4688,
      "бесед": 4689,
      "устройство": 4690,
      "##нократ": 4691,
      "степашин": 4692,
      "доступа": 4693,
      "ошибки": 4694,
      "консульт": 4695,
      "аварии": 4696,
      "ладена": 4697,
      "уверен": 4698,
      "аналит": 4699,
      "нужно": 4700,
      "##выбор": 4701,
      "англий": 4702,
      "группировки": 4703,
      "происходит": 4704,
      "версия": 4705,
      "департамента": 4706,
      "настоящий": 4707,
      "временем": 4708,
      "аэрофлот": 4709,
      "полагают": 4710,
      "железнод": 4711,
      "предъявл": 4712,
      "израиля": 4713,
      "провинции": 4714,
      "##ификации": 4715,
      "профессион": 4716,
      "природ": 4717,
      "вскоре": 4718,
      "электроэнерг": 4719,
      "субботу": 4720,
      "неоднократ": 4721,
      "реструктуризации": 4722,
      "слишком": 4723,
      "железнодорож": 4724,
      "de": 4725,
      "group": 4726,
      "би": 4727,
      "бот": 4728,
      "бель": 4729,
      "бур": 4730,
      "еэс": 4731,
      "ир": 4732,
      "кн": 4733,
      "кг": 4734,
      "кот": 4735,
      "мак": 4736,
      "мид": 4737,
      "пил": 4738,
      "ска": 4739,
      "сократ": 4740,
      "хат": 4741,
      "хам": 4742,
      "эн": 4743,
      "##виг": 4744,
      "##ысл": 4745,
      "##ними": 4746,
      "##кот": 4747,
      "##реж": 4748,
      "##пи": 4749,
      "##ьше": 4750,
      "##шему": 4751,
      "##гер": 4752,
      "##бек": 4753,
      "##цен": 4754,
      "##ot": 4755,
      "##ir": 4756,
      "##ut": 4757,
      "##bi": 4758,
      "##ea": 4759,
      "##wa": 4760,
      "##оваться": 4761,
      "прил": 4762,
      "приход": 4763,
      "##елет": 4764,
      "##олня": 4765,
      "##атт": 4766,
      "##оса": 4767,
      "##ствам": 4768,
      "##сят": 4769,
      "##ойчив": 4770,
      "##имости": 4771,
      "##еко": 4772,
      "наших": 4773,
      "отд": 4774,
      "выт": 4775,
      "предполож": 4776,
      "предназ": 4777,
      "##идем": 4778,
      "##ована": 4779,
      "пропуск": 4780,
      "перен": 4781,
      "сообщается": 4782,
      "##очной": 4783,
      "развер": 4784,
      "разоруж": 4785,
      "минтоп": 4786,
      "спик": 4787,
      "##няков": 4788,
      "##спектив": 4789,
      "##ибир": 4790,
      "##ственная": 4791,
      "заработ": 4792,
      "российско": 4793,
      "опек": 4794,
      "##ировала": 4795,
      "представить": 4796,
      "##ющей": 4797,
      "само": 4798,
      "самой": 4799,
      "среднем": 4800,
      "расск": 4801,
      "судом": 4802,
      "решением": 4803,
      "исполня": 4804,
      "городов": 4805,
      "алмаз": 4806,
      "открыв": 4807,
      "отключ": 4808,
      "должност": 4809,
      "должность": 4810,
      "пласт": 4811,
      "больше": 4812,
      "повыс": 4813,
      "завтра": 4814,
      "недоп": 4815,
      "##ишет": 4816,
      "районы": 4817,
      "военную": 4818,
      "раньше": 4819,
      "другими": 4820,
      "##инга": 4821,
      "международный": 4822,
      "заметил": 4823,
      "боевые": 4824,
      "техники": 4825,
      "политического": 4826,
      "класс": 4827,
      "намеч": 4828,
      "благод": 4829,
      "министерстве": 4830,
      "большое": 4831,
      "террористы": 4832,
      "##аторы": 4833,
      "прибыв": 4834,
      "производство": 4835,
      "программе": 4836,
      "источника": 4837,
      "##летвор": 4838,
      "счетах": 4839,
      "законч": 4840,
      "националь": 4841,
      "национального": 4842,
      "##аксим": 4843,
      "усам": 4844,
      "курса": 4845,
      "экономики": 4846,
      "прокурора": 4847,
      "британских": 4848,
      "деятельностью": 4849,
      "объединение": 4850,
      "надежд": 4851,
      "штата": 4852,
      "штатов": 4853,
      "грузов": 4854,
      "уголовного": 4855,
      "целях": 4856,
      "похит": 4857,
      "банковских": 4858,
      "флойд": 4859,
      "освобождения": 4860,
      "вынес": 4861,
      "отмывания": 4862,
      "тюрем": 4863,
      "законодательства": 4864,
      "магомед": 4865,
      "уровень": 4866,
      "совместно": 4867,
      "регионах": 4868,
      "неизвестно": 4869,
      "рабочих": 4870,
      "сложности": 4871,
      "землетрясение": 4872,
      "делегации": 4873,
      "пенсион": 4874,
      "вашингтон": 4875,
      "##ill": 4876,
      "премию": 4877,
      "административной": 4878,
      "ведущих": 4879,
      "акционеров": 4880,
      "письм": 4881,
      "школы": 4882,
      "недостат": 4883,
      "басаев": 4884,
      "женщины": 4885,
      "энергетики": 4886,
      "печати": 4887,
      "продукции": 4888,
      "корпорация": 4889,
      "сравнению": 4890,
      "здоровья": 4891,
      "фигур": 4892,
      "##pace": 4893,
      "роберт": 4894,
      "механ": 4895,
      "негатив": 4896,
      "##интерес": 4897,
      "вполне": 4898,
      "космодром": 4899,
      "предназнач": 4900,
      "минтопэнерго": 4901,
      "bri": 4902,
      "la": 4903,
      "вен": 4904,
      "веш": 4905,
      "гт": 4906,
      "дис": 4907,
      "дали": 4908,
      "же": 4909,
      "зло": 4910,
      "иг": 4911,
      "км": 4912,
      "куп": 4913,
      "кни": 4914,
      "кфор": 4915,
      "ле": 4916,
      "лим": 4917,
      "маз": 4918,
      "маль": 4919,
      "опр": 4920,
      "она": 4921,
      "пас": 4922,
      "патр": 4923,
      "ром": 4924,
      "роль": 4925,
      "та": 4926,
      "тра": 4927,
      "тип": 4928,
      "фра": 4929,
      "хл": 4930,
      "цб": 4931,
      "чех": 4932,
      "шам": 4933,
      "##тс": 4934,
      "##юж": 4935,
      "##юсс": 4936,
      "##щики": 4937,
      "##кция": 4938,
      "##мар": 4939,
      "##мун": 4940,
      "##оедин": 4941,
      "##оохран": 4942,
      "##dow": 4943,
      "##фикс": 4944,
      "##ъект": 4945,
      "##lic": 4946,
      "##com": 4947,
      "##анского": 4948,
      "##антов": 4949,
      "##ероссий": 4950,
      "преб": 4951,
      "##ортер": 4952,
      "##елю": 4953,
      "##онач": 4954,
      "##оте": 4955,
      "##амер": 4956,
      "##имет": 4957,
      "нац": 4958,
      "##ада": 4959,
      "отч": 4960,
      "вылет": 4961,
      "##против": 4962,
      "предвыбор": 4963,
      "подк": 4964,
      "поддель": 4965,
      "слух": 4966,
      "переб": 4967,
      "перспектив": 4968,
      "полков": 4969,
      "\",-": 4970,
      "изол": 4971,
      "годов": 4972,
      "##ленно": 4973,
      "##ачк": 4974,
      "зафикс": 4975,
      "##реп": 4976,
      "временно": 4977,
      "закуп": 4978,
      "взлом": 4979,
      "москвич": 4980,
      "##ционного": 4981,
      "##ыть": 4982,
      "пособ": 4983,
      "горяч": 4984,
      "органах": 4985,
      "кораб": 4986,
      "собр": 4987,
      "судьб": 4988,
      "серд": 4989,
      "местах": 4990,
      "взрывное": 4991,
      "руки": 4992,
      "газет": 4993,
      "газпром": 4994,
      "вслед": 4995,
      "всему": 4996,
      "руководству": 4997,
      "находились": 4998,
      "облом": 4999,
      "другим": 5000,
      "организованной": 5001,
      "автоном": 5002,
      "бриг": 5003,
      "##ведом": 5004,
      "офис": 5005,
      "клад": 5006,
      "налого": 5007,
      "безопасность": 5008,
      "процент": 5009,
      "использования": 5010,
      "передачи": 5011,
      "общества": 5012,
      "крас": 5013,
      "приблиз": 5014,
      "обнаружено": 5015,
      "преступностью": 5016,
      "##ony": 5017,
      "здании": 5018,
      "автомат": 5019,
      "срока": 5020,
      "пострадал": 5021,
      "подписали": 5022,
      "трой": 5023,
      "месяц": 5024,
      "говорят": 5025,
      "говорить": 5026,
      "концер": 5027,
      "экономических": 5028,
      "исключено": 5029,
      "сеть": 5030,
      "требуют": 5031,
      "фирма": 5032,
      "объединенной": 5033,
      "быстро": 5034,
      "обсуд": 5035,
      "рекорд": 5036,
      "реклам": 5037,
      "бомбард": 5038,
      "многих": 5039,
      "дети": 5040,
      "##tis": 5041,
      "теракты": 5042,
      "банкрот": 5043,
      "серьезно": 5044,
      "серьезные": 5045,
      "голосования": 5046,
      "назначения": 5047,
      "любой": 5048,
      "соглашения": 5049,
      "доренко": 5050,
      "июле": 5051,
      "выплач": 5052,
      "деклара": 5053,
      "кредитов": 5054,
      "пришлось": 5055,
      "кириенко": 5056,
      "избеж": 5057,
      "входят": 5058,
      "повышение": 5059,
      "проходит": 5060,
      "генпрокуратуры": 5061,
      "достигнут": 5062,
      "беспр": 5063,
      "предусмотр": 5064,
      "здрав": 5065,
      "нефтяной": 5066,
      "центризбиркома": 5067,
      "подозреваемых": 5068,
      "лукаш": 5069,
      "##окомпании": 5070,
      "##атуру": 5071,
      "транснефть": 5072,
      "казахстан": 5073,
      "преслед": 5074,
      "акционер": 5075,
      "мероприятий": 5076,
      "мероприятия": 5077,
      "аэрофлота": 5078,
      "выяснилось": 5079,
      "крайне": 5080,
      "меньшей": 5081,
      "церемон": 5082,
      "стихий": 5083,
      "супруг": 5084,
      "двигателя": 5085,
      "солдат": 5086,
      "игорь": 5087,
      "оценивается": 5088,
      "веществ": 5089,
      "состоявшейся": 5090,
      "трагедии": 5091,
      "мобиль": 5092,
      "пират": 5093,
      "невозможно": 5094,
      "зрения": 5095,
      "дипломат": 5096,
      "прежде": 5097,
      "касьянов": 5098,
      "window": 5099,
      "неожидан": 5100,
      "андре": 5101,
      "означает": 5102,
      "лазаренко": 5103,
      "савель": 5104,
      "вешняков": 5105,
      "гтк": 5106,
      "лукашенко": 5107,
      "windows": 5108,
      "$<": 5109,
      "(\"": 5110,
      "co": 5111,
      "ii": 5112,
      "or": 5113,
      "sun": 5114,
      "ай": 5115,
      "бю": 5116,
      "бд": 5117,
      "бое": 5118,
      "бук": 5119,
      "впр": 5120,
      "враг": 5121,
      "кпр": 5122,
      "лих": 5123,
      "листов": 5124,
      "максим": 5125,
      "нер": 5126,
      "нож": 5127,
      "ними": 5128,
      "олег": 5129,
      "рев": 5130,
      "съ": 5131,
      "син": 5132,
      "ту": 5133,
      "тщ": 5134,
      "фам": 5135,
      "фут": 5136,
      "яз": 5137,
      "##сы": 5138,
      "##вет": 5139,
      "##иже": 5140,
      "##дина": 5141,
      "##лек": 5142,
      "##ланд": 5143,
      "##лений": 5144,
      "##нес": 5145,
      "##ьи": 5146,
      "##оу": 5147,
      "##ох": 5148,
      "##зав": 5149,
      "##ба": 5150,
      "##цесс": 5151,
      "##hi": 5152,
      "##ni": 5153,
      "##ed": 5154,
      "##овского": 5155,
      "##овало": 5156,
      "##аном": 5157,
      "##анской": 5158,
      "##еро": 5159,
      "практ": 5160,
      "прайм": 5161,
      "##орожд": 5162,
      "##ордж": 5163,
      "##алий": 5164,
      "##оли": 5165,
      "##онь": 5166,
      "##емся": 5167,
      "##ствий": 5168,
      "##арат": 5169,
      "##арской": 5170,
      "##авшие": 5171,
      "оба": 5172,
      "обслуж": 5173,
      "##евым": 5174,
      "направ": 5175,
      "##иси": 5176,
      "##есть": 5177,
      "вывед": 5178,
      "##прип": 5179,
      "##озв": 5180,
      "##озд": 5181,
      "##озн": 5182,
      "подход": 5183,
      "##еческ": 5184,
      "##ечении": 5185,
      "##астся": 5186,
      "переш": 5187,
      "сообщениям": 5188,
      "этого": 5189,
      "заинтерес": 5190,
      "возрос": 5191,
      "российскими": 5192,
      "##ательной": 5193,
      "##репл": 5194,
      "скрыв": 5195,
      "сконч": 5196,
      "взорв": 5197,
      "москва": 5198,
      "делать": 5199,
      "##ябрь": 5200,
      "иметь": 5201,
      "постро": 5202,
      "миллион": 5203,
      "##ированной": 5204,
      "продл": 5205,
      "продоволь": 5206,
      "саммер": 5207,
      "самый": 5208,
      "##рош": 5209,
      "чечню": 5210,
      "первая": 5211,
      "произвед": 5212,
      "##проса": 5213,
      "руководители": 5214,
      "##ующая": 5215,
      "действовать": 5216,
      "погаш": 5217,
      "последних": 5218,
      "аксен": 5219,
      "следствие": 5220,
      "потери": 5221,
      "международные": 5222,
      "брос": 5223,
      "октябре": 5224,
      "проблема": 5225,
      "проблему": 5226,
      "ведет": 5227,
      "основной": 5228,
      "управля": 5229,
      "транша": 5230,
      "процента": 5231,
      "востоке": 5232,
      "привести": 5233,
      "алексей": 5234,
      "остаются": 5235,
      "остальные": 5236,
      "границ": 5237,
      "##tel": 5238,
      "идут": 5239,
      "произошед": 5240,
      "обеспечению": 5241,
      "джордж": 5242,
      "журнал": 5243,
      "проведение": 5244,
      "аэр": 5245,
      "еди": 5246,
      "налоговой": 5247,
      "дума": 5248,
      "предложение": 5249,
      "генеральной": 5250,
      "земли": 5251,
      "предоставить": 5252,
      "прошлого": 5253,
      "нарушения": 5254,
      "штаты": 5255,
      "проводится": 5256,
      "бомбы": 5257,
      "заключения": 5258,
      "заключение": 5259,
      "предполагает": 5260,
      "днях": 5261,
      "наши": 5262,
      "присоедин": 5263,
      "режиме": 5264,
      "афр": 5265,
      "отмывании": 5266,
      "связанные": 5267,
      "мировой": 5268,
      "rep": 5269,
      "ввоз": 5270,
      "машины": 5271,
      "бесплат": 5272,
      "глаз": 5273,
      "транспорта": 5274,
      "скандала": 5275,
      "антитер": 5276,
      "переселен": 5277,
      "непод": 5278,
      "телекомпании": 5279,
      "закрыты": 5280,
      "чрезвычайным": 5281,
      "ирака": 5282,
      "высказыв": 5283,
      "конкретных": 5284,
      "отставке": 5285,
      "задолженность": 5286,
      "регионе": 5287,
      "вкладов": 5288,
      "митинга": 5289,
      "продажи": 5290,
      "вынуждены": 5291,
      "смогут": 5292,
      "конфликт": 5293,
      "дерева": 5294,
      "урегул": 5295,
      "округа": 5296,
      "уточнил": 5297,
      "дополнительные": 5298,
      "махачк": 5299,
      "##ячеслав": 5300,
      "жириновского": 5301,
      "вертолет": 5302,
      "бензин": 5303,
      "досроч": 5304,
      "отвечая": 5305,
      "радиостанции": 5306,
      "радиостанция": 5307,
      "весьма": 5308,
      "христенко": 5309,
      "барр": 5310,
      "придется": 5311,
      "лебедь": 5312,
      "corri": 5313,
      "полномочий": 5314,
      "выдвинут": 5315,
      "доказательств": 5316,
      "della": 5317,
      "претенд": 5318,
      "прибыли": 5319,
      "хочет": 5320,
      "взорван": 5321,
      "каширском": 5322,
      "взаимодейств": 5323,
      "sera": 5324,
      "волгодонске": 5325,
      "бандформирований": 5326,
      "бактер": 5327,
      "греции": 5328,
      "хаттаб": 5329,
      "леон": 5330,
      "мазут": 5331,
      "хлеб": 5332,
      "кладб": 5333,
      "бомбардиров": 5334,
      "боеприп": 5335,
      "боеприпас": 5336,
      "\"<": 5337,
      "\":": 5338,
      ",\"": 5339,
      "UR": 5340,
      "am": 5341,
      "tel": 5342,
      "вул": 5343,
      "вред": 5344,
      "вари": 5345,
      "вячеслав": 5346,
      "гряз": 5347,
      "зим": 5348,
      "ими": 5349,
      "коз": 5350,
      "мотив": 5351,
      "нужд": 5352,
      "пс": 5353,
      "пит": 5354,
      "сом": 5355,
      "сант": 5356,
      "съезд": 5357,
      "сессии": 5358,
      "сибир": 5359,
      "устан": 5360,
      "устро": 5361,
      "улуч": 5362,
      "хаб": 5363,
      "ясно": 5364,
      "##ющего": 5365,
      "##иент": 5366,
      "##хаб": 5367,
      "##лей": 5368,
      "##лина": 5369,
      "##пев": 5370,
      "##польз": 5371,
      "##эр": 5372,
      "##бы": 5373,
      "##ux": 5374,
      "##ap": 5375,
      "##work": 5376,
      "##sc": 5377,
      "##овое": 5378,
      "##овещ": 5379,
      "прием": 5380,
      "##ити": 5381,
      "##олит": 5382,
      "##инской": 5383,
      "##информ": 5384,
      "##ствовать": 5385,
      "##авюр": 5386,
      "##ельного": 5387,
      "обез": 5388,
      "##ентолог": 5389,
      "##евого": 5390,
      "стоя": 5391,
      "##ившиеся": 5392,
      "нау": 5393,
      "отпуск": 5394,
      "отправ": 5395,
      "отстран": 5396,
      "предп": 5397,
      "##огод": 5398,
      "проч": 5399,
      "проя": 5400,
      "##абиль": 5401,
      "##ическому": 5402,
      "минф": 5403,
      "издан": 5404,
      "##ула": 5405,
      "новом": 5406,
      "новому": 5407,
      "этаж": 5408,
      "справ": 5409,
      "вообще": 5410,
      "оджал": 5411,
      "российское": 5412,
      "опол": 5413,
      "##тера": 5414,
      "делами": 5415,
      "##гляд": 5416,
      "##ционные": 5417,
      "влия": 5418,
      "провели": 5419,
      "представля": 5420,
      "учеб": 5421,
      "данном": 5422,
      "президенту": 5423,
      "принци": 5424,
      "королев": 5425,
      "кореи": 5426,
      "расчет": 5427,
      "расшир": 5428,
      "собин": 5429,
      "##лаго": 5430,
      "будем": 5431,
      "главный": 5432,
      "месторожд": 5433,
      "арг": 5434,
      "тела": 5435,
      "резолю": 5436,
      "задор": 5437,
      "получения": 5438,
      "агр": 5439,
      "поверх": 5440,
      "##ующем": 5441,
      "частных": 5442,
      "второго": 5443,
      "составляют": 5444,
      "федеральным": 5445,
      "войну": 5446,
      "международным": 5447,
      "международными": 5448,
      "удастся": 5449,
      "призвал": 5450,
      "##истрацию": 5451,
      "московская": 5452,
      "##аемой": 5453,
      "людям": 5454,
      "основных": 5455,
      "финансовыми": 5456,
      "террористами": 5457,
      "использовании": 5458,
      "случая": 5459,
      "объяв": 5460,
      "имеются": 5461,
      "имеющих": 5462,
      "обнарод": 5463,
      "##инок": 5464,
      "северная": 5465,
      "ельци": 5466,
      "программа": 5467,
      "выступил": 5468,
      "кандидата": 5469,
      "сделано": 5470,
      "##муник": 5471,
      "борьбу": 5472,
      "западной": 5473,
      "милицион": 5474,
      "думаю": 5475,
      "предложения": 5476,
      "образования": 5477,
      "британской": 5478,
      "атак": 5479,
      "подготовки": 5480,
      "реком": 5481,
      "команды": 5482,
      "раис": 5483,
      "рода": 5484,
      "перевоз": 5485,
      "компьютерной": 5486,
      "русский": 5487,
      "русские": 5488,
      "защит": 5489,
      "абд": 5490,
      "улиц": 5491,
      "власть": 5492,
      "пакет": 5493,
      "хотят": 5494,
      "превыс": 5495,
      "таможенного": 5496,
      "июне": 5497,
      "невы": 5498,
      "статье": 5499,
      "разработан": 5500,
      "высокопостав": 5501,
      "тюмень": 5502,
      "энергос": 5503,
      "пришли": 5504,
      "машин": 5505,
      "базе": 5506,
      "входит": 5507,
      "масштаб": 5508,
      "азии": 5509,
      "глуб": 5510,
      "шкале": 5511,
      "лично": 5512,
      "упал": 5513,
      "устран": 5514,
      "миротворцев": 5515,
      "ситуациям": 5516,
      "независимости": 5517,
      "оказать": 5518,
      "ведомств": 5519,
      "жилых": 5520,
      "найти": 5521,
      "возглавляем": 5522,
      "визит": 5523,
      "золота": 5524,
      "бизнесмен": 5525,
      "вчераш": 5526,
      "конкретные": 5527,
      "австралии": 5528,
      "аэропорта": 5529,
      "существует": 5530,
      "фунтов": 5531,
      "функцион": 5532,
      "оборудование": 5533,
      "застр": 5534,
      "выставка": 5535,
      "представителями": 5536,
      "падение": 5537,
      "архив": 5538,
      "вызвало": 5539,
      "березовского": 5540,
      "собрания": 5541,
      "конфликта": 5542,
      "института": 5543,
      "комментируя": 5544,
      "организациями": 5545,
      "кремля": 5546,
      "зарубежных": 5547,
      "врачи": 5548,
      "павел": 5549,
      "албанцев": 5550,
      "экстремист": 5551,
      "жириновский": 5552,
      "университета": 5553,
      "аудитор": 5554,
      "узн": 5555,
      "постоянно": 5556,
      "гостел": 5557,
      "служеб": 5558,
      "предусматривает": 5559,
      "дочер": 5560,
      "марте": 5561,
      "прибыль": 5562,
      "распоряжение": 5563,
      "ассо": 5564,
      "эпидем": 5565,
      "превышает": 5566,
      "приводит": 5567,
      "пентагона": 5568,
      "нефтепродуктов": 5569,
      "кредиторов": 5570,
      "красноярского": 5571,
      "евгений": 5572,
      "восьми": 5573,
      "кругл": 5574,
      "абсолютно": 5575,
      "хасавюр": 5576,
      "##ерлинг": 5577,
      "неоднократно": 5578,
      "спикер": 5579,
      "космодрома": 5580,
      "##оохранения": 5581,
      "кпрф": 5582,
      "антитеррор": 5583,
      "URL": 5584,
      "вариант": 5585,
      "тюменьэнерго": 5586,
      ".,": 5587,
      "al": 5588,
      "ap": 5589,
      "ben": 5590,
      "da": 5591,
      "ip": 5592,
      "sa": 5593,
      "us": 5594,
      "ах": 5595,
      "бил": 5596,
      "вто": 5597,
      "дл": 5598,
      "дик": 5599,
      "доно": 5600,
      "жителям": 5601,
      "зна": 5602,
      "кали": 5603,
      "крат": 5604,
      "мел": 5605,
      "мад": 5606,
      "пист": 5607,
      "публ": 5608,
      "пара": 5609,
      "пойдет": 5610,
      "пишет": 5611,
      "рожд": 5612,
      "сап": 5613,
      "той": 5614,
      "трав": 5615,
      "туда": 5616,
      "храм": 5617,
      "цели": 5618,
      "чист": 5619,
      "чили": 5620,
      "эст": 5621,
      "№<": 5622,
      "##том": 5623,
      "##ва": 5624,
      "##уя": 5625,
      "##устр": 5626,
      "##есяч": 5627,
      "##лант": 5628,
      "##нули": 5629,
      "##рест": 5630,
      "##эп": 5631,
      "##зе": 5632,
      "##зя": 5633,
      "##брай": 5634,
      "##фед": 5635,
      "##bs": 5636,
      "##ch": 5637,
      "##woo": 5638,
      "##овый": 5639,
      "##овлетвор": 5640,
      "проб": 5641,
      "пройдет": 5642,
      "##ордан": 5643,
      "##елков": 5644,
      "##аля": 5645,
      "##инго": 5646,
      "##оты": 5647,
      "##отно": 5648,
      "##отех": 5649,
      "##иком": 5650,
      "студ": 5651,
      "структ": 5652,
      "##ившегося": 5653,
      "сопров": 5654,
      "сопротив": 5655,
      "наск": 5656,
      "выработ": 5657,
      "выигр": 5658,
      "##президент": 5659,
      "предсто": 5660,
      "##иду": 5661,
      "подчин": 5662,
      "##ечения": 5663,
      "##ительное": 5664,
      "##ыва": 5665,
      "инжен": 5666,
      "свер": 5667,
      "свет": 5668,
      "##очь": 5669,
      "##очную": 5670,
      "##абр": 5671,
      "разбир": 5672,
      "новгород": 5673,
      "##ума": 5674,
      "##умб": 5675,
      "такую": 5676,
      "вошли": 5677,
      "##ачу": 5678,
      "##ательного": 5679,
      "##услов": 5680,
      "имели": 5681,
      "учены": 5682,
      "учетом": 5683,
      "двор": 5684,
      "##ированные": 5685,
      "среды": 5686,
      "пош": 5687,
      "попрос": 5688,
      "банке": 5689,
      "правительственных": 5690,
      "чечня": 5691,
      "чечней": 5692,
      "начнется": 5693,
      "судя": 5694,
      "судно": 5695,
      "середин": 5696,
      "месту": 5697,
      "взрывы": 5698,
      "информацией": 5699,
      "арми": 5700,
      "аль": 5701,
      "откуда": 5702,
      "##игиоз": 5703,
      "резко": 5704,
      "помимо": 5705,
      "получив": 5706,
      "противоп": 5707,
      "руководителем": 5708,
      "находиться": 5709,
      "заплан": 5710,
      "военным": 5711,
      "последнего": 5712,
      "американская": 5713,
      "американскими": 5714,
      "акция": 5715,
      "граждане": 5716,
      "сотрудниками": 5717,
      "ударов": 5718,
      "удовлетвор": 5719,
      "прогрем": 5720,
      "##нулся": 5721,
      "вопросов": 5722,
      "замет": 5723,
      "путем": 5724,
      "группой": 5725,
      "примаков": 5726,
      "возможных": 5727,
      "числен": 5728,
      "косов": 5729,
      "прошел": 5730,
      "финансовые": 5731,
      "позиции": 5732,
      "убеж": 5733,
      "оборон": 5734,
      "документа": 5735,
      "имеющ": 5736,
      "индустр": 5737,
      "эксплу": 5738,
      "станут": 5739,
      "##ьянова": 5740,
      "##антин": 5741,
      "необходимые": 5742,
      "поправ": 5743,
      "увд": 5744,
      "минувшие": 5745,
      "зданий": 5746,
      "проекте": 5747,
      "официальным": 5748,
      "официальный": 5749,
      "занят": 5750,
      "иде": 5751,
      "какие": 5752,
      "намерены": 5753,
      "метод": 5754,
      "поддержке": 5755,
      "приор": 5756,
      "джейм": 5757,
      "создании": 5758,
      "берлин": 5759,
      "огонь": 5760,
      "очаг": 5761,
      "ближайших": 5762,
      "конференция": 5763,
      "британский": 5764,
      "нарушение": 5765,
      "семи": 5766,
      "дополн": 5767,
      "ночи": 5768,
      "приняло": 5769,
      "командование": 5770,
      "марки": 5771,
      "спасатели": 5772,
      "русской": 5773,
      "массовые": 5774,
      "санитар": 5775,
      "лидером": 5776,
      "улицы": 5777,
      "властям": 5778,
      "сроки": 5779,
      "активно": 5780,
      "создав": 5781,
      "европейской": 5782,
      "народа": 5783,
      "нашли": 5784,
      "угрож": 5785,
      "прекратить": 5786,
      "освобождение": 5787,
      "телефону": 5788,
      "разработки": 5789,
      "напомин": 5790,
      "оказалась": 5791,
      "единство": 5792,
      "форме": 5793,
      "попытки": 5794,
      "технологии": 5795,
      "объема": 5796,
      "пришт": 5797,
      "моря": 5798,
      "законодательству": 5799,
      "беспоряд": 5800,
      "миссия": 5801,
      "угроза": 5802,
      "угрозы": 5803,
      "десятки": 5804,
      "обсуждения": 5805,
      "региональных": 5806,
      "расположенном": 5807,
      "ведомства": 5808,
      "делегация": 5809,
      "отставку": 5810,
      "карол": 5811,
      "манежной": 5812,
      "состоит": 5813,
      "падения": 5814,
      "отметили": 5815,
      "спецслужбы": 5816,
      "коммерческих": 5817,
      "секты": 5818,
      "оценкам": 5819,
      "точки": 5820,
      "##улиган": 5821,
      "название": 5822,
      "обязанностей": 5823,
      "шесть": 5824,
      "англии": 5825,
      "смерти": 5826,
      "чтении": 5827,
      "наличии": 5828,
      "привлек": 5829,
      "катастрофы": 5830,
      "горбачевой": 5831,
      "университет": 5832,
      "нобелевской": 5833,
      "басаева": 5834,
      "эдвард": 5835,
      "относится": 5836,
      "противореч": 5837,
      "поздно": 5838,
      "ужесточ": 5839,
      "network": 5840,
      "сфере": 5841,
      "ученые": 5842,
      "телерадиокомпании": 5843,
      "реализации": 5844,
      "металл": 5845,
      "может": 5846,
      "internet": 5847,
      "овр": 5848,
      "аналогич": 5849,
      "труда": 5850,
      "бородин": 5851,
      "госдепартамента": 5852,
      "схем": 5853,
      "измени": 5854,
      "двумя": 5855,
      "альянса": 5856,
      "черномырдин": 5857,
      "маршру": 5858,
      "письмо": 5859,
      "слухи": 5860,
      "избежать": 5861,
      "здравоохранения": 5862,
      "саммерс": 5863,
      "repub": 5864,
      "переселенцев": 5865,
      "corriere": 5866,
      "устанавлив": 5867,
      "улучш": 5868,
      "случаях": 5869,
      "ассоци": 5870,
      "пистол": 5871,
      "##брайт": 5872,
      "середине": 5873,
      "air": 5874,
      "sol": 5875,
      "space": 5876,
      "sony": 5877,
      "vi": 5878,
      "ао": 5879,
      "вах": 5880,
      "др": 5881,
      "дать": 5882,
      "дили": 5883,
      "жена": 5884,
      "зоны": 5885,
      "их": 5886,
      "иордан": 5887,
      "кем": 5888,
      "касс": 5889,
      "когда": 5890,
      "му": 5891,
      "мно": 5892,
      "маф": 5893,
      "них": 5894,
      "нест": 5895,
      "пуст": 5896,
      "руд": 5897,
      "ряз": 5898,
      "сал": 5899,
      "сад": 5900,
      "сформ": 5901,
      "трад": 5902,
      "уф": 5903,
      "уник": 5904,
      "фью": 5905,
      "хулиган": 5906,
      "##танов": 5907,
      "##тинг": 5908,
      "##ви": 5909,
      "##уру": 5910,
      "##уги": 5911,
      "##ицией": 5912,
      "##худ": 5913,
      "##лаз": 5914,
      "##кина": 5915,
      "##печат": 5916,
      "##гра": 5917,
      "##мов": 5918,
      "##ои": 5919,
      "##эй": 5920,
      "##oc": 5921,
      "##ad": 5922,
      "##ate": 5923,
      "##nn": 5924,
      "##lim": 5925,
      "##ton": 5926,
      "##ve": 5927,
      "##енков": 5928,
      "##анг": 5929,
      "##еру": 5930,
      "##ерь": 5931,
      "##ерами": 5932,
      "##алия": 5933,
      "##ати": 5934,
      "##онав": 5935,
      "##осут": 5936,
      "##ствах": 5937,
      "##ствами": 5938,
      "##арх": 5939,
      "##арии": 5940,
      "##оть": 5941,
      "##отных": 5942,
      "##оточ": 5943,
      "##авы": 5944,
      "##авшего": 5945,
      "##обор": 5946,
      "##ихся": 5947,
      "обоз": 5948,
      "##еку": 5949,
      "##ево": 5950,
      "стерлинг": 5951,
      "##ивост": 5952,
      "##ивание": 5953,
      "отступ": 5954,
      "##прод": 5955,
      "##егель": 5956,
      "подъезд": 5957,
      "##никах": 5958,
      "##ительным": 5959,
      "сообще": 5960,
      "поле": 5961,
      "коммун": 5962,
      "##очный": 5963,
      "##абоч": 5964,
      "разд": 5965,
      "разных": 5966,
      "издел": 5967,
      "новей": 5968,
      "неприят": 5969,
      "спеш": 5970,
      "правила": 5971,
      "##употреб": 5972,
      "##андат": 5973,
      "##андарт": 5974,
      "осетии": 5975,
      "воздерж": 5976,
      "компакт": 5977,
      "ориент": 5978,
      "органам": 5979,
      "принес": 5980,
      "страниц": 5981,
      "связаны": 5982,
      "расц": 5983,
      "расстоя": 5984,
      "начали": 5985,
      "судья": 5986,
      "главой": 5987,
      "главной": 5988,
      "решить": 5989,
      "решению": 5990,
      "работников": 5991,
      "местной": 5992,
      "местного": 5993,
      "испании": 5994,
      "крым": 5995,
      "городского": 5996,
      "своими": 5997,
      "анти": 5998,
      "анализ": 5999,
      "##актив": 6000,
      "укрепл": 6001,
      "неделю": 6002,
      "##ающими": 6003,
      "пораж": 6004,
      ">%)": 6005,
      "составе": 6006,
      "составил": 6007,
      "##ируются": 6008,
      "последним": 6009,
      "американский": 6010,
      "американским": 6011,
      "еврей": 6012,
      "международная": 6013,
      "колокола": 6014,
      "колумб": 6015,
      "брюсс": 6016,
      "сторона": 6017,
      "политическое": 6018,
      "возможной": 6019,
      "##аемый": 6020,
      "основные": 6021,
      "позв": 6022,
      "убед": 6023,
      "мирных": 6024,
      "большая": 6025,
      "передвиж": 6026,
      "осталось": 6027,
      "состоялась": 6028,
      "поним": 6029,
      "##ифиц": 6030,
      "встрет": 6031,
      "наряд": 6032,
      "уволь": 6033,
      "известный": 6034,
      "штур": 6035,
      "шторм": 6036,
      "программу": 6037,
      "зданович": 6038,
      "владимиром": 6039,
      "услуг": 6040,
      "трот": 6041,
      "трев": 6042,
      "обеспечив": 6043,
      "приобр": 6044,
      "закону": 6045,
      "внутри": 6046,
      "созданию": 6047,
      "##ащит": 6048,
      "##ащие": 6049,
      "проведении": 6050,
      "аэс": 6051,
      "партий": 6052,
      "##ателями": 6053,
      "говоря": 6054,
      "прокурор": 6055,
      "сетей": 6056,
      "требует": 6057,
      "туристов": 6058,
      "британские": 6059,
      "совершенно": 6060,
      "немед": 6061,
      "##провод": 6062,
      "условий": 6063,
      "подготовлен": 6064,
      "подготовку": 6065,
      "спасателей": 6066,
      "избирательной": 6067,
      "кажегель": 6068,
      "космос": 6069,
      "защите": 6070,
      "размера": 6071,
      "подобных": 6072,
      "августе": 6073,
      "особо": 6074,
      "всеми": 6075,
      "пакистана": 6076,
      "европейских": 6077,
      "народного": 6078,
      "прекрат": 6079,
      "содержится": 6080,
      "михаила": 6081,
      "платформ": 6082,
      "введение": 6083,
      "отмыванием": 6084,
      "связанных": 6085,
      "украина": 6086,
      "сторонники": 6087,
      "##ающихся": 6088,
      "взрывчатых": 6089,
      "взрывчатка": 6090,
      "машина": 6091,
      "##old": 6092,
      "изменений": 6093,
      "момента": 6094,
      "базы": 6095,
      "отдела": 6096,
      "жертвы": 6097,
      "сильно": 6098,
      "свободу": 6099,
      "десять": 6100,
      "пытаются": 6101,
      "устойчив": 6102,
      "телекомпания": 6103,
      "события": 6104,
      "исследов": 6105,
      "охраны": 6106,
      "принимают": 6107,
      "следователи": 6108,
      "жилого": 6109,
      "холд": 6110,
      "озабоч": 6111,
      "валютного": 6112,
      "публикации": 6113,
      "сербии": 6114,
      "основании": 6115,
      "объявила": 6116,
      "аэропорт": 6117,
      "пострадавшие": 6118,
      "прямом": 6119,
      "регионов": 6120,
      "сохранить": 6121,
      "мужч": 6122,
      "разведыв": 6123,
      "разведки": 6124,
      "авария": 6125,
      "госпиталь": 6126,
      "коррупцией": 6127,
      "девят": 6128,
      "урож": 6129,
      "премии": 6130,
      "распоряд": 6131,
      "продукты": 6132,
      "омон": 6133,
      "тайване": 6134,
      "тайвань": 6135,
      "загряз": 6136,
      "начинает": 6137,
      "заболевания": 6138,
      "##евича": 6139,
      "горбачева": 6140,
      "богат": 6141,
      "модерн": 6142,
      "охот": 6143,
      "статус": 6144,
      "причастности": 6145,
      "обязательства": 6146,
      "изъято": 6147,
      "ford": 6148,
      "лицензии": 6149,
      "соседних": 6150,
      "эду": 6151,
      "относительно": 6152,
      "татарстана": 6153,
      "зарплаты": 6154,
      "экипажа": 6155,
      "олбрайт": 6156,
      "проголосовали": 6157,
      "порнографии": 6158,
      "открылась": 6159,
      "бандитов": 6160,
      "перерегистрации": 6161,
      "mars": 6162,
      "гурьянова": 6163,
      "вмеш": 6164,
      "##hous": 6165,
      "препят": 6166,
      "покинуть": 6167,
      "центробанка": 6168,
      "религиоз": 6169,
      "крови": 6170,
      "абхазии": 6171,
      "льгот": 6172,
      "лауре": 6173,
      "бронет": 6174,
      "станислава": 6175,
      "баллотироваться": 6176,
      "бельг": 6177,
      "кгб": 6178,
      "britis": 6179,
      "кладбище": 6180,
      "круглосут": 6181,
      "benex": 6182,
      "диктат": 6183,
      "калифор": 6184,
      "насколько": 6185,
      "предстоит": 6186,
      "армию": 6187,
      "эксплуат": 6188,
      "приоритет": 6189,
      "ваххаб": 6190,
      "british": 6191,
      "bo": 6192,
      "cnn": 6193,
      "el": 6194,
      "fin": 6195,
      "ik": 6196,
      "lent": 6197,
      "боя": 6198,
      "баш": 6199,
      "был": 6200,
      "благо": 6201,
      "вор": 6202,
      "град": 6203,
      "граф": 6204,
      "дает": 6205,
      "диз": 6206,
      "дым": 6207,
      "дожд": 6208,
      "доволь": 6209,
      "зел": 6210,
      "иб": 6211,
      "лок": 6212,
      "ленин": 6213,
      "муш": 6214,
      "миш": 6215,
      "неж": 6216,
      "па": 6217,
      "рих": 6218,
      "сеп": 6219,
      "смен": 6220,
      "тот": 6221,
      "твер": 6222,
      "тенд": 6223,
      "фак": 6224,
      "худ": 6225,
      "хват": 6226,
      "чем": 6227,
      "чай": 6228,
      "чув": 6229,
      "шести": 6230,
      "шатт": 6231,
      "элем": 6232,
      "яй": 6233,
      "##чиков": 6234,
      "##чика": 6235,
      "##си": 6236,
      "##син": 6237,
      "##ве": 6238,
      "##вое": 6239,
      "##юст": 6240,
      "##иолог": 6241,
      "##десс": 6242,
      "##лих": 6243,
      "##лера": 6244,
      "##ляться": 6245,
      "##нич": 6246,
      "##нят": 6247,
      "##кос": 6248,
      "##кая": 6249,
      "##пион": 6250,
      "##шед": 6251,
      "##шков": 6252,
      "##мед": 6253,
      "##мос": 6254,
      "##эконом": 6255,
      "##зд": 6256,
      "##ner": 6257,
      "##ms": 6258,
      "##mun": 6259,
      "##ver": 6260,
      "##for": 6261,
      "##овая": 6262,
      "##анк": 6263,
      "##ноч": 6264,
      "##орад": 6265,
      "##орков": 6266,
      "##едр": 6267,
      "##инском": 6268,
      "##онс": 6269,
      "##онии": 6270,
      "##арь": 6271,
      "##арей": 6272,
      "##арраф": 6273,
      "##аминго": 6274,
      "##ийся": 6275,
      "##имых": 6276,
      "##ельное": 6277,
      "##остей": 6278,
      "обм": 6279,
      "##екул": 6280,
      "##екват": 6281,
      "старт": 6282,
      "стандарт": 6283,
      "##ивал": 6284,
      "##ивания": 6285,
      "##ившие": 6286,
      "##ившим": 6287,
      "соч": 6288,
      "соци": 6289,
      "сожал": 6290,
      "нашего": 6291,
      "##изировать": 6292,
      "отб": 6293,
      "отлож": 6294,
      "вышли": 6295,
      "выйти": 6296,
      "##ностями": 6297,
      "##атья": 6298,
      "подлеж": 6299,
      "##ительная": 6300,
      "##ительную": 6301,
      "инком": 6302,
      "инстан": 6303,
      "##ованные": 6304,
      "перех": 6305,
      "полет": 6306,
      "комсом": 6307,
      "##очем": 6308,
      "##очного": 6309,
      "##айт": 6310,
      "##абж": 6311,
      "минюст": 6312,
      "извл": 6313,
      "конеч": 6314,
      "##ремя": 6315,
      "нея": 6316,
      "непол": 6317,
      "спуст": 6318,
      "правос": 6319,
      "##нями": 6320,
      "один": 6321,
      "##ательство": 6322,
      "скоп": 6323,
      "взлет": 6324,
      "министров": 6325,
      "делом": 6326,
      "##шееся": 6327,
      "участи": 6328,
      "поста": 6329,
      "посту": 6330,
      "##ированный": 6331,
      "##ированию": 6332,
      "страна": 6333,
      "страну": 6334,
      "покид": 6335,
      "связей": 6336,
      "корея": 6337,
      "центов": 6338,
      "банком": 6339,
      "одну": 6340,
      "судна": 6341,
      "италии": 6342,
      "местному": 6343,
      "крист": 6344,
      "первое": 6345,
      "аренд": 6346,
      "анн": 6347,
      "анг": 6348,
      "помог": 6349,
      "помочь": 6350,
      "газопров": 6351,
      "эколог": 6352,
      "большие": 6353,
      "руководством": 6354,
      "облад": 6355,
      "владивост": 6356,
      "завис": 6357,
      "недель": 6358,
      "недоволь": 6359,
      "втором": 6360,
      "летнего": 6361,
      "составила": 6362,
      "военное": 6363,
      "последствий": 6364,
      "следствием": 6365,
      "истек": 6366,
      "континг": 6367,
      "участии": 6368,
      "участков": 6369,
      "регул": 6370,
      "удив": 6371,
      "удерж": 6372,
      "коллект": 6373,
      "боевикам": 6374,
      "примакова": 6375,
      "системах": 6376,
      "клет": 6377,
      "насчит": 6378,
      "прошли": 6379,
      "прошла": 6380,
      "согласился": 6381,
      "транш": 6382,
      "мирного": 6383,
      "объясня": 6384,
      "остался": 6385,
      "станций": 6386,
      "париж": 6387,
      "##ящие": 6388,
      "реаг": 6389,
      "государственная": 6390,
      "приближ": 6391,
      "наркот": 6392,
      "производителей": 6393,
      "ходорков": 6394,
      "александром": 6395,
      "услуги": 6396,
      "утверждению": 6397,
      "подписано": 6398,
      "направлены": 6399,
      "каким": 6400,
      "обеспечение": 6401,
      "россиян": 6402,
      "отношению": 6403,
      "национальный": 6404,
      "сделки": 6405,
      "единой": 6406,
      "смысл": 6407,
      "торговой": 6408,
      "вызов": 6409,
      "курд": 6410,
      "ракета": 6411,
      "западе": 6412,
      "западных": 6413,
      "западные": 6414,
      "признан": 6415,
      "предложил": 6416,
      "беженцами": 6417,
      "##ологи": 6418,
      "турец": 6419,
      "сниз": 6420,
      "быков": 6421,
      "допущ": 6422,
      "допустить": 6423,
      "медиа": 6424,
      "медики": 6425,
      "обслед": 6426,
      "вооруженные": 6427,
      "соответствующих": 6428,
      "надеж": 6429,
      "комиссию": 6430,
      "восемь": 6431,
      "раиса": 6432,
      "избирательных": 6433,
      "избирательный": 6434,
      "##авшихся": 6435,
      "массовых": 6436,
      "цене": 6437,
      "защиту": 6438,
      "защищ": 6439,
      "##правитель": 6440,
      "камдесс": 6441,
      "режисс": 6442,
      "включает": 6443,
      "теракта": 6444,
      "дальше": 6445,
      "скорость": 6446,
      "ареста": 6447,
      "фламинго": 6448,
      "строев": 6449,
      "авиации": 6450,
      "июня": 6451,
      "содержит": 6452,
      "телефонной": 6453,
      "выплаты": 6454,
      "каждой": 6455,
      "каждого": 6456,
      "конфиск": 6457,
      "швейцарской": 6458,
      "оказалось": 6459,
      "знамен": 6460,
      "ядерного": 6461,
      "##избиркома": 6462,
      "мировом": 6463,
      "сторонников": 6464,
      "доходах": 6465,
      "бандиты": 6466,
      "##остоятель": 6467,
      "постановления": 6468,
      "большинства": 6469,
      "сотрудничестве": 6470,
      "давно": 6471,
      "наиболь": 6472,
      "сильный": 6473,
      "болезн": 6474,
      "сегодняшнего": 6475,
      "суток": 6476,
      "сахар": 6477,
      "топливо": 6478,
      "текущ": 6479,
      "##шемся": 6480,
      "выполнения": 6481,
      "предотвратить": 6482,
      "возглавляет": 6483,
      "чрезвычайного": 6484,
      "холер": 6485,
      "объявлен": 6486,
      "объявлено": 6487,
      "публикация": 6488,
      "устройства": 6489,
      "степени": 6490,
      "сербов": 6491,
      "возбуд": 6492,
      "урагана": 6493,
      "доставлен": 6494,
      "##афр": 6495,
      "находящихся": 6496,
      "##рылись": 6497,
      "пригород": 6498,
      "консуль": 6499,
      "задачи": 6500,
      "призыву": 6501,
      "грозит": 6502,
      "грозного": 6503,
      "свободы": 6504,
      "лукой": 6505,
      "майор": 6506,
      "общественного": 6507,
      "верховного": 6508,
      "верховный": 6509,
      "comp": 6510,
      "литер": 6511,
      "финансирования": 6512,
      "структуры": 6513,
      "спутников": 6514,
      "тайваня": 6515,
      "субъект": 6516,
      "испытания": 6517,
      "коллегами": 6518,
      "половине": 6519,
      "вероятно": 6520,
      "нападения": 6521,
      "вещание": 6522,
      "крайней": 6523,
      "ветер": 6524,
      "преод": 6525,
      "статист": 6526,
      "нобелевскую": 6527,
      "оппозиции": 6528,
      "саентолог": 6529,
      "выпуст": 6530,
      "объяснил": 6531,
      "сахалинской": 6532,
      "микро": 6533,
      "соединенные": 6534,
      "объектов": 6535,
      "миротворческих": 6536,
      "лебедя": 6537,
      "##индонез": 6538,
      "академии": 6539,
      "corp": 6540,
      "дисков": 6541,
      "вывоз": 6542,
      "госсекрет": 6543,
      "##равления": 6544,
      "имущества": 6545,
      "больницы": 6546,
      "афганистан": 6547,
      "пределы": 6548,
      "столичного": 6549,
      "надеется": 6550,
      "патру": 6551,
      "демонстрации": 6552,
      "редактор": 6553,
      "появились": 6554,
      "тюрьме": 6555,
      "артиллер": 6556,
      "артиллерий": 6557,
      "оплаты": 6558,
      "очевидцев": 6559,
      "каналам": 6560,
      "табач": 6561,
      "перечис": 6562,
      "кризис": 6563,
      "переведены": 6564,
      "апреля": 6565,
      "обеих": 6566,
      "уплаты": 6567,
      "прокуратурой": 6568,
      "лаборатории": 6569,
      "нелег": 6570,
      "##вязи": 6571,
      "облигаций": 6572,
      "координ": 6573,
      "электроэнергии": 6574,
      "недопуст": 6575,
      "злоупотреб": 6576,
      "паспорт": 6577,
      "типа": 6578,
      "чехии": 6579,
      "пребывания": 6580,
      "полковник": 6581,
      "бдитель": 6582,
      "баррель": 6583,
      "псих": 6584,
      "сантимет": 6585,
      "обезв": 6586,
      "предпоч": 6587,
      "ельциным": 6588,
      "рекоменд": 6589,
      "сопровожд": 6590,
      "инженер": 6591,
      "множе": 6592,
      "фьючер": 6593,
      "обознач": 6594,
      "стерлингов": 6595,
      "lenta": 6596,
      "мушарраф": 6597,
      "рихтера": 6598,
      "сепарат": 6599,
      "##мосфер": 6600,
      "##munic": 6601,
      "спустя": 6602,
      "камдессю": 6603,
      "./": 6604,
      "col": 6605,
      "ms": 6606,
      "wor": 6607,
      "аок": 6608,
      "алю": 6609,
      "бай": 6610,
      "бул": 6611,
      "бух": 6612,
      "вряд": 6613,
      "гру": 6614,
      "гекс": 6615,
      "голов": 6616,
      "дов": 6617,
      "дель": 6618,
      "друз": 6619,
      "еще": 6620,
      "егор": 6621,
      "жительства": 6622,
      "зач": 6623,
      "зале": 6624,
      "займ": 6625,
      "игр": 6626,
      "коль": 6627,
      "кита": 6628,
      "калин": 6629,
      "каф": 6630,
      "лун": 6631,
      "мл": 6632,
      "мят": 6633,
      "мера": 6634,
      "ниб": 6635,
      "нему": 6636,
      "пек": 6637,
      "пул": 6638,
      "пуг": 6639,
      "реб": 6640,
      "сын": 6641,
      "уиль": 6642,
      "умень": 6643,
      "фай": 6644,
      "хач": 6645,
      "ценных": 6646,
      "чилий": 6647,
      "швед": 6648,
      "шиф": 6649,
      "шеф": 6650,
      "##см": 6651,
      "##иот": 6652,
      "##иным": 6653,
      "##ыске": 6654,
      "##дав": 6655,
      "##дик": 6656,
      "##днев": 6657,
      "##луж": 6658,
      "##нений": 6659,
      "##кор": 6660,
      "##пы": 6661,
      "##по": 6662,
      "##ьер": 6663,
      "##ши": 6664,
      "##мир": 6665,
      "##яг": 6666,
      "##зая": 6667,
      "##бург": 6668,
      "##ko": 6669,
      "##ig": 6670,
      "##ie": 6671,
      "##do": 6672,
      "##фи": 6673,
      "##фиц": 6674,
      "##ъем": 6675,
      "##ud": 6676,
      "##az": 6677,
      "##ld": 6678,
      "##co": 6679,
      "##ek": 6680,
      "##99": 6681,
      "##$<": 6682,
      "##енском": 6683,
      "##енному": 6684,
      "##анее": 6685,
      "##ерк": 6686,
      "прор": 6687,
      "##орных": 6688,
      "##сказ": 6689,
      "##олезн": 6690,
      "##атся": 6691,
      "##атастроф": 6692,
      "##еднев": 6693,
      "##иланд": 6694,
      "##расс": 6695,
      "##ослед": 6696,
      "##основ": 6697,
      "##емор": 6698,
      "##ствии": 6699,
      "##аркт": 6700,
      "##обесп": 6701,
      "##ака": 6702,
      "##акет": 6703,
      "##ельно": 6704,
      "обвал": 6705,
      "обжал": 6706,
      "##екции": 6707,
      "##ентр": 6708,
      "##евших": 6709,
      "##ивной": 6710,
      "##ивали": 6711,
      "##ившего": 6712,
      "##ившихся": 6713,
      "напис": 6714,
      "нашей": 6715,
      "наук": 6716,
      "##изи": 6717,
      "##изацию": 6718,
      "##альными": 6719,
      "подел": 6720,
      "подав": 6721,
      "##удь": 6722,
      "##ываются": 6723,
      "слаб": 6724,
      "прощ": 6725,
      "переж": 6726,
      "перестр": 6727,
      "полут": 6728,
      "полный": 6729,
      "разум": 6730,
      "изготов": 6731,
      "изображ": 6732,
      "спра": 6733,
      "спокой": 6734,
      "##ленный": 6735,
      "##ибер": 6736,
      "##ача": 6737,
      "##ственное": 6738,
      "##ственными": 6739,
      "##алифиц": 6740,
      "##ательных": 6741,
      "скрыть": 6742,
      "взять": 6743,
      "##гла": 6744,
      "импорт": 6745,
      "представлены": 6746,
      "учред": 6747,
      "##ированного": 6748,
      "данного": 6749,
      "продвиж": 6750,
      "сама": 6751,
      "президенте": 6752,
      "##полит": 6753,
      "связано": 6754,
      "корей": 6755,
      "начать": 6756,
      "началась": 6757,
      "##ателю": 6758,
      "протяж": 6759,
      "серии": 6760,
      "главным": 6761,
      "решили": 6762,
      "решении": 6763,
      "крю": 6764,
      "##ульман": 6765,
      "домен": 6766,
      "##игор": 6767,
      "тысячелет": 6768,
      "вернулись": 6769,
      "экстр": 6770,
      "больных": 6771,
      "больницу": 6772,
      "адекват": 6773,
      "повест": 6774,
      "##национ": 6775,
      "зависим": 6776,
      "сентябре": 6777,
      "рассмотреть": 6778,
      "военный": 6779,
      "последствия": 6780,
      "следует": 6781,
      "война": 6782,
      "поток": 6783,
      "потенциаль": 6784,
      "##инград": 6785,
      "##платель": 6786,
      "колес": 6787,
      "путей": 6788,
      "политике": 6789,
      "возможным": 6790,
      "подчеркивается": 6791,
      "ведутся": 6792,
      "людм": 6793,
      "основная": 6794,
      "позже": 6795,
      "позицию": 6796,
      "большую": 6797,
      "##председ": 6798,
      "юрт": 6799,
      "##ичества": 6800,
      "имеется": 6801,
      "привив": 6802,
      "остальных": 6803,
      "##тоном": 6804,
      "томас": 6805,
      "##ine": 6806,
      "общее": 6807,
      "продолжаются": 6808,
      "прибыт": 6809,
      "председателем": 6810,
      "производству": 6811,
      "преступников": 6812,
      "заранее": 6813,
      "программного": 6814,
      "автомашин": 6815,
      "официальных": 6816,
      "направлен": 6817,
      "соответственно": 6818,
      "войсками": 6819,
      "обеспечении": 6820,
      "сумм": 6821,
      "создана": 6822,
      "проверка": 6823,
      "проверять": 6824,
      "говорит": 6825,
      "вызывает": 6826,
      "общая": 6827,
      "ограб": 6828,
      "концу": 6829,
      "запада": 6830,
      "исключают": 6831,
      "затруд": 6832,
      "велич": 6833,
      "налога": 6834,
      "налогам": 6835,
      "предложению": 6836,
      "выдать": 6837,
      "предоставлении": 6838,
      "франция": 6839,
      "нарушений": 6840,
      "госдуме": 6841,
      "совершено": 6842,
      "атмосфер": 6843,
      "принятия": 6844,
      "специального": 6845,
      "ряде": 6846,
      "штатах": 6847,
      "проводить": 6848,
      "бомбовые": 6849,
      "увеличения": 6850,
      "увеличить": 6851,
      "русского": 6852,
      "тонны": 6853,
      "опасности": 6854,
      "подозрительных": 6855,
      "поступило": 6856,
      "inc": 6857,
      "intel": 6858,
      "значение": 6859,
      "сбоев": 6860,
      "предполагалось": 6861,
      "размеры": 6862,
      "подобного": 6863,
      "похож": 6864,
      "списки": 6865,
      "побыв": 6866,
      "открытие": 6867,
      "японских": 6868,
      "штабе": 6869,
      "занимается": 6870,
      "поставки": 6871,
      "оставшихся": 6872,
      "позволя": 6873,
      "соглашению": 6874,
      "преврат": 6875,
      "##произ": 6876,
      "количества": 6877,
      "таможенных": 6878,
      "статьи": 6879,
      "информационной": 6880,
      "называют": 6881,
      "ожидает": 6882,
      "введен": 6883,
      "введении": 6884,
      "попытка": 6885,
      "эфир": 6886,
      "распространенном": 6887,
      "определить": 6888,
      "объеме": 6889,
      "диаг": 6890,
      "возникновения": 6891,
      "##шуюся": 6892,
      "##государ": 6893,
      "транспортных": 6894,
      "живых": 6895,
      "повышения": 6896,
      "##рыли": 6897,
      "десятков": 6898,
      "болель": 6899,
      "болез": 6900,
      "суть": 6901,
      "неизвестные": 6902,
      "захвач": 6903,
      "исследований": 6904,
      "принимать": 6905,
      "следователей": 6906,
      "ежеднев": 6907,
      "женев": 6908,
      "роста": 6909,
      "адресу": 6910,
      "валюты": 6911,
      "бизнеса": 6912,
      "окончании": 6913,
      "австралий": 6914,
      "ошибка": 6915,
      "доставлены": 6916,
      "существующих": 6917,
      "выставке": 6918,
      "региона": 6919,
      "декабре": 6920,
      "нефтяных": 6921,
      "восстановления": 6922,
      "одномандат": 6923,
      "продажу": 6924,
      "задача": 6925,
      "тяжелое": 6926,
      "эвакуации": 6927,
      "строительства": 6928,
      "напряж": 6929,
      "предупред": 6930,
      "итоги": 6931,
      "итогам": 6932,
      "автобуса": 6933,
      "помещений": 6934,
      "прекращении": 6935,
      "ответственность": 6936,
      "врачей": 6937,
      "острова": 6938,
      "рестор": 6939,
      "рубежом": 6940,
      "эксперим": 6941,
      "отсутствия": 6942,
      "писатель": 6943,
      "наличие": 6944,
      "фирмой": 6945,
      "цифров": 6946,
      "телевидение": 6947,
      "участвовать": 6948,
      "страхования": 6949,
      "учреждения": 6950,
      "христиан": 6951,
      "саудов": 6952,
      "выпущ": 6953,
      "оказывать": 6954,
      "берегов": 6955,
      "разговора": 6956,
      "татарстан": 6957,
      "объекты": 6958,
      "четверо": 6959,
      "солдаты": 6960,
      "комбината": 6961,
      "расходов": 6962,
      "противоракет": 6963,
      "категорически": 6964,
      "норвеж": 6965,
      "приведет": 6966,
      "выявлено": 6967,
      "флориды": 6968,
      "отрицает": 6969,
      "патруш": 6970,
      "португ": 6971,
      "филип": 6972,
      "international": 6973,
      "нижней": 6974,
      "равно": 6975,
      "феврале": 6976,
      "памяти": 6977,
      "today": 6978,
      "третий": 6979,
      "возобновить": 6980,
      "многочисленные": 6981,
      "вернуться": 6982,
      "депортации": 6983,
      "транзак": 6984,
      "выкупа": 6985,
      "хозяйства": 6986,
      "референдума": 6987,
      "символ": 6988,
      "опубликовала": 6989,
      "покушение": 6990,
      "будущем": 6991,
      "авиакомпании": 6992,
      "гигант": 6993,
      "##cial": 6994,
      "страш": 6995,
      "пошлины": 6996,
      "добычи": 6997,
      "ботлих": 6998,
      "пилот": 6999,
      "хамас": 7000,
      "##biter": 7001,
      "благодаря": 7002,
      "похитили": 7003,
      "таиланд": 7004,
      "подключ": 7005,
      "москвичей": 7006,
      "судьбе": 7007,
      "концерна": 7008,
      "стихийного": 7009,
      "савельев": 7010,
      "orbiter": 7011,
      "букв": 7012,
      "впрочем": 7013,
      "направить": 7014,
      "##отнош": 7015,
      "##президента": 7016,
      "напоминает": 7017,
      "эдвардс": 7018,
      "немедленно": 7019,
      "##house": 7020,
      "finan": 7021,
      "знаменит": 7022,
      "алюмин": 7023,
      "нибудь": 7024,
      "хачила": 7025,
      "зависимости": 7026,
      "'<": 7027,
      "ag": 7028,
      "an": 7029,
      "br": 7030,
      "be": 7031,
      "bar": 7032,
      "ch": 7033,
      "mot": 7034,
      "we": 7035,
      "араб": 7036,
      "быть": 7037,
      "вг": 7038,
      "ван": 7039,
      "вин": 7040,
      "вак": 7041,
      "врез": 7042,
      "вруч": 7043,
      "где": 7044,
      "дат": 7045,
      "дар": 7046,
      "дух": 7047,
      "дисс": 7048,
      "деф": 7049,
      "еги": 7050,
      "елена": 7051,
      "иног": 7052,
      "кул": 7053,
      "куз": 7054,
      "киев": 7055,
      "лом": 7056,
      "лай": 7057,
      "мг": 7058,
      "меб": 7059,
      "мало": 7060,
      "млад": 7061,
      "нен": 7062,
      "они": 7063,
      "побл": 7064,
      "сез": 7065,
      "сила": 7066,
      "сино": 7067,
      "ти": 7068,
      "труп": 7069,
      "уяз": 7070,
      "ухуд": 7071,
      "фор": 7072,
      "чел": 7073,
      "шпион": 7074,
      "юге": 7075,
      "##вз": 7076,
      "##виенко": 7077,
      "##угород": 7078,
      "##дд": 7079,
      "##действ": 7080,
      "##лок": 7081,
      "##нах": 7082,
      "##нию": 7083,
      "##наком": 7084,
      "##кан": 7085,
      "##шт": 7086,
      "##оной": 7087,
      "##жи": 7088,
      "##жаков": 7089,
      "##йдет": 7090,
      "##зора": 7091,
      "##бил": 7092,
      "##был": 7093,
      "##hing": 7094,
      "##фин": 7095,
      "##фун": 7096,
      "##bm": 7097,
      "##tr": 7098,
      "##we": 7099,
      "##енка": 7100,
      "##овавших": 7101,
      "##ань": 7102,
      "##ерем": 7103,
      "проком": 7104,
      "празд": 7105,
      "##итов": 7106,
      "##алу": 7107,
      "##алог": 7108,
      "##олак": 7109,
      "##омин": 7110,
      "##инских": 7111,
      "##аре": 7112,
      "##авшим": 7113,
      "##ийской": 7114,
      "##има": 7115,
      "##имен": 7116,
      "##остоян": 7117,
      "обстр": 7118,
      "##окуп": 7119,
      "стив": 7120,
      "страж": 7121,
      "##иванию": 7122,
      "##ившись": 7123,
      "сож": 7124,
      "##иста": 7125,
      "##истами": 7126,
      "##истской": 7127,
      "##езж": 7128,
      "отверг": 7129,
      "отнес": 7130,
      "выб": 7131,
      "выех": 7132,
      "##альному": 7133,
      "##прек": 7134,
      "##егаз": 7135,
      "подж": 7136,
      "подает": 7137,
      "подня": 7138,
      "подлин": 7139,
      "##ольной": 7140,
      "##ываться": 7141,
      "сообщении": 7142,
      "сообщений": 7143,
      "полной": 7144,
      "кому": 7145,
      "##очные": 7146,
      "##очная": 7147,
      "##очеред": 7148,
      "##опер": 7149,
      "##опоряд": 7150,
      "##абат": 7151,
      "разобр": 7152,
      "разыск": 7153,
      "разрабат": 7154,
      "##осков": 7155,
      "минске": 7156,
      "##уле": 7157,
      "окрест": 7158,
      "этн": 7159,
      "этими": 7160,
      "правил": 7161,
      "правиль": 7162,
      "правопоряд": 7163,
      "##еше": 7164,
      "возм": 7165,
      "компанию": 7166,
      "российском": 7167,
      "российскую": 7168,
      "оправ": 7169,
      "оптим": 7170,
      "временного": 7171,
      "министру": 7172,
      "влож": 7173,
      "милош": 7174,
      "посет": 7175,
      "провока": 7176,
      "##ющим": 7177,
      "двуст": 7178,
      "данной": 7179,
      "продемон": 7180,
      "самое": 7181,
      "самостоятель": 7182,
      "интерпол": 7183,
      "##ратных": 7184,
      "##ажд": 7185,
      "связана": 7186,
      "короб": 7187,
      "коржаков": 7188,
      "##нием": 7189,
      "правительств": 7190,
      "правительстве": 7191,
      "расстр": 7192,
      "собрав": 7193,
      "собственных": 7194,
      "соболезн": 7195,
      "начат": 7196,
      "начались": 7197,
      "судов": 7198,
      "главная": 7199,
      "решений": 7200,
      "взрывных": 7201,
      "##даем": 7202,
      "##нейших": 7203,
      "##ексу": 7204,
      "утрен": 7205,
      "утверд": 7206,
      "доллар": 7207,
      "экв": 7208,
      "получает": 7209,
      "полученных": 7210,
      "##ort": 7211,
      "всероссий": 7212,
      "государство": 7213,
      "##нащ": 7214,
      "прессе": 7215,
      "действие": 7216,
      "частей": 7217,
      "частью": 7218,
      "##ающим": 7219,
      "##ающая": 7220,
      "вторжения": 7221,
      "летом": 7222,
      "федеральном": 7223,
      "последней": 7224,
      "акцию": 7225,
      "междугород": 7226,
      "гражданам": 7227,
      "сотрудник": 7228,
      "войне": 7229,
      "территори": 7230,
      "призван": 7231,
      "вопроса": 7232,
      "заммин": 7233,
      "группе": 7234,
      "мнение": 7235,
      "результатам": 7236,
      "политиков": 7237,
      "политика": 7238,
      "политическим": 7239,
      "подчеркивает": 7240,
      "ведения": 7241,
      "насилия": 7242,
      "основой": 7243,
      "основатель": 7244,
      "министерством": 7245,
      "убыт": 7246,
      "большей": 7247,
      "террористической": 7248,
      "восток": 7249,
      "передан": 7250,
      "передало": 7251,
      "остались": 7252,
      "станцию": 7253,
      "состоялось": 7254,
      "общество": 7255,
      "общественно": 7256,
      "реформ": 7257,
      "продолжаться": 7258,
      "попал": 7259,
      "планеты": 7260,
      "могил": 7261,
      "владимиру": 7262,
      "обнаружена": 7263,
      "преступлений": 7264,
      "обеспоко": 7265,
      "проектов": 7266,
      "обвинение": 7267,
      "обвинений": 7268,
      "официального": 7269,
      "задержания": 7270,
      "идент": 7271,
      "направления": 7272,
      "какой": 7273,
      "соответствует": 7274,
      "намерев": 7275,
      "намерении": 7276,
      "намерено": 7277,
      "поддерживает": 7278,
      "счету": 7279,
      "##нуты": 7280,
      "законам": 7281,
      "отношение": 7282,
      "отношений": 7283,
      "чеченские": 7284,
      "чеченцев": 7285,
      "берлина": 7286,
      "деят": 7287,
      "проверку": 7288,
      "##ens": 7289,
      "##ализации": 7290,
      "проведет": 7291,
      "партию": 7292,
      "расследовании": 7293,
      "смещ": 7294,
      "секретные": 7295,
      "вызыв": 7296,
      "готовность": 7297,
      "общий": 7298,
      "борьба": 7299,
      "огнем": 7300,
      "концерн": 7301,
      "милицию": 7302,
      "милицией": 7303,
      "исключил": 7304,
      "исключительно": 7305,
      "заявления": 7306,
      "налоговых": 7307,
      "думу": 7308,
      "матвиенко": 7309,
      "сетевой": 7310,
      "правоохранительными": 7311,
      "##ологов": 7312,
      "обязаны": 7313,
      "выдвиж": 7314,
      "предоставля": 7315,
      "предоставления": 7316,
      "случаи": 7317,
      "снар": 7318,
      "атлант": 7319,
      "были": 7320,
      "быстр": 7321,
      "быкова": 7322,
      "допуск": 7323,
      "вооружений": 7324,
      "специальные": 7325,
      "специальный": 7326,
      "соответствующее": 7327,
      "ряду": 7328,
      "журналистами": 7329,
      "подготовить": 7330,
      "подготовка": 7331,
      "командир": 7332,
      "гроб": 7333,
      "штате": 7334,
      "проводятся": 7335,
      "никакого": 7336,
      "происхожд": 7337,
      "компьютерные": 7338,
      "русских": 7339,
      "черкесской": 7340,
      "##ища": 7341,
      "опасных": 7342,
      "опасения": 7343,
      "космического": 7344,
      "тайб": 7345,
      "тайфун": 7346,
      "сберб": 7347,
      "подобная": 7348,
      "властями": 7349,
      "квартира": 7350,
      "оцеп": 7351,
      "операционной": 7352,
      "открытии": 7353,
      "контролю": 7354,
      "назначении": 7355,
      "флаг": 7356,
      "народов": 7357,
      "сотруднич": 7358,
      "таможенные": 7359,
      "семье": 7360,
      "семья": 7361,
      "пункты": 7362,
      "пункте": 7363,
      "присво": 7364,
      "волков": 7365,
      "информационных": 7366,
      "информационное": 7367,
      "пожара": 7368,
      "материал": 7369,
      "десяти": 7370,
      "знает": 7371,
      "ставки": 7372,
      "попытке": 7373,
      "потеряли": 7374,
      "потерпев": 7375,
      "распространение": 7376,
      "балла": 7377,
      "виктора": 7378,
      "мировых": 7379,
      "армия": 7380,
      "кредитных": 7381,
      "выделить": 7382,
      "уничтожено": 7383,
      "изменить": 7384,
      "коммерции": 7385,
      "законодательством": 7386,
      "беспокой": 7387,
      "китайского": 7388,
      "строя": 7389,
      "транспорте": 7390,
      "ракетно": 7391,
      "ракетных": 7392,
      "йорка": 7393,
      "антаркт": 7394,
      "звезд": 7395,
      "пытается": 7396,
      "пытались": 7397,
      "проходят": 7398,
      "недавних": 7399,
      "воздейств": 7400,
      "независимо": 7401,
      "выхода": 7402,
      "гарантии": 7403,
      "обращения": 7404,
      "внешней": 7405,
      "почему": 7406,
      "починок": 7407,
      "публикацию": 7408,
      "интересы": 7409,
      "интересов": 7410,
      "интересам": 7411,
      "характера": 7412,
      "находящийся": 7413,
      "мощных": 7414,
      "товар": 7415,
      "прямо": 7416,
      "выставки": 7417,
      "зарегистрированных": 7418,
      "просьбе": 7419,
      "отечества": 7420,
      "арханг": 7421,
      "ограничения": 7422,
      "эвакуированы": 7423,
      "показания": 7424,
      "вызвать": 7425,
      "вынужденных": 7426,
      "майк": 7427,
      "смогли": 7428,
      "строительство": 7429,
      "итоге": 7430,
      "рассматривается": 7431,
      "##чиком": 7432,
      "задержанных": 7433,
      "остановить": 7434,
      "убийства": 7435,
      "спутник": 7436,
      "взяты": 7437,
      "контрактов": 7438,
      "отсутствие": 7439,
      "испытаний": 7440,
      "преступлениями": 7441,
      "победу": 7442,
      "анатолия": 7443,
      "настоящему": 7444,
      "вдвое": 7445,
      "собственности": 7446,
      "начинается": 7447,
      "ноябре": 7448,
      "полагает": 7449,
      "столкнов": 7450,
      "столкновения": 7451,
      "демонстран": 7452,
      "ветра": 7453,
      "меньше": 7454,
      "преим": 7455,
      "интенс": 7456,
      "недостовер": 7457,
      "медицинской": 7458,
      "пакистане": 7459,
      "предотвращению": 7460,
      "изъяты": 7461,
      "хакеров": 7462,
      "##ecom": 7463,
      "оппозицион": 7464,
      "телевидению": 7465,
      "рассмотрения": 7466,
      "рассмотрение": 7467,
      "бензина": 7468,
      "мексике": 7469,
      "предлагает": 7470,
      "далеко": 7471,
      "платежи": 7472,
      "платежей": 7473,
      "супер": 7474,
      "реакция": 7475,
      "четверт": 7476,
      "георг": 7477,
      "гибдд": 7478,
      "размещения": 7479,
      "компенсации": 7480,
      "вводится": 7481,
      "сувер": 7482,
      "##deo": 7483,
      "комбинат": 7484,
      "совещания": 7485,
      "совещание": 7486,
      "расходы": 7487,
      "норвег": 7488,
      "эпиц": 7489,
      "перемены": 7490,
      "полицейские": 7491,
      "воздушных": 7492,
      "инициативе": 7493,
      "денежных": 7494,
      "приостановлено": 7495,
      "пентагон": 7496,
      "василь": 7497,
      "мусульман": 7498,
      "##ившийся": 7499,
      "убежден": 7500,
      "мосгорс": 7501,
      "февраля": 7502,
      "##официаль": 7503,
      "персонала": 7504,
      "возрасте": 7505,
      "сказать": 7506,
      "исполнительной": 7507,
      "азербайджана": 7508,
      "другое": 7509,
      "фрон": 7510,
      "##центр": 7511,
      "захватили": 7512,
      "батурина": 7513,
      "кризиса": 7514,
      "отказываются": 7515,
      "сергеев": 7516,
      "побережья": 7517,
      "ежегодно": 7518,
      "гейтс": 7519,
      "жалоб": 7520,
      "арбитражного": 7521,
      "килограммов": 7522,
      "югославии": 7523,
      "яблоко": 7524,
      "появление": 7525,
      "содействие": 7526,
      "госпитализированы": 7527,
      "лагеря": 7528,
      "чиновников": 7529,
      "обстоятельств": 7530,
      "кнр": 7531,
      "##герран": 7532,
      "##сятся": 7533,
      "национальности": 7534,
      "механизм": 7535,
      "фракции": 7536,
      "налогоплатель": 7537,
      "урегулирования": 7538,
      "мазута": 7539,
      "боеприпасов": 7540,
      "telecom": 7541,
      "козлен": 7542,
      "задорнов": 7543,
      "объявили": 7544,
      "абдул": 7545,
      "гостелеком": 7546,
      "антитеррорист": 7547,
      "парамет": 7548,
      "сапг": 7549,
      "структура": 7550,
      "индустрии": 7551,
      "приштине": 7552,
      "video": 7553,
      "традицион": 7554,
      "уфсб": 7555,
      "позвон": 7556,
      "девяти": 7557,
      "эдуард": 7558,
      "boe": 7559,
      "довольно": 7560,
      "зеланд": 7561,
      "ленинград": 7562,
      "преодол": 7563,
      "./$<": 7564,
      "байкон": 7565,
      "гексог": 7566,
      "калининград": 7567,
      "мятеж": 7568,
      "уильям": 7569,
      "протяжении": 7570,
      "крюгерран": 7571,
      "диагноз": 7572,
      "противоракетной": 7573,
      "financial": 7574,
      "иногород": 7575,
      "синопт": 7576,
      "уязв": 7577,
      "ухудш": 7578,
      "прокоммент": 7579,
      "правопорядка": 7580,
      "двусторон": 7581,
      "продемонстр": 7582,
      "замминистра": 7583,
      "архангель": 7584,
      "clim": 7585,
      "en": 7586,
      "g4": 7587,
      "gar": 7588,
      "gold": 7589,
      "im": 7590,
      "lin": 7591,
      "national": 7592,
      "via": 7593,
      "wal": 7594,
      "бок": 7595,
      "бег": 7596,
      "баг": 7597,
      "ваг": 7598,
      "веб": 7599,
      "витр": 7600,
      "ввести": 7601,
      "га": 7602,
      "грамм": 7603,
      "ду": 7604,
      "дэ": 7605,
      "дест": 7606,
      "диверс": 7607,
      "илю": 7608,
      "кп": 7609,
      "кст": 7610,
      "кин": 7611,
      "киз": 7612,
      "кого": 7613,
      "кибер": 7614,
      "лож": 7615,
      "мм": 7616,
      "моз": 7617,
      "манд": 7618,
      "море": 7619,
      "мюн": 7620,
      "мемор": 7621,
      "нель": 7622,
      "неч": 7623,
      "нул": 7624,
      "невер": 7625,
      "ниже": 7626,
      "оформ": 7627,
      "пик": 7628,
      "пуш": 7629,
      "пуск": 7630,
      "резид": 7631,
      "роли": 7632,
      "сесс": 7633,
      "тес": 7634,
      "татья": 7635,
      "удел": 7636,
      "фил": 7637,
      "факс": 7638,
      "хар": 7639,
      "хель": 7640,
      "цы": 7641,
      "цеп": 7642,
      "чеш": 7643,
      "чести": 7644,
      "яс": 7645,
      "яр": 7646,
      "##че": 7647,
      "##челов": 7648,
      "##чики": 7649,
      "##ву": 7650,
      "##варт": 7651,
      "##уков": 7652,
      "##щем": 7653,
      "##иат": 7654,
      "##хин": 7655,
      "##хоз": 7656,
      "##дут": 7657,
      "##лас": 7658,
      "##лев": 7659,
      "##луш": 7660,
      "##ниче": 7661,
      "##рон": 7662,
      "##рег": 7663,
      "##пат": 7664,
      "##ьев": 7665,
      "##ьми": 7666,
      "##гар": 7667,
      "##оц": 7668,
      "##оин": 7669,
      "##оход": 7670,
      "##оопас": 7671,
      "##определ": 7672,
      "##ооке": 7673,
      "##яя": 7674,
      "##бол": 7675,
      "##берг": 7676,
      "##цу": 7677,
      "##цб": 7678,
      "##цать": 7679,
      "##ip": 7680,
      "##филь": 7681,
      "##ag": 7682,
      "##lan": 7683,
      "##ts": 7684,
      "##tar": 7685,
      "##ple": 7686,
      "##san": 7687,
      "##овета": 7688,
      "##ноком": 7689,
      "прус": 7690,
      "прино": 7691,
      "простран": 7692,
      "##орском": 7693,
      "##елля": 7694,
      "##итект": 7695,
      "##алом": 7696,
      "##алеку": 7697,
      "##оля": 7698,
      "##олет": 7699,
      "##еди": 7700,
      "##едент": 7701,
      "##осм": 7702,
      "##сящ": 7703,
      "##ава": 7704,
      "##авшими": 7705,
      "##икавказ": 7706,
      "##обод": 7707,
      "##акарт": 7708,
      "##ийского": 7709,
      "##асштаб": 7710,
      "##имым": 7711,
      "обз": 7712,
      "##еке": 7713,
      "##екунд": 7714,
      "##енте": 7715,
      "ста": 7716,
      "стен": 7717,
      "стек": 7718,
      "стамб": 7719,
      "стабиль": 7720,
      "##ившая": 7721,
      "наг": 7722,
      "##адеш": 7723,
      "отраж": 7724,
      "отсл": 7725,
      "отлич": 7726,
      "вырос": 7727,
      "##альского": 7728,
      "##ога": 7729,
      "##ностях": 7730,
      "##озащит": 7731,
      "подать": 7732,
      "подним": 7733,
      "подорож": 7734,
      "##нике": 7735,
      "инк": 7736,
      "сообщалось": 7737,
      "полу": 7738,
      "полуд": 7739,
      "компром": 7740,
      "коммуника": 7741,
      "коммуник": 7742,
      "##айс": 7743,
      "разбор": 7744,
      "разобл": 7745,
      "извин": 7746,
      "изъя": 7747,
      "новостей": 7748,
      "новолак": 7749,
      "##аге": 7750,
      "##аганд": 7751,
      "неуд": 7752,
      "правда": 7753,
      "правозащит": 7754,
      "долги": 7755,
      "##ленными": 7756,
      "##ственную": 7757,
      "##редоточ": 7758,
      "ослож": 7759,
      "компет": 7760,
      "закрыв": 7761,
      "##мерческ": 7762,
      "орбит": 7763,
      "##гло": 7764,
      "##усь": 7765,
      "##циях": 7766,
      "##анова": 7767,
      "##лян": 7768,
      "##ляется": 7769,
      "##аниягу": 7770,
      "совокуп": 7771,
      "посты": 7772,
      "##еждународ": 7773,
      "продав": 7774,
      "самм": 7775,
      "##роуз": 7776,
      "президентских": 7777,
      "пооб": 7778,
      "поезда": 7779,
      "объектив": 7780,
      "##полн": 7781,
      "##арова": 7782,
      "странами": 7783,
      "покол": 7784,
      "показыв": 7785,
      "покину": 7786,
      "центров": 7787,
      "правительственной": 7788,
      "собир": 7789,
      "начало": 7790,
      "началось": 7791,
      "сереб": 7792,
      "решил": 7793,
      "решила": 7794,
      "взрыву": 7795,
      "взрыве": 7796,
      "взрывом": 7797,
      "испан": 7798,
      "городке": 7799,
      "##екса": 7800,
      "алт": 7801,
      "платы": 7802,
      "генштаб": 7803,
      "домах": 7804,
      "домаш": 7805,
      "##иканского": 7806,
      "##онова": 7807,
      "америки": 7808,
      "америка": 7809,
      "силовых": 7810,
      "##ующими": 7811,
      "пресса": 7812,
      "украд": 7813,
      "заплат": 7814,
      "летняя": 7815,
      "составили": 7816,
      "военная": 7817,
      "федеральная": 7818,
      "последов": 7819,
      "терроризма": 7820,
      "организацию": 7821,
      "организацией": 7822,
      "организаторы": 7823,
      "следственных": 7824,
      "следующим": 7825,
      "безуслов": 7826,
      "##ошенных": 7827,
      "гражданина": 7828,
      "потому": 7829,
      "##инге": 7830,
      "международную": 7831,
      "прогул": 7832,
      "считается": 7833,
      "замеч": 7834,
      "стороне": 7835,
      "боевиками": 7836,
      "группу": 7837,
      "примет": 7838,
      "столицу": 7839,
      "офиса": 7840,
      "никого": 7841,
      "черно": 7842,
      "проблемам": 7843,
      "ведут": 7844,
      "прошло": 7845,
      "##мотрен": 7846,
      "террористам": 7847,
      "использованы": 7848,
      "беллаз": 7849,
      "##ионной": 7850,
      "понять": 7851,
      "реорган": 7852,
      "необходимое": 7853,
      "необходимым": 7854,
      "##ифест": 7855,
      "продолжается": 7856,
      "государственным": 7857,
      "севере": 7858,
      "северного": 7859,
      "попад": 7860,
      "планы": 7861,
      "мэром": 7862,
      "ответил": 7863,
      "акты": 7864,
      "##ецедент": 7865,
      "преступники": 7866,
      "обвинению": 7867,
      "официальное": 7868,
      "срочно": 7869,
      "утверждения": 7870,
      "заниж": 7871,
      "идти": 7872,
      "ельцину": 7873,
      "готова": 7874,
      "какую": 7875,
      "##ice": 7876,
      "высоте": 7877,
      "##нутся": 7878,
      "приглаш": 7879,
      "джон": 7880,
      "видом": 7881,
      "установить": 7882,
      "установили": 7883,
      "установлено": 7884,
      "##ащим": 7885,
      "квад": 7886,
      "выступить": 7887,
      "проведенного": 7888,
      "месяцы": 7889,
      "достоин": 7890,
      "смес": 7891,
      "общины": 7892,
      "западном": 7893,
      "очист": 7894,
      "экономического": 7895,
      "затоп": 7896,
      "заявлением": 7897,
      "матер": 7898,
      "беженцы": 7899,
      "выдвиг": 7900,
      "директором": 7901,
      "объединений": 7902,
      "атаки": 7903,
      "иностранным": 7904,
      "иностранные": 7905,
      "оружием": 7906,
      "путину": 7907,
      "медик": 7908,
      "вооружения": 7909,
      "принятие": 7910,
      "специальным": 7911,
      "допрос": 7912,
      "реке": 7913,
      "специализ": 7914,
      "григор": 7915,
      "положении": 7916,
      "восприн": 7917,
      "воспольз": 7918,
      "раунд": 7919,
      "увеличение": 7920,
      "увеличивается": 7921,
      "заключенных": 7922,
      "лондона": 7923,
      "членам": 7924,
      "членами": 7925,
      "черкесске": 7926,
      "черкесска": 7927,
      "массового": 7928,
      "опасность": 7929,
      "лидеры": 7930,
      "уголовной": 7931,
      "михал": 7932,
      "таймер": 7933,
      "комитете": 7934,
      "##правительства": 7935,
      "целост": 7936,
      "сбои": 7937,
      "усиленный": 7938,
      "серьезных": 7939,
      "особое": 7940,
      "дальнего": 7941,
      "осуществлять": 7942,
      "операцию": 7943,
      "активное": 7944,
      "открытое": 7945,
      "арестованы": 7946,
      "указом": 7947,
      "контролем": 7948,
      "заниматься": 7949,
      "электрич": 7950,
      "пользу": 7951,
      "европейский": 7952,
      "любом": 7953,
      "крупнейшая": 7954,
      "авиалин": 7955,
      "освобождены": 7956,
      "митро": 7957,
      "митроф": 7958,
      "##ойдут": 7959,
      "выплате": 7960,
      "канала": 7961,
      "конфид": 7962,
      "информационные": 7963,
      "белорусской": 7964,
      "единства": 7965,
      "афин": 7966,
      "введения": 7967,
      "кофи": 7968,
      "нетаниягу": 7969,
      "формирования": 7970,
      "оперативного": 7971,
      "плохо": 7972,
      "подразделениями": 7973,
      "нынешний": 7974,
      "обратиться": 7975,
      "обратились": 7976,
      "развитию": 7977,
      "доходы": 7978,
      "дианы": 7979,
      "пришло": 7980,
      "уничтожение": 7981,
      "машину": 7982,
      "беспоко": 7983,
      "отделении": 7984,
      "жертвам": 7985,
      "стрель": 7986,
      "незаконно": 7987,
      "незаконных": 7988,
      "незаконным": 7989,
      "давление": 7990,
      "животных": 7991,
      "уровня": 7992,
      "угрозу": 7993,
      "десятилет": 7994,
      "звук": 7995,
      "различные": 7996,
      "обсуждение": 7997,
      "исчис": 7998,
      "событиями": 7999,
      "апелля": 8000,
      "охрана": 8001,
      "следователь": 8002,
      "выполнять": 8003,
      "наблюдатели": 8004,
      "факты": 8005,
      "разрешение": 8006,
      "чрезвычайное": 8007,
      "ростов": 8008,
      "холеры": 8009,
      "объявлены": 8010,
      "обращение": 8011,
      "внешне": 8012,
      "внешнего": 8013,
      "устройств": 8014,
      "высказ": 8015,
      "##ющихся": 8016,
      "отставки": 8017,
      "бюджетного": 8018,
      "##tions": 8019,
      "контрольно": 8020,
      "дмитрия": 8021,
      "успех": 8022,
      "пригранич": 8023,
      "мэрии": 8024,
      "пенсии": 8025,
      "##ялись": 8026,
      "манифест": 8027,
      "мужчин": 8028,
      "аварий": 8029,
      "принадлежащ": 8030,
      "задачей": 8031,
      "архитект": 8032,
      "сейсм": 8033,
      "демократии": 8034,
      "строительстве": 8035,
      "переработ": 8036,
      "округу": 8037,
      "областной": 8038,
      "применения": 8039,
      "communic": 8040,
      "лучшее": 8041,
      "пропаганд": 8042,
      "продуктов": 8043,
      "масхадовым": 8044,
      "наступлением": 8045,
      "всеобщ": 8046,
      "убийство": 8047,
      "дополнительных": 8048,
      "ущерба": 8049,
      "махаш": 8050,
      "теор": 8051,
      "третьем": 8052,
      "исламских": 8053,
      "исламистов": 8054,
      "ведущие": 8055,
      "губернатором": 8056,
      "дальнейшем": 8057,
      "предприниматель": 8058,
      "палестинцев": 8059,
      "вдоль": 8060,
      "письме": 8061,
      "половиной": 8062,
      "заболеваний": 8063,
      "выяснить": 8064,
      "дороги": 8065,
      "павла": 8066,
      "павиль": 8067,
      "найдены": 8068,
      "церк": 8069,
      "преем": 8070,
      "законопроекта": 8071,
      "предотвращения": 8072,
      "телевидения": 8073,
      "поручено": 8074,
      "аппарата": 8075,
      "узбек": 8076,
      "берегу": 8077,
      "предупреждение": 8078,
      "послуж": 8079,
      "запрещении": 8080,
      "дочь": 8081,
      "йоркской": 8082,
      "подземных": 8083,
      "южноафр": 8084,
      "категории": 8085,
      "полномочия": 8086,
      "широк": 8087,
      "отряды": 8088,
      "имуществе": 8089,
      "осуществляется": 8090,
      "операциях": 8091,
      "вовл": 8092,
      "сорат": 8093,
      "обстановки": 8094,
      "обстановка": 8095,
      "ученых": 8096,
      "надеются": 8097,
      "кубических": 8098,
      "наказание": 8099,
      "вокзале": 8100,
      "скандалом": 8101,
      "гуманитарной": 8102,
      "гуманитарного": 8103,
      "исполнительный": 8104,
      "родственников": 8105,
      "океан": 8106,
      "очевидно": 8107,
      "калюж": 8108,
      "мигра": 8109,
      "подсчет": 8110,
      "наводнение": 8111,
      "слушаниях": 8112,
      "хорошо": 8113,
      "пленар": 8114,
      "ресурсов": 8115,
      "явлинский": 8116,
      "слияние": 8117,
      "##абилизации": 8118,
      "атомной": 8119,
      "таджикистана": 8120,
      "севаст": 8121,
      "тихооке": 8122,
      "именем": 8123,
      "валентин": 8124,
      "карточки": 8125,
      "торже": 8126,
      "беседе": 8127,
      "консультации": 8128,
      "предъявлено": 8129,
      "приходится": 8130,
      "повысить": 8131,
      "дисци": 8132,
      "опрошенных": 8133,
      "предвыборной": 8134,
      "изолят": 8135,
      "декларации": 8136,
      "беспрецедент": 8137,
      "супруга": 8138,
      "iii": 8139,
      "sunday": 8140,
      "бюро": 8141,
      "лихорад": 8142,
      "возросла": 8143,
      "погашения": 8144,
      "неподалеку": 8145,
      "леонид": 8146,
      "собинбанка": 8147,
      "резолюции": 8148,
      "агрессии": 8149,
      "перевозок": 8150,
      "хасавюртов": 8151,
      "apple": 8152,
      "##федераль": 8153,
      "сопротивления": 8154,
      "прогремел": 8155,
      "джеймс": 8156,
      "противоречит": 8157,
      "расценив": 8158,
      "ikea": 8159,
      "хватает": 8160,
      "неполад": 8161,
      "участием": 8162,
      "болезнь": 8163,
      "colt": 8164,
      "world": 8165,
      "уменьш": 8166,
      "перестрел": 8167,
      "полутора": 8168,
      "ботлихском": 8169,
      "буквально": 8170,
      "алюминиев": 8171,
      "beers": 8172,
      "motor": 8173,
      "web": 8174,
      "диссид": 8175,
      "эпицентр": 8176,
      "boeing": 8177,
      "прокомментировал": 8178,
      "climate": 8179,
      "linux": 8180,
      "viacom": 8181,
      "кизля": 8182,
      "нельзя": 8183,
      "##нокоманд": 8184,
      "отслеж": 8185,
      "разоблач": 8186,
      "покинули": 8187,
      "беллази": 8188,
      ",<": 8189,
      "at": 8190,
      "bel": 8191,
      "dr": 8192,
      "fran": 8193,
      "it": 8194,
      "ibm": 8195,
      "tr": 8196,
      "uni": 8197,
      "whi": 8198,
      "аш": 8199,
      "арав": 8200,
      "бесс": 8201,
      "буль": 8202,
      "воль": 8203,
      "виб": 8204,
      "виль": 8205,
      "вуз": 8206,
      "вправ": 8207,
      "въезд": 8208,
      "века": 8209,
      "вайн": 8210,
      "гал": 8211,
      "деб": 8212,
      "даты": 8213,
      "добр": 8214,
      "ех": 8215,
      "зону": 8216,
      "ил": 8217,
      "ки": 8218,
      "ключ": 8219,
      "кто": 8220,
      "ло": 8221,
      "лен": 8222,
      "лек": 8223,
      "лог": 8224,
      "леж": 8225,
      "ми": 8226,
      "мег": 8227,
      "ощ": 8228,
      "опроса": 8229,
      "пап": 8230,
      "рб": 8231,
      "рем": 8232,
      "ртр": 8233,
      "се": 8234,
      "сара": 8235,
      "снач": 8236,
      "сработ": 8237,
      "сенс": 8238,
      "сыр": 8239,
      "сцен": 8240,
      "спроса": 8241,
      "троп": 8242,
      "тверд": 8243,
      "ум": 8244,
      "фк": 8245,
      "фан": 8246,
      "хав": 8247,
      "хир": 8248,
      "чьи": 8249,
      "шла": 8250,
      "шинд": 8251,
      "шоу": 8252,
      "юг": 8253,
      "##ча": 8254,
      "##част": 8255,
      "##аже": 8256,
      "##сиан": 8257,
      "##юс": 8258,
      "##дс": 8259,
      "##дон": 8260,
      "##дог": 8261,
      "##лер": 8262,
      "##ницы": 8263,
      "##нестр": 8264,
      "##ресс": 8265,
      "##россий": 8266,
      "##пов": 8267,
      "##пет": 8268,
      "##пост": 8269,
      "##поль": 8270,
      "##панию": 8271,
      "##гн": 8272,
      "##газ": 8273,
      "##москов": 8274,
      "##эйн": 8275,
      "##зам": 8276,
      "##зании": 8277,
      "##бул": 8278,
      "##цат": 8279,
      "##цина": 8280,
      "##uj": 8281,
      "##utions": 8282,
      "##au": 8283,
      "##am": 8284,
      "##blic": 8285,
      "##ris": 8286,
      "##tan": 8287,
      "##tner": 8288,
      "##yn": 8289,
      "##fin": 8290,
      "##00": 8291,
      "##енция": 8292,
      "##анс": 8293,
      "##аним": 8294,
      "##ерер": 8295,
      "##ерки": 8296,
      "прок": 8297,
      "пруд": 8298,
      "пройти": 8299,
      "##орел": 8300,
      "##ораз": 8301,
      "##орского": 8302,
      "##елец": 8303,
      "##оде": 8304,
      "##один": 8305,
      "##алл": 8306,
      "##олож": 8307,
      "##олец": 8308,
      "##енил": 8309,
      "##илакт": 8310,
      "##онстр": 8311,
      "##осп": 8312,
      "##арб": 8313,
      "##арной": 8314,
      "##отой": 8315,
      "##отран": 8316,
      "##авшей": 8317,
      "##икоснов": 8318,
      "##ейн": 8319,
      "##ийских": 8320,
      "##ийский": 8321,
      "##имые": 8322,
      "##имоно": 8323,
      "##имостью": 8324,
      "##елье": 8325,
      "##ельных": 8326,
      "##остр": 8327,
      "##ирующих": 8328,
      "##ирующие": 8329,
      "##ирующей": 8330,
      "обо": 8331,
      "обуч": 8332,
      "##еврем": 8333,
      "##евые": 8334,
      "станов": 8335,
      "##ившей": 8336,
      "##ившейся": 8337,
      "##ившееся": 8338,
      "##ившуюся": 8339,
      "сооруж": 8340,
      "##есь": 8341,
      "##иеся": 8342,
      "##истам": 8343,
      "наша": 8344,
      "набр": 8345,
      "нашим": 8346,
      "##ичный": 8347,
      "##рукции": 8348,
      "отре": 8349,
      "отец": 8350,
      "отправил": 8351,
      "отрас": 8352,
      "выж": 8353,
      "выдан": 8354,
      "выстрел": 8355,
      "выгляд": 8356,
      "##циско": 8357,
      "##пресс": 8358,
      "предше": 8359,
      "##идзе": 8360,
      "##ожет": 8361,
      "##ожения": 8362,
      "подв": 8363,
      "подал": 8364,
      "подряд": 8365,
      "подмосков": 8366,
      "##удр": 8367,
      "##ывая": 8368,
      "##асть": 8369,
      "##ованным": 8370,
      "##ованном": 8371,
      "прох": 8372,
      "проиг": 8373,
      "пропис": 8374,
      "перевер": 8375,
      "##очном": 8376,
      "которыми": 8377,
      "разглаш": 8378,
      "минск": 8379,
      "новым": 8380,
      "окон": 8381,
      "окра": 8382,
      "оклен": 8383,
      "окаж": 8384,
      "##уми": 8385,
      "него": 8386,
      "неот": 8387,
      "спорт": 8388,
      "спекул": 8389,
      "##управления": 8390,
      "долго": 8391,
      "##ленной": 8392,
      "##ряда": 8393,
      "##учи": 8394,
      "##участ": 8395,
      "##ачев": 8396,
      "##ителю": 8397,
      "осведом": 8398,
      "оснащ": 8399,
      "##алиции": 8400,
      "возмещ": 8401,
      "российскому": 8402,
      "оптов": 8403,
      "##мигра": 8404,
      "сколько": 8405,
      "##глись": 8406,
      "##гладеш": 8407,
      "##ционный": 8408,
      "##епут": 8409,
      "##еперер": 8410,
      "влият": 8411,
      "провел": 8412,
      "провела": 8413,
      "террора": 8414,
      "горю": 8415,
      "горы": 8416,
      "горазд": 8417,
      "имена": 8418,
      "учит": 8419,
      "учета": 8420,
      "двой": 8421,
      "постеп": 8422,
      "счаст": 8423,
      "##полном": 8424,
      "странам": 8425,
      "собак": 8426,
      "протокол": 8427,
      "главных": 8428,
      "главнокоманд": 8429,
      "##ортов": 8430,
      "работали": 8431,
      "взрывоопас": 8432,
      "первонач": 8433,
      "арб": 8434,
      "городских": 8435,
      "откро": 8436,
      "телев": 8437,
      "планов": 8438,
      "домой": 8439,
      "произойдет": 8440,
      "поможет": 8441,
      "вердик": 8442,
      "задейств": 8443,
      "получит": 8444,
      "получила": 8445,
      "полученные": 8446,
      "находилось": 8447,
      "агро": 8448,
      "повл": 8449,
      "повед": 8450,
      "##шийся": 8451,
      "действует": 8452,
      "уклон": 8453,
      "запис": 8454,
      "запущ": 8455,
      "записи": 8456,
      "##ающую": 8457,
      "##and": 8458,
      "сентябрь": 8459,
      "##рополит": 8460,
      "другом": 8461,
      "последняя": 8462,
      "следующем": 8463,
      "##ошен": 8464,
      "потряс": 8465,
      "регистрация": 8466,
      "регуляр": 8467,
      "##план": 8468,
      "созн": 8469,
      "прогресс": 8470,
      "депоз": 8471,
      "призв": 8472,
      "призем": 8473,
      "призывает": 8474,
      "бриф": 8475,
      "##ациям": 8476,
      "##ведлив": 8477,
      "замен": 8478,
      "путеше": 8479,
      "октябрь": 8480,
      "политический": 8481,
      "центральных": 8482,
      "возможного": 8483,
      "офф": 8484,
      "мерах": 8485,
      "мерсед": 8486,
      "республик": 8487,
      "##рытия": 8488,
      "черного": 8489,
      "##ущих": 8490,
      "финансовую": 8491,
      "позиция": 8492,
      "оборот": 8493,
      "большим": 8494,
      "большого": 8495,
      "террориста": 8496,
      "использов": 8497,
      "использованием": 8498,
      "используются": 8499,
      "##ичего": 8500,
      "ссылаясь": 8501,
      "передано": 8502,
      "деньг": 8503,
      "экспортер": 8504,
      "белый": 8505,
      "##ионных": 8506,
      "состоянию": 8507,
      "парализ": 8508,
      "пониж": 8509,
      "государственные": 8510,
      "крае": 8511,
      "краевой": 8512,
      "##онок": 8513,
      "планах": 8514,
      "планиров": 8515,
      "лицами": 8516,
      "причина": 8517,
      "ответа": 8518,
      "акта": 8519,
      "ситуацией": 8520,
      "уваж": 8521,
      "депутата": 8522,
      "известного": 8523,
      "часы": 8524,
      "преступных": 8525,
      "преступности": 8526,
      "##tehouse": 8527,
      "дагестанской": 8528,
      "онл": 8529,
      "автомаш": 8530,
      "официальном": 8531,
      "утверждается": 8532,
      "восточно": 8533,
      "подписей": 8534,
      "задержали": 8535,
      "идея": 8536,
      "метрополит": 8537,
      "высшего": 8538,
      "джакарт": 8539,
      "чеченского": 8540,
      "чеченским": 8541,
      "представительства": 8542,
      "выступлении": 8543,
      "кандидатом": 8544,
      "месяце": 8545,
      "достовер": 8546,
      "готовится": 8547,
      "добиться": 8548,
      "курорт": 8549,
      "огнестр": 8550,
      "экономическими": 8551,
      "движением": 8552,
      "налоги": 8553,
      "земле": 8554,
      "обязательно": 8555,
      "требованием": 8556,
      "требований": 8557,
      "выдвор": 8558,
      "советского": 8559,
      "франк": 8560,
      "франциско": 8561,
      "британского": 8562,
      "британская": 8563,
      "прошлым": 8564,
      "демонстр": 8565,
      "госдуму": 8566,
      "обсе": 8567,
      "развяз": 8568,
      "специальная": 8569,
      "реки": 8570,
      "командования": 8571,
      "проводились": 8572,
      "##валась": 8573,
      "##банк": 8574,
      "##банков": 8575,
      "никакой": 8576,
      "увеличилась": 8577,
      "происшед": 8578,
      "заключил": 8579,
      "##omb": 8580,
      "санкции": 8581,
      "сайтов": 8582,
      "очередного": 8583,
      "автомобили": 8584,
      "переговорах": 8585,
      "сбс": 8586,
      "усилий": 8587,
      "похорон": 8588,
      "серьезной": 8589,
      "особого": 8590,
      "забр": 8591,
      "осуществляться": 8592,
      "банковские": 8593,
      "голоса": 8594,
      "констат": 8595,
      "константин": 8596,
      "открытый": 8597,
      "японской": 8598,
      "скорой": 8599,
      "поставок": 8600,
      "назначен": 8601,
      "назначению": 8602,
      "парламентских": 8603,
      "электрос": 8604,
      "электростан": 8605,
      "выясня": 8606,
      "крупнейшей": 8607,
      "крупнейшее": 8608,
      "##процесс": 8609,
      "авиак": 8610,
      "торгового": 8611,
      "освобождении": 8612,
      "содержание": 8613,
      "содержащих": 8614,
      "семьям": 8615,
      "разработке": 8616,
      "клинтоном": 8617,
      "пункта": 8618,
      "каждом": 8619,
      "волош": 8620,
      "канад": 8621,
      "информационного": 8622,
      "швейцарских": 8623,
      "оказался": 8624,
      "индонезия": 8625,
      "единиц": 8626,
      "единственным": 8627,
      "афинах": 8628,
      "введено": 8629,
      "знаком": 8630,
      "ядерной": 8631,
      "набереж": 8632,
      "попытку": 8633,
      "оперативной": 8634,
      "плох": 8635,
      "потеря": 8636,
      "распространения": 8637,
      "определенные": 8638,
      "тюмен": 8639,
      "обратилась": 8640,
      "объемом": 8641,
      "армей": 8642,
      "энерго": 8643,
      "морских": 8644,
      "разрушены": 8645,
      "отделение": 8646,
      "азиат": 8647,
      "постановлением": 8648,
      "потребовали": 8649,
      "потребуется": 8650,
      "транспортиров": 8651,
      "незаконное": 8652,
      "давлением": 8653,
      "магистр": 8654,
      "антимоно": 8655,
      "более": 8656,
      "личности": 8657,
      "употреб": 8658,
      "проходить": 8659,
      "совместной": 8660,
      "миротворцы": 8661,
      "сахара": 8662,
      "депутатской": 8663,
      "великобритания": 8664,
      "расположенных": 8665,
      "профилакт": 8666,
      "оказана": 8667,
      "ведомство": 8668,
      "подтвердили": 8669,
      "наблюдения": 8670,
      "ежен": 8671,
      "жилом": 8672,
      "сосредоточ": 8673,
      "выходить": 8674,
      "возглавля": 8675,
      "холод": 8676,
      "предпринят": 8677,
      "возврат": 8678,
      "адвокаты": 8679,
      "адвокатов": 8680,
      "адвоката": 8681,
      "лондонская": 8682,
      "ознаком": 8683,
      "обращении": 8684,
      "внешним": 8685,
      "автомобиля": 8686,
      "степень": 8687,
      "окончания": 8688,
      "основания": 8689,
      "основанием": 8690,
      "кавказа": 8691,
      "солана": 8692,
      "##стоун": 8693,
      "старший": 8694,
      "свидетелей": 8695,
      "mac": 8696,
      "легков": 8697,
      "поиски": 8698,
      "регионы": 8699,
      "зарегистрировано": 8700,
      "манилов": 8701,
      "принадлежат": 8702,
      "грозном": 8703,
      "просьба": 8704,
      "ограничений": 8705,
      "тяжелой": 8706,
      "подозреваются": 8707,
      "майора": 8708,
      "##близи": 8709,
      "возвращения": 8710,
      "девять": 8711,
      "##ариев": 8712,
      "областях": 8713,
      "коммерческий": 8714,
      "сектантов": 8715,
      "помещении": 8716,
      "зарубежные": 8717,
      "нанесен": 8718,
      "нанесены": 8719,
      "оценке": 8720,
      "электронных": 8721,
      "прекращения": 8722,
      "масхадова": 8723,
      "судебных": 8724,
      "судебного": 8725,
      "судебный": 8726,
      "финансирование": 8727,
      "николая": 8728,
      "спутники": 8729,
      "носит": 8730,
      "авиация": 8731,
      "версий": 8732,
      "загорел": 8733,
      "авторы": 8734,
      "дальнейшее": 8735,
      "обычно": 8736,
      "обычного": 8737,
      "половины": 8738,
      "отказались": 8739,
      "вероятность": 8740,
      "заводе": 8741,
      "технической": 8742,
      "нападение": 8743,
      "пояснили": 8744,
      "дороге": 8745,
      "золото": 8746,
      "пиночет": 8747,
      "выключ": 8748,
      "покупки": 8749,
      "найден": 8750,
      "экстремистов": 8751,
      "французских": 8752,
      "редстоун": 8753,
      "##амбле": 8754,
      "интел": 8755,
      "причинам": 8756,
      "причастность": 8757,
      "панику": 8758,
      "сборам": 8759,
      "хакеры": 8760,
      "цифру": 8761,
      "резервов": 8762,
      "##ающийся": 8763,
      "поручил": 8764,
      "присутствие": 8765,
      "участвовали": 8766,
      "предлагается": 8767,
      "драго": 8768,
      "драка": 8769,
      "лейбор": 8770,
      "неприкоснов": 8771,
      "поездов": 8772,
      "поездки": 8773,
      "соединенных": 8774,
      "внесении": 8775,
      "близлеж": 8776,
      "индонезийской": 8777,
      "марта": 8778,
      "продукцию": 8779,
      "немецкой": 8780,
      "молодеж": 8781,
      "молодые": 8782,
      "подземные": 8783,
      "ассамбле": 8784,
      "сигар": 8785,
      "инфек": 8786,
      "разбился": 8787,
      "совещании": 8788,
      "прошедших": 8789,
      "запретить": 8790,
      "талибы": 8791,
      "талибов": 8792,
      "талибан": 8793,
      "отрядов": 8794,
      "вышед": 8795,
      "перемещ": 8796,
      "полицейских": 8797,
      "больниц": 8798,
      "радиоактив": 8799,
      "толчки": 8800,
      "сокращение": 8801,
      "вовсе": 8802,
      "##иллиона": 8803,
      "обыски": 8804,
      "пределами": 8805,
      "соблюдать": 8806,
      "телерадиовещ": 8807,
      "вызвано": 8808,
      "выплатить": 8809,
      "нефтепродукты": 8810,
      "василий": 8811,
      "можем": 8812,
      "мусатов": 8813,
      "повреждений": 8814,
      "наказания": 8815,
      "вокзала": 8816,
      "тепл": 8817,
      "теперь": 8818,
      "##трк": 8819,
      "претенз": 8820,
      "установленного": 8821,
      "спасательные": 8822,
      "перерегистрация": 8823,
      "\"),": 8824,
      "оплач": 8825,
      "бородина": 8826,
      "заверил": 8827,
      "рассчитывают": 8828,
      "путиным": 8829,
      "острове": 8830,
      "маша": 8831,
      "токио": 8832,
      "настолько": 8833,
      "офицера": 8834,
      "площадью": 8835,
      "кабинет": 8836,
      "кабинета": 8837,
      "вспых": 8838,
      "кадарской": 8839,
      "ратификации": 8840,
      "угля": 8841,
      "обрушился": 8842,
      "утечка": 8843,
      "телекоммуникационных": 8844,
      "высказался": 8845,
      "льготы": 8846,
      "небольш": 8847,
      "прокуратуре": 8848,
      "валентина": 8849,
      "звонков": 8850,
      "сигнал": 8851,
      "аслан": 8852,
      "мухам": 8853,
      "останется": 8854,
      "newswe": 8855,
      "воздуха": 8856,
      "природного": 8857,
      "кндр": 8858,
      "котиров": 8859,
      "прилег": 8860,
      "вытес": 8861,
      "разверт": 8862,
      "венгр": 8863,
      "##американ": 8864,
      "бригады": 8865,
      "обсудили": 8866,
      "банкротстве": 8867,
      "церемонии": 8868,
      "листовки": 8869,
      "футболь": 8870,
      "футбол": 8871,
      "язы": 8872,
      "заинтересован": 8873,
      "продовольствия": 8874,
      "аксененко": 8875,
      "управляющий": 8876,
      "аэрок": 8877,
      "махачкале": 8878,
      "хаттаба": 8879,
      "стоящ": 8880,
      "минфина": 8881,
      "издания": 8882,
      "ополз": 8883,
      "влияние": 8884,
      "раисы": 8885,
      "улицах": 8886,
      "энергосистем": 8887,
      "usa": 8888,
      "знаю": 8889,
      "эстонии": 8890,
      "##есячной": 8891,
      "##wood": 8892,
      "схема": 8893,
      "маршрут": 8894,
      "republic": 8895,
      "ассоциации": 8896,
      "пистолета": 8897,
      "solutions": 8898,
      "рязани": 8899,
      "##оться": 8900,
      "расстояние": 8901,
      "еврейской": 8902,
      "кажегельдина": 8903,
      "художе": 8904,
      "##шкович": 8905,
      "сожалению": 8906,
      "инкомбанка": 8907,
      "перехват": 8908,
      "комсомолец": 8909,
      "неясно": 8910,
      "правосуд": 8911,
      "владивосток": 8912,
      "коллектив": 8913,
      "субъектов": 8914,
      "бдительность": 8915,
      "обезвреж": 8916,
      "булг": 8917,
      "млн": 8918,
      "людмила": 8919,
      "величине": 8920,
      "##производ": 8921,
      "болезни": 8922,
      "ежедневно": 8923,
      "патрушев": 8924,
      "brent": 8925,
      "вгтрк": 8926,
      "##абатыв": 8927,
      "милошевича": 8928,
      "соболезнования": 8929,
      "эквивал": 8930,
      "сбербан": 8931,
      "параметры": 8932,
      "ленинградской": 8933,
      "иногородних": 8934,
      "gartner": 8935,
      "илюхин": 8936,
      "кстати": 8937,
      "цыган": 8938,
      "компромисс": 8939,
      "коммуникаций": 8940,
      "пообещ": 8941,
      "безусловно": 8942,
      "квадратных": 8943,
      "медикамент": 8944,
      "григорий": 8945,
      "митрох": 8946,
      "митрофанов": 8947,
      "конфиденциаль": 8948,
      "церкви": 8949,
      "whitehouse": 8950,
      "вайншт": 8951,
      "рбк": 8952,
      "сначала": 8953,
      "фкцб": 8954,
      "отреаг": 8955,
      "гораздо": 8956,
      "мерседес": 8957,
      "newsweek": 8958,
      "!\"": 8959,
      ",-": 8960,
      "DA": 8961,
      "ada": 8962,
      "blo": 8963,
      "ex": 8964,
      "fre": 8965,
      "is": 8966,
      "kfor": 8967,
      "lt": 8968,
      "man": 8969,
      "mill": 8970,
      "nt": 8971,
      "pol": 8972,
      "sp": 8973,
      "was": 8974,
      "will": 8975,
      "аи": 8976,
      "аук": 8977,
      "ачин": 8978,
      "бх": 8979,
      "бих": 8980,
      "бара": 8981,
      "броуз": 8982,
      "ва": 8983,
      "вб": 8984,
      "вар": 8985,
      "ввер": 8986,
      "впл": 8987,
      "впред": 8988,
      "ворон": 8989,
      "вражд": 8990,
      "веке": 8991,
      "вчаст": 8992,
      "вблизи": 8993,
      "гу": 8994,
      "гром": 8995,
      "дают": 8996,
      "дош": 8997,
      "дино": 8998,
      "длин": 8999,
      "жили": 9000,
      "жителя": 9001,
      "зл": 9002,
      "зелен": 9003,
      "ку": 9004,
      "коч": 9005,
      "кро": 9006,
      "кудр": 9007,
      "лайн": 9008,
      "ленты": 9009,
      "лэйн": 9010,
      "мк": 9011,
      "мур": 9012,
      "мины": 9013,
      "мьян": 9014,
      "мошен": 9015,
      "ней": 9016,
      "ничего": 9017,
      "оглаш": 9018,
      "пес": 9019,
      "печ": 9020,
      "пищ": 9021,
      "порта": 9022,
      "публиков": 9023,
      "ров": 9024,
      "рино": 9025,
      "сз": 9026,
      "сф": 9027,
      "сар": 9028,
      "сид": 9029,
      "сур": 9030,
      "спрос": 9031,
      "себ": 9032,
      "сдерж": 9033,
      "сян": 9034,
      "сброс": 9035,
      "сити": 9036,
      "секунд": 9037,
      "тв": 9038,
      "тен": 9039,
      "тему": 9040,
      "тока": 9041,
      "туг": 9042,
      "твор": 9043,
      "тогда": 9044,
      "уль": 9045,
      "фар": 9046,
      "фсн": 9047,
      "фабр": 9048,
      "хом": 9049,
      "цбр": 9050,
      "цвет": 9051,
      "чп": 9052,
      "чит": 9053,
      "чест": 9054,
      "чуд": 9055,
      "шах": 9056,
      "шаб": 9057,
      "шариф": 9058,
      "шелков": 9059,
      "шерем": 9060,
      "юар": 9061,
      "ярос": 9062,
      "##ащего": 9063,
      "##сам": 9064,
      "##сул": 9065,
      "##тии": 9066,
      "##уэ": 9067,
      "##уальной": 9068,
[...]
